<unk>	0
<s>	0
</s>	0
▁ca	-3.4506
m	-3.56252
H	-3.70693
a	-4.1917
aH	-4.22329
am	-4.27502
e	-4.41065
▁na	-4.41523
▁eva	-4.69177
i	-4.78401
AH	-4.82182
▁tu	-4.97704
▁uvAca	-5.01391
EH	-5.02039
▁iti	-5.06508
A	-5.0965
▁tat	-5.12333
sya	-5.13399
▁api	-5.14922
ena	-5.20734
▁taTA	-5.22486
▁	-5.2815
At	-5.29757
▁sa	-5.36286
An	-5.45066
▁hi	-5.51082
▁vA	-5.53841
▁te	-5.60583
▁sarva	-5.63333
I	-5.64841
ya	-5.66323
O	-5.74359
Ani	-5.8168
vA	-5.87564
▁tatra	-5.88315
t	-5.89387
asya	-5.91333
ezu	-5.93355
▁yaTA	-5.93895
Am	-5.94665
n	-5.99347
▁yat	-5.9978
Aya	-6.01398
▁tasya	-6.03241
eRa	-6.04101
AnAm	-6.04432
▁iva	-6.09071
u	-6.09832
▁yaH	-6.12713
r	-6.14374
▁aTa	-6.17857
▁evam	-6.18083
▁me	-6.20181
▁aham	-6.20554
▁vE	-6.20832
yA	-6.23556
▁tam	-6.23815
▁punaH	-6.32979
▁Darma	-6.33414
▁etat	-6.33864
▁tadA	-6.3556
ti	-6.36374
p	-6.44211
k	-6.44962
▁tvam	-6.46994
▁Bavet	-6.50202
▁sva	-6.5128
▁vi	-6.5561
d	-6.55668
g	-6.56204
▁idam	-6.56303
ra	-6.57935
▁kim	-6.58137
▁atra	-6.587
BiH	-6.60099
ta	-6.61379
▁a	-6.63926
ARAm	-6.65236
▁deva	-6.65392
l	-6.66435
▁saha	-6.67012
▁sarve	-6.68308
▁mama	-6.6855
▁sA	-6.68838
va	-6.69562
▁ayam	-6.7603
▁namaH	-6.76692
yam	-6.77136
▁pra	-6.78282
▁iha	-6.7859
uH	-6.78848
s	-6.79095
S	-6.79948
▁ye	-6.81107
te	-6.82228
▁syAt	-6.82343
▁tava	-6.83367
▁brahma	-6.84944
▁putra	-6.85712
▁dfzwvA	-6.8591
▁tena	-6.86376
nA	-6.87164
▁saH	-6.90457
▁asya	-6.90544
na	-6.90637
▁mayA	-6.90728
▁rAjA	-6.91288
▁yadi	-6.91766
▁param	-6.93158
▁karma	-6.94459
▁sarvam	-6.95944
▁arTam	-6.97881
▁vESampAyanaH	-6.98008
yaH	-6.98155
zu	-6.98931
nam	-7
▁kaTam	-7.00141
z	-7.01047
j	-7.02151
B	-7.02648
U	-7.03037
▁rAja	-7.03571
ARi	-7.08061
▁tezAm	-7.08215
▁yatra	-7.08464
▁ucyate	-7.09159
y	-7.09214
▁SrI	-7.09289
▁Bavati	-7.09575
h	-7.09745
an	-7.10499
▁upa	-7.13042
▁ha	-7.13769
▁abravIt	-7.14512
▁kftvA	-7.16127
▁rAjan	-7.17056
▁dev	-7.18053
o	-7.18461
▁prati	-7.18624
▁asti	-7.20102
▁mAm	-7.21074
f	-7.22125
▁uktam	-7.22311
▁arTa	-7.2242
▁rAma	-7.23462
▁tAn	-7.24158
▁bahu	-7.24403
▁eza	-7.2503
ram	-7.26404
▁sUtaH	-7.2663
▁pari	-7.26934
taH	-7.27343
ye	-7.27567
▁eka	-7.27584
▁sadA	-7.27961
ka	-7.282
▁Aha	-7.30345
▁anu	-7.30494
▁yA	-7.30566
Da	-7.30631
▁SrutvA	-7.31347
▁AtmA	-7.324
▁sarv	-7.327
yAH	-7.33234
kam	-7.34529
tA	-7.34932
▁veda	-7.35607
▁BArata	-7.35774
▁tvayA	-7.3738
▁purA	-7.37575
yAm	-7.37687
ni	-7.37733
▁ati	-7.38258
▁adya	-7.38321
▁Palam	-7.38985
▁tapaH	-7.40337
▁tAm	-7.40397
▁yasya	-7.40846
▁loke	-7.41326
▁Atma	-7.41559
▁ni	-7.41841
▁saMSayaH	-7.41847
▁mahat	-7.42422
▁nara	-7.42608
▁mA	-7.43323
la	-7.43765
Ra	-7.43853
▁pUrva	-7.43897
ati	-7.44447
eByaH	-7.44627
▁loka	-7.44688
▁kAma	-7.45738
▁s	-7.46818
▁kftam	-7.46918
▁rasa	-7.47212
▁et	-7.48136
tam	-7.48456
▁tasmin	-7.48513
yate	-7.49326
▁mat	-7.50189
b	-7.50598
Ami	-7.50635
▁yadA	-7.50923
RA	-7.51198
▁sam	-7.51278
▁mArkaRqeyaH	-7.51346
▁kAla	-7.51501
▁vAta	-7.5177
▁indra	-7.51785
za	-7.52106
re	-7.52111
▁aBi	-7.52172
▁kuryAt	-7.52458
c	-7.52552
w	-7.53158
▁para	-7.53258
kaH	-7.53349
yoH	-7.53426
▁uttamam	-7.54233
▁parama	-7.54415
▁jAyate	-7.54976
▁Barata	-7.55063
▁tasmAt	-7.55156
▁t	-7.5535
▁guRa	-7.55623
ca	-7.55836
rA	-7.5607
anti	-7.5658
▁vAkyam	-7.57436
raH	-7.57475
yAt	-7.57764
▁guru	-7.57859
▁pitta	-7.5849
▁tri	-7.58639
▁bala	-7.58978
▁sama	-7.5899
▁svayam	-7.59326
▁uktaH	-7.60172
▁asi	-7.60805
▁aBavat	-7.61031
▁an	-7.61293
▁nfpa	-7.62524
pa	-7.63197
ve	-7.63478
da	-7.64023
▁ataH	-7.64196
oH	-7.65372
▁ete	-7.65884
RAm	-7.65999
▁BIzmaH	-7.66166
▁agni	-7.66268
▁DarmaH	-7.66483
naH	-7.66845
▁kuru	-7.67563
▁kft	-7.69542
▁vacaH	-7.70246
at	-7.71092
▁kAle	-7.71705
▁puruza	-7.71756
Ram	-7.7177
▁satya	-7.72742
▁kAryam	-7.73569
▁BUta	-7.7381
ja	-7.74178
▁Bavizyati	-7.74218
▁BUt	-7.74275
▁putr	-7.74972
▁mahA	-7.76068
▁devAH	-7.76292
ate	-7.76326
Sa	-7.76349
▁balam	-7.76395
▁S	-7.76462
▁kaPa	-7.76796
▁pApa	-7.77088
DA	-7.77169
▁SfRu	-7.77299
▁Pala	-7.77542
▁kaH	-7.77817
▁tvAm	-7.78133
su	-7.78317
▁j	-7.78377
▁rakta	-7.7848
▁doza	-7.78679
▁anyat	-7.78731
▁strI	-7.78941
▁AtmanaH	-7.79107
▁sarvezAm	-7.79314
▁asO	-7.79519
▁Adi	-7.79782
lam	-7.79922
▁UcuH	-7.80035
▁fzaBa	-7.80956
▁yAvat	-7.81561
▁satyam	-7.81939
▁kfta	-7.82126
▁manaH	-7.82447
ayA	-7.83296
▁yena	-7.83471
▁vipra	-7.8399
▁brahmA	-7.84883
▁jagat	-7.84999
▁vara	-7.85443
si	-7.85935
▁arTaH	-7.86339
▁AtmAnam	-7.86445
sa	-7.86707
▁Bavanti	-7.87519
▁paramam	-7.87711
▁tAta	-7.87746
▁naraH	-7.8785
▁nir	-7.87917
▁raRe	-7.88315
▁paYca	-7.88344
▁anye	-7.88412
▁asmi	-7.8895
▁rUpam	-7.89254
▁BUtAnAm	-7.8956
ne	-7.89782
▁gataH	-7.90267
AByAm	-7.90749
▁kAraRam	-7.90885
▁uktvA	-7.91283
et	-7.91755
K	-7.92215
tuH	-7.92691
anam	-7.9279
tAm	-7.93363
▁ISvaraH	-7.93675
▁mahAn	-7.94091
▁maDye	-7.94693
E	-7.95048
▁sma	-7.95125
▁kanyA	-7.95559
var	-7.96144
▁pitA	-7.96418
▁ekam	-7.9654
▁rUpa	-7.97137
itam	-7.97248
▁yoga	-7.97479
▁Sakra	-7.9777
nti	-7.97803
▁snAt	-7.97969
▁anena	-7.98472
inaH	-7.98801
▁ava	-7.98802
▁AsIt	-7.98855
kar	-7.99339
▁sura	-7.99351
T	-7.99806
▁smftaH	-7.99861
▁k	-8.00104
▁kfzRa	-8.00453
▁ka	-8.00669
▁sattama	-8.00851
itA	-8.0098
▁astu	-8.01345
kAr	-8.01522
▁mahAtmanaH	-8.01639
ha	-8.01974
▁kar	-8.02928
▁jYAna	-8.03273
▁tO	-8.03432
▁Bava	-8.03779
▁rAkzasa	-8.03809
▁A	-8.03928
ayaH	-8.03961
tu	-8.04043
▁cet	-8.04283
▁samam	-8.04402
▁devaH	-8.04924
▁Siva	-8.05005
▁B	-8.0564
▁tAvat	-8.05781
om	-8.06023
▁nAga	-8.06231
▁kriyA	-8.06342
▁Sata	-8.06353
▁dadyAt	-8.06465
▁pfTak	-8.06765
▁yajYa	-8.07306
▁fzayaH	-8.07426
▁BavAn	-8.076
▁AhuH	-8.07758
▁vidyate	-8.07798
▁muni	-8.07806
▁vidyA	-8.08059
▁D	-8.08139
▁ekaH	-8.08209
um	-8.08464
▁pArTa	-8.0847
▁Satam	-8.08484
▁varza	-8.08495
▁jYAnam	-8.08556
▁as	-8.08594
▁sUta	-8.08951
▁sarvAn	-8.09001
cC	-8.09481
▁pfTivI	-8.09655
nAm	-8.09951
▁prApya	-8.10123
▁tapasA	-8.1039
▁raTa	-8.11282
▁hema	-8.11535
▁asmin	-8.12022
▁pitf	-8.12253
▁g	-8.12261
▁prIt	-8.12417
ke	-8.12507
▁ku	-8.12539
▁padam	-8.13123
▁mantra	-8.14239
▁samA	-8.14288
▁samyak	-8.14291
▁imam	-8.14295
▁arTe	-8.1439
tAH	-8.14556
▁pAda	-8.1462
▁nAnA	-8.1465
▁vIra	-8.14829
sA	-8.14844
q	-8.15485
▁deha	-8.15559
▁brAhmaRaH	-8.157
▁su	-8.15747
nta	-8.15871
▁sahit	-8.15955
▁agniH	-8.16177
▁Darm	-8.16595
▁varam	-8.16888
▁SUr	-8.17177
▁suKa	-8.17368
▁BU	-8.17399
▁hitam	-8.17812
▁lakzaRam	-8.17817
▁ud	-8.17859
▁Sara	-8.17863
▁sv	-8.17978
▁viviD	-8.18018
▁candra	-8.18482
▁vit	-8.18628
▁karmaRA	-8.18922
▁yam	-8.18936
▁brahmaR	-8.19092
▁jala	-8.19454
▁viDi	-8.19635
▁anyaTA	-8.19766
▁paraH	-8.19991
▁divyam	-8.20011
▁tEH	-8.20148
▁sutaH	-8.20623
itaH	-8.2071
▁maDu	-8.20953
▁devI	-8.21072
▁rudra	-8.21293
▁rAjyam	-8.21336
▁iyam	-8.21387
daH	-8.21556
▁kva	-8.21813
▁puruzaH	-8.21919
▁arT	-8.22049
▁dvi	-8.22248
▁gatvA	-8.22501
▁vinA	-8.22691
▁go	-8.2275
tra	-8.23204
▁manasA	-8.23311
▁vaH	-8.23937
▁praBuH	-8.2401
▁rasaH	-8.24155
▁sUrya	-8.24271
▁suKam	-8.24595
▁varRa	-8.2488
▁l	-8.25111
▁gatiH	-8.25266
▁lokam	-8.25503
▁nArAyaRa	-8.25602
Ta	-8.25613
▁var	-8.25726
▁apa	-8.25743
zw	-8.25788
▁ante	-8.25799
▁varaH	-8.26321
ByaH	-8.26446
▁kula	-8.26617
▁avi	-8.26943
▁mahAdeva	-8.27065
▁sapta	-8.27085
▁dAnam	-8.27428
▁priya	-8.27714
▁BUyaH	-8.27807
▁ras	-8.27886
▁anyaH	-8.2793
▁dam	-8.27968
yante	-8.28408
▁aBUt	-8.28445
▁arhasi	-8.2881
▁snigDa	-8.29109
▁kAm	-8.29365
▁puzpa	-8.29633
▁gatim	-8.29809
▁dvija	-8.29957
▁sADu	-8.30031
▁c	-8.3023
▁jagAma	-8.30507
▁dAn	-8.30628
▁r	-8.30953
▁kArya	-8.31091
▁soma	-8.31217
▁vayam	-8.3129
RaH	-8.31361
▁hari	-8.31424
▁yuktam	-8.31756
▁SAstra	-8.31862
▁viza	-8.31864
▁paSya	-8.32134
▁vizRu	-8.32204
▁droRa	-8.32505
ante	-8.32574
▁y	-8.32799
▁any	-8.33136
▁deSa	-8.33479
▁vya	-8.34147
▁tasyAH	-8.34278
▁kAl	-8.34297
▁pARqu	-8.3434
▁daSa	-8.34652
▁BIma	-8.34725
▁laGu	-8.34831
gam	-8.3519
▁yasmAt	-8.35588
▁mUla	-8.35814
▁alpa	-8.35861
▁trayaH	-8.35996
▁yuktaH	-8.36041
▁vAk	-8.36166
kft	-8.36363
▁antara	-8.36491
▁azwa	-8.36904
▁budDiH	-8.3701
▁jYAtvA	-8.3706
nI	-8.37218
▁Darmam	-8.3738
▁tayoH	-8.37414
▁kA	-8.3772
▁vana	-8.37905
▁indraH	-8.38074
vI	-8.38154
▁pAp	-8.38388
▁kAlaH	-8.38523
▁Soka	-8.38543
▁mfga	-8.38677
▁rAjYaH	-8.38919
▁yuDizWira	-8.38978
▁tyakt	-8.39084
▁baBUva	-8.39168
▁dattvA	-8.39168
▁kArayet	-8.39174
▁sahasrARi	-8.39243
▁arjunaH	-8.39278
▁ma	-8.3929
▁nihat	-8.39513
▁sTitaH	-8.39541
▁tIrTam	-8.39614
▁tezu	-8.39991
▁indriya	-8.40033
▁sTAnam	-8.4006
▁BUtAni	-8.40223
▁SrezWa	-8.40355
▁AyuH	-8.40567
avaH	-8.40579
▁vizam	-8.40712
▁Basma	-8.40722
▁tejasA	-8.40935
▁mardayet	-8.41012
▁kAlam	-8.41263
▁vid	-8.41285
vart	-8.41448
▁icCAmi	-8.41495
▁mfdu	-8.41875
▁puRya	-8.42027
▁uzRa	-8.42084
▁aNga	-8.4233
▁nAradaH	-8.42385
▁kartum	-8.42435
▁parA	-8.42631
▁divya	-8.42871
▁dAnava	-8.43241
▁janma	-8.43372
ayoH	-8.4352
▁sarvaSaH	-8.43702
▁puRyam	-8.43705
od	-8.43769
▁mft	-8.43785
▁vAnara	-8.43842
▁kftaH	-8.439
kA	-8.43925
▁devam	-8.44125
▁yAn	-8.44158
▁pARqavAH	-8.44159
iBiH	-8.44256
▁karoti	-8.44337
▁sarvAH	-8.44352
▁mAna	-8.44716
▁Sveta	-8.4509
van	-8.45182
▁Satru	-8.45301
AMsi	-8.45384
▁Pal	-8.45461
▁gacCati	-8.45501
rUp	-8.45625
▁tattva	-8.4564
In	-8.45916
tO	-8.46011
▁aSva	-8.46183
▁yAti	-8.46323
▁roga	-8.46458
▁nu	-8.46472
tI	-8.46702
▁vane	-8.46723
▁kila	-8.46737
▁vipr	-8.46783
▁smftam	-8.46853
▁DftarAzwraH	-8.46932
▁SuBam	-8.47115
▁mAyA	-8.47117
▁vizRuH	-8.47136
▁pApam	-8.47173
▁kftA	-8.47314
▁viS	-8.47604
▁yajY	-8.47807
▁padma	-8.47886
▁brUhi	-8.48248
▁ezA	-8.48408
▁sahasra	-8.48525
▁jYaH	-8.48773
▁ut	-8.48834
▁kurute	-8.49047
▁amita	-8.4925
Nk	-8.49682
▁pacet	-8.49729
▁ganDa	-8.49732
▁yudDam	-8.49809
▁dfSyate	-8.49814
▁SIta	-8.4983
▁arka	-8.49889
▁putrAH	-8.49911
Ms	-8.4993
▁tIrT	-8.49956
▁darSanam	-8.50079
▁sidDi	-8.50405
▁SrezWaH	-8.50491
yena	-8.50656
▁ja	-8.50782
▁ved	-8.50806
▁viduH	-8.50877
▁antare	-8.51101
▁prApta	-8.51158
▁svarga	-8.51257
▁pArTiva	-8.51587
▁Bayam	-8.51666
▁tIrTe	-8.51748
▁zaw	-8.51776
▁Srutam	-8.51814
▁Sa	-8.51827
Im	-8.51946
▁ganDarva	-8.52135
▁gfhIt	-8.52376
▁rudr	-8.52527
▁prARa	-8.5268
▁giri	-8.52814
akaH	-8.52899
▁mftyu	-8.52949
▁aS	-8.53104
▁daRqa	-8.53109
▁ad	-8.53252
ita	-8.53353
▁praBo	-8.53428
▁sahasr	-8.53526
▁anna	-8.53677
le	-8.53679
▁antaH	-8.53771
▁gacCa	-8.53777
▁mahAtmAna	-8.53905
▁SaraRa	-8.53907
▁samaH	-8.53997
▁vAyuH	-8.54123
▁mAMsa	-8.54165
▁tulya	-8.54179
▁sAkzAt	-8.54393
▁matiH	-8.54457
▁ASu	-8.54465
▁SarIra	-8.54621
▁pIta	-8.54732
laH	-8.5481
▁garBa	-8.54982
▁pA	-8.55245
▁sattva	-8.55273
rAH	-8.55371
▁mAtA	-8.55436
▁prA	-8.55559
▁ek	-8.55623
▁kowi	-8.55713
▁vanam	-8.55745
▁veg	-8.55751
▁viSva	-8.55962
▁dA	-8.56216
▁Dan	-8.56251
▁ezAm	-8.56442
▁aD	-8.56496
▁Baya	-8.56525
▁bAhu	-8.5654
asmE	-8.56579
▁uttama	-8.56626
▁pate	-8.5688
▁vfdD	-8.56968
▁BAg	-8.56975
▁manye	-8.57237
▁trayam	-8.57617
▁brAhmaRAH	-8.57769
▁pIt	-8.57845
▁annam	-8.57937
▁rakz	-8.58139
▁asmAkam	-8.58177
▁laBate	-8.58228
▁hanti	-8.5832
▁proktam	-8.58331
▁prajA	-8.58483
▁vajra	-8.58498
▁tejaH	-8.58527
▁par	-8.58552
▁priyam	-8.58767
▁rAjYA	-8.58978
▁rAm	-8.59052
▁BUmi	-8.59208
▁mAtr	-8.59225
▁kena	-8.59248
▁pituH	-8.59296
▁nAma	-8.59324
ByAm	-8.59446
▁kaTitam	-8.59652
▁guruH	-8.59999
▁yog	-8.60068
▁viSAm	-8.60238
ataH	-8.60283
▁gadA	-8.60392
▁anaGa	-8.60406
▁aNg	-8.6055
InAm	-8.60651
▁varR	-8.6076
▁gatAH	-8.60801
hi	-8.60889
▁vartate	-8.60971
▁Dana	-8.61026
▁vyAsaH	-8.61146
Ana	-8.61263
▁BAva	-8.61345
▁BAv	-8.61372
▁karam	-8.61388
rI	-8.61476
▁kawu	-8.61564
▁SaNKa	-8.61679
SaH	-8.61774
▁sneha	-8.61806
▁yuDizWiraH	-8.61931
▁siMha	-8.61977
▁sat	-8.62317
▁samprApt	-8.62377
▁vyADi	-8.62418
▁guREH	-8.62482
▁uttaram	-8.62542
▁indr	-8.62564
▁har	-8.62652
▁patiH	-8.62817
▁kroDa	-8.62822
▁BaktyA	-8.62838
tum	-8.63023
▁bAla	-8.63133
akam	-8.63134
▁sarvatra	-8.63243
▁anuttamam	-8.63476
▁liNga	-8.63563
ase	-8.63642
▁tvayi	-8.63845
▁jAt	-8.63895
▁dad	-8.64082
▁fzi	-8.64094
▁mokza	-8.64172
▁guRAH	-8.64309
▁ASrama	-8.64375
▁tIrTa	-8.64422
▁jIvitam	-8.64581
▁kzatra	-8.64839
▁budDi	-8.64883
▁bahavaH	-8.65018
▁uzRam	-8.65089
sam	-8.6534
▁jaya	-8.6541
▁d	-8.65431
▁vaktum	-8.65609
▁aDipa	-8.65617
▁rUp	-8.65674
atAm	-8.65867
▁sidD	-8.66089
▁maDura	-8.66185
▁loha	-8.66299
reRa	-8.6631
▁arhati	-8.66312
▁SuBa	-8.66343
se	-8.66425
▁jYAn	-8.6644
▁anila	-8.66589
▁pUjayet	-8.66826
▁pa	-8.66949
▁kartavyam	-8.67046
▁sItA	-8.67124
▁SivaH	-8.67171
▁viDiH	-8.67206
▁pArT	-8.67234
▁AtmanA	-8.6727
▁amftam	-8.67386
▁dinam	-8.67569
▁jIva	-8.67717
▁anyonya	-8.68012
▁Kalu	-8.68058
▁DAr	-8.68093
sva	-8.68102
▁cakra	-8.68151
▁haram	-8.68256
Ava	-8.68317
Ri	-8.68468
▁doz	-8.6848
aRam	-8.68536
▁aMS	-8.68577
kAH	-8.68693
▁putram	-8.68719
▁SilA	-8.68738
▁ar	-8.68769
▁yudDe	-8.68839
▁Ad	-8.68913
asi	-8.6904
▁gaRa	-8.69219
▁Buvi	-8.69235
▁tAH	-8.69359
▁gate	-8.69427
▁tAra	-8.69503
▁ratna	-8.69534
▁vIrya	-8.69536
▁SarEH	-8.69546
▁kOnteya	-8.69573
▁hariH	-8.69777
▁arDa	-8.69838
▁pUjA	-8.69852
▁varz	-8.69896
▁rajaH	-8.70192
▁jan	-8.70738
▁sidDa	-8.7088
▁yuga	-8.7089
▁dEtya	-8.71243
▁Sastra	-8.7127
▁daH	-8.7141
▁nitya	-8.71438
▁anyatra	-8.71477
▁niyam	-8.71545
pad	-8.71668
▁pibet	-8.71761
▁jvara	-8.7178
▁mayam	-8.71839
▁pravakzyAmi	-8.71901
▁pitAmahaH	-8.71955
▁SudDa	-8.72069
ikA	-8.72139
aye	-8.72326
▁dadarSa	-8.72364
▁jarA	-8.72397
▁syuH	-8.72416
▁vinAS	-8.72593
▁man	-8.7266
▁brAhmaR	-8.73072
▁kartA	-8.73143
▁mahatA	-8.73187
▁sattvam	-8.73213
▁muKy	-8.73452
▁Danam	-8.73535
▁yogena	-8.73625
▁vakzyAmi	-8.73647
▁pitar	-8.73649
▁BUmO	-8.73654
▁Bakti	-8.73719
▁gaja	-8.73721
▁kara	-8.73931
▁mahAtmanA	-8.74031
▁mAs	-8.74086
▁vidDi	-8.74131
▁BImasena	-8.74235
▁mahI	-8.74242
rEH	-8.74372
RAt	-8.74409
▁mAnuz	-8.74706
▁nAg	-8.74857
Ala	-8.74862
▁manda	-8.74902
▁astra	-8.74942
▁AdAy	-8.7495
▁sTam	-8.75166
▁Sat	-8.75414
▁BIzma	-8.75575
▁Slezma	-8.75586
▁yayAtiH	-8.75588
▁imAm	-8.75588
yuH	-8.75656
▁duryoDanaH	-8.75662
▁kalA	-8.75796
▁muniH	-8.75876
ras	-8.75967
▁etAn	-8.76038
▁catur	-8.76186
▁jit	-8.76361
▁adButam	-8.76432
▁vyAGra	-8.76506
inA	-8.76535
▁Asan	-8.76604
▁dravya	-8.76623
▁SiraH	-8.7665
▁hita	-8.76864
▁smftAH	-8.76869
▁dIrGa	-8.7688
▁SArdUla	-8.76881
▁itar	-8.76974
▁bAR	-8.77311
▁hfdaya	-8.77345
▁vada	-8.77376
vaH	-8.77436
▁hast	-8.77548
▁AgataH	-8.7758
▁vAs	-8.77598
▁amla	-8.77693
▁sugrIva	-8.77761
▁tA	-8.77858
zwa	-8.77935
nda	-8.78129
▁pARqava	-8.7816
▁maDya	-8.78174
▁jana	-8.78199
▁AhAra	-8.78275
jaH	-8.78333
▁gatam	-8.78367
ku	-8.78522
dD	-8.78555
▁sTitam	-8.78737
▁SreyaH	-8.7892
vya	-8.78946
▁sarvadA	-8.78962
▁cakAra	-8.78966
▁tizWati	-8.7908
▁gaNgA	-8.79171
▁rUpeRa	-8.79187
▁brAhmaRa	-8.79531
inAm	-8.79594
pAl	-8.79704
▁nadI	-8.79759
par	-8.79922
▁sEny	-8.79968
eta	-8.80072
▁jA	-8.80201
▁dvO	-8.80285
▁kz	-8.80308
▁droRaH	-8.80355
▁kalpa	-8.80707
▁SuciH	-8.80918
▁mayi	-8.80976
▁p	-8.81001
▁BAga	-8.81025
▁SrezWam	-8.8119
▁maheSvaraH	-8.81515
▁tikta	-8.81559
▁tale	-8.81617
▁drazwum	-8.81672
▁Sakti	-8.81892
▁mUtra	-8.81909
▁divy	-8.82053
▁fte	-8.82078
▁dAna	-8.82165
▁sampann	-8.82214
▁b	-8.82254
▁mUlam	-8.82301
▁praBA	-8.82317
▁vizRoH	-8.82369
▁jAtaH	-8.8239
▁Goram	-8.82398
▁sTaH	-8.82497
▁Sabd	-8.82746
▁devatA	-8.82803
▁mitra	-8.82856
▁DArtarAzwr	-8.83073
▁viSArad	-8.83073
▁karmARi	-8.83085
▁anta	-8.83119
▁rakza	-8.83128
▁kazAya	-8.83184
▁duryoDana	-8.83255
▁rAjAna	-8.83401
▁kfte	-8.83445
▁gata	-8.83477
▁pARi	-8.83787
▁rAGava	-8.83967
▁kAYcanam	-8.84163
▁prajAH	-8.84183
▁sidDim	-8.84276
▁mAsa	-8.84398
▁sidDiH	-8.84427
▁Ka	-8.84434
▁SabdaH	-8.84747
▁Atmakam	-8.84787
▁dfSy	-8.84864
▁uttamaH	-8.849
▁van	-8.84944
▁prAha	-8.84984
▁cUrRam	-8.85089
▁striyaH	-8.85216
▁sadyaH	-8.85226
▁krudDaH	-8.85334
▁ISvara	-8.85468
▁puruz	-8.85504
▁badD	-8.85622
▁muKam	-8.8565
▁pras	-8.85659
▁Sez	-8.85756
▁vftaH	-8.85946
▁tizWa	-8.86057
▁maRi	-8.86315
▁muK	-8.86392
▁sarp	-8.86401
▁dAha	-8.86414
▁dvijAH	-8.86445
▁mantr	-8.86473
▁saMyuge	-8.86482
▁kfcCr	-8.8667
▁Apnoti	-8.86672
▁BrAtf	-8.86696
▁cakzuH	-8.8671
▁Agat	-8.86736
▁pAd	-8.86736
▁dvijaH	-8.8687
▁paramA	-8.8707
▁Sizy	-8.87391
▁uttara	-8.8741
▁karmaRi	-8.87598
▁jAta	-8.87644
▁Bakt	-8.87776
▁yAnti	-8.87836
▁bIjam	-8.87893
▁BrAtar	-8.88167
▁itihAsa	-8.88284
▁mala	-8.88475
▁trizu	-8.88495
▁bahUn	-8.88605
▁uta	-8.88781
▁kapi	-8.88796
▁tuByam	-8.88898
▁gfh	-8.89312
▁pr	-8.8934
▁asura	-8.89344
vAn	-8.89485
▁dattam	-8.89531
▁vrat	-8.8954
zi	-8.89606
nte	-8.89631
▁Srotu	-8.89644
▁yuDi	-8.89644
yasmin	-8.89673
▁sahasraSaH	-8.89677
▁jIv	-8.89769
▁manuzy	-8.90007
▁mArg	-8.90082
rat	-8.90215
asmin	-8.90295
▁avApnuy	-8.90402
▁dakziRA	-8.90404
▁upari	-8.90412
▁anIk	-8.9044
▁vratam	-8.9055
▁vyA	-8.90611
▁janAH	-8.90629
▁karaH	-8.90631
▁apare	-8.9085
▁narmadA	-8.90918
▁hasta	-8.90951
▁vAd	-8.90987
iRaH	-8.91111
▁citra	-8.91132
▁diSaH	-8.91166
▁tayA	-8.91347
yatAm	-8.91349
▁Sabda	-8.91409
nena	-8.91418
▁tray	-8.91468
▁kAmaH	-8.91545
ad	-8.91546
▁krama	-8.91742
▁avApnoti	-8.91935
▁muhuH	-8.91935
▁BavatA	-8.91972
dam	-8.92008
▁v	-8.92262
▁kzIra	-8.92311
▁hataH	-8.92412
cAr	-8.92419
▁sveda	-8.9242
▁munayaH	-8.9271
▁muKa	-8.92724
▁prajApatiH	-8.92728
▁BUtezu	-8.92797
▁deveSa	-8.92824
▁parvata	-8.92849
ze	-8.92969
▁anyAn	-8.93021
▁yukt	-8.93058
▁aMSa	-8.93097
ah	-8.93109
▁paSu	-8.93151
▁guRAn	-8.93169
▁aparam	-8.93229
▁triBiH	-8.93235
▁kzetra	-8.93256
eyam	-8.93266
▁kasya	-8.93316
▁Agatam	-8.93423
▁vAsudevaH	-8.93472
▁pfTivyAm	-8.93491
▁svAdu	-8.93491
▁gatA	-8.93602
▁rasam	-8.93657
▁yama	-8.93658
▁jAti	-8.93792
▁dve	-8.93968
▁pramARam	-8.94056
▁jita	-8.94157
▁bIja	-8.9423
▁manuH	-8.94237
▁hatvA	-8.94283
▁rAkzasAH	-8.94561
▁sanAtanaH	-8.94662
▁devAn	-8.94758
▁dvayam	-8.94881
deS	-8.94979
▁rUkza	-8.95009
▁yaSaH	-8.95076
▁pravftt	-8.95084
▁agra	-8.95243
▁nAmnA	-8.95273
▁rAGavaH	-8.95349
▁vIry	-8.95532
▁ramy	-8.9555
rARi	-8.95562
▁vIr	-8.95756
▁mada	-8.95885
▁gfham	-8.95914
▁tAmra	-8.95972
▁vaMSa	-8.96045
▁piRqa	-8.96086
▁tamaH	-8.96128
▁avyayam	-8.96236
▁SIla	-8.9627
▁prakfti	-8.96286
jA	-8.96314
▁SUla	-8.96359
▁lokaH	-8.96457
▁svargam	-8.96661
▁apra	-8.96672
rAn	-8.96708
▁praviS	-8.96738
▁niyata	-8.96742
▁rAjAnaH	-8.96786
▁tIkzRa	-8.96787
▁pAt	-8.96839
patiH	-8.9685
▁vasu	-8.96966
▁mAtram	-8.97193
▁suK	-8.9723
▁antaram	-8.97236
▁rakzasAm	-8.97341
▁viSeza	-8.9736
Asu	-8.97561
▁sfzw	-8.97589
▁sUt	-8.97789
▁ap	-8.978
▁mah	-8.97813
▁hata	-8.97987
▁vAsa	-8.98057
nAt	-8.98225
▁pravartate	-8.98312
▁DAtu	-8.98333
Rqa	-8.98368
▁sadfS	-8.98479
▁aDi	-8.98518
▁karRa	-8.9852
▁narAH	-8.98856
▁tap	-8.9888
▁grAh	-8.98913
▁AdyAH	-8.9895
▁prAptaH	-8.9898
▁pratijYA	-8.99087
▁lokAH	-8.99088
▁kasmAt	-8.99144
▁AdyEH	-8.99152
▁sTA	-8.99198
kEH	-8.9923
▁Bav	-8.99286
▁DanuH	-8.99324
▁devadeva	-8.99422
mAnam	-8.99538
▁dadO	-8.99592
▁rAjya	-8.99641
▁karRaH	-8.99757
oz	-8.99846
▁vatsa	-8.9992
▁vidyAt	-8.99921
▁dfQa	-8.99968
▁catvAraH	-8.99971
▁priyA	-8.99983
▁ime	-8.99983
▁AB	-9.00001
▁sTit	-9.00063
▁lokAn	-9.00103
tavyam	-9.00315
▁nandana	-9.00355
▁pu	-9.00479
▁gaRAH	-9.00493
▁moha	-9.00577
▁kzipt	-9.00652
▁mucyate	-9.00811
▁kuntI	-9.00811
▁priye	-9.00812
▁jYa	-9.00862
▁DAnya	-9.00875
▁prARAn	-9.00952
▁badDa	-9.01182
▁liNgam	-9.01268
▁vIraH	-9.01472
▁harza	-9.01475
▁maNgal	-9.01659
▁nUnam	-9.01659
▁hetu	-9.01682
▁budDyA	-9.01748
▁cakre	-9.01834
▁lok	-9.01945
▁kzaya	-9.01984
▁senA	-9.02158
▁vimAn	-9.02173
▁BavataH	-9.0218
▁arjuna	-9.02212
▁nava	-9.02452
▁vAyu	-9.02518
▁BayAt	-9.02662
▁pitaraH	-9.02795
▁jYAt	-9.02834
putr	-9.02868
▁dozaH	-9.02876
▁rAvaRa	-9.02887
▁SaktiH	-9.03021
▁lokasya	-9.03115
▁sAgara	-9.03126
▁kzayam	-9.03131
▁DarmeRa	-9.03135
▁akza	-9.03317
▁yakz	-9.03373
▁ukta	-9.03427
avAn	-9.03547
zyAmi	-9.03586
papAta	-9.03607
▁keSava	-9.03723
▁manasaH	-9.03784
▁lokAnAm	-9.0391
rAm	-9.03932
▁mftyuH	-9.04049
▁ak	-9.0417
▁aja	-9.0419
▁miTyA	-9.04245
▁dizw	-9.04246
▁yoni	-9.0425
ran	-9.04258
▁yakza	-9.0427
▁ISvaram	-9.04294
▁kzamA	-9.04374
▁patra	-9.04404
▁puruzam	-9.04422
▁janamejayaH	-9.04426
▁ganDarv	-9.04433
▁tElam	-9.04461
▁sUryaH	-9.04614
▁maDyam	-9.04622
gaH	-9.0472
man	-9.04859
▁anya	-9.04894
▁avyaktam	-9.04956
▁yAm	-9.04972
▁mAtrA	-9.05054
▁BAvaH	-9.05083
▁vaD	-9.05096
▁raT	-9.05106
ot	-9.05144
▁vet	-9.05161
pe	-9.05165
▁pitAmaha	-9.05273
▁gar	-9.05423
▁vIryam	-9.05652
▁Ananda	-9.05658
▁kroD	-9.05793
▁prajYA	-9.06007
▁haraH	-9.06039
▁mayaH	-9.06052
▁puRy	-9.06069
▁kule	-9.06326
▁graha	-9.06514
▁liNg	-9.06693
▁gam	-9.0674
▁Badram	-9.06898
▁prApnoti	-9.069
▁mataH	-9.06923
BUt	-9.06954
▁vaDa	-9.07008
▁ASram	-9.07018
▁BUtam	-9.07083
▁yoD	-9.07097
▁mal	-9.07105
AyAm	-9.07108
▁kzaRAt	-9.07136
▁da	-9.07271
▁mahAtmanAm	-9.07337
▁prAh	-9.0737
▁Binna	-9.07527
▁deSe	-9.07555
▁BImaH	-9.07602
▁hetuH	-9.07712
▁duzwa	-9.07753
▁ruci	-9.07782
▁puraskft	-9.07801
▁narADipa	-9.07802
agrAha	-9.07839
▁karR	-9.07871
▁Dar	-9.07928
▁mAn	-9.07985
▁kuzWa	-9.08029
▁surA	-9.08067
▁mukt	-9.08147
▁rudraH	-9.08158
▁AcArya	-9.0816
yezAm	-9.08168
▁pakza	-9.08178
▁kfzRaH	-9.08243
▁deS	-9.08328
ire	-9.08368
▁prIti	-9.08399
▁Srut	-9.08631
▁tuzwa	-9.08663
Apa	-9.08731
▁vAri	-9.0883
▁SarIram	-9.08878
▁AKy	-9.08887
▁sAma	-9.08932
▁mAhAtmyam	-9.09032
▁aDarm	-9.09054
tvam	-9.09106
▁pARqavAnAm	-9.09138
▁netra	-9.09162
▁dfzwam	-9.09184
▁vikAr	-9.09305
▁sTitAH	-9.0931
▁prAR	-9.09353
▁cAr	-9.0937
▁ambu	-9.09461
▁svarRa	-9.09491
▁dakziRe	-9.09628
▁yayO	-9.0963
▁jalam	-9.09702
▁AcAra	-9.09704
▁karmaRAm	-9.09821
▁caret	-9.09822
▁indriyaH	-9.09934
▁ganD	-9.09947
▁jIvati	-9.0997
▁sahasram	-9.10051
▁deyam	-9.10102
▁sT	-9.10287
▁idAnIm	-9.10554
▁icCasi	-9.10561
▁purAtana	-9.10597
▁patnI	-9.10655
lak	-9.10683
▁sOmya	-9.10813
▁vfttiH	-9.10876
syAm	-9.10973
▁Art	-9.11022
▁matam	-9.11054
▁citta	-9.11059
▁uktA	-9.11087
▁dravyam	-9.1111
taram	-9.11157
▁jIve	-9.11224
▁viviDAn	-9.1142
▁santi	-9.11438
▁pARqavaH	-9.11482
▁rudD	-9.11488
▁vAcA	-9.11516
▁vfkza	-9.11538
▁Sukla	-9.11551
yE	-9.11575
▁vftt	-9.11602
▁fziH	-9.11717
▁amar	-9.11742
▁pat	-9.11788
▁prasAdAt	-9.11792
▁aSv	-9.11848
▁sutam	-9.11969
▁vrata	-9.11999
▁alam	-9.12057
▁kAr	-9.12127
▁maDuram	-9.12141
rAt	-9.12156
▁aDaH	-9.12168
▁sidDam	-9.12355
vam	-9.12372
▁nidrA	-9.12433
▁karizyAmi	-9.12453
▁vidvAn	-9.12459
▁mAnavaH	-9.12492
▁vadan	-9.12511
▁parasparam	-9.12574
▁SOcam	-9.12599
▁sadfSa	-9.12739
▁yuge	-9.12765
▁dfzwaH	-9.12774
▁SAnt	-9.12936
▁tattvam	-9.13081
▁yudDa	-9.13083
inI	-9.13102
▁arh	-9.13154
▁kfzR	-9.13231
▁aDikam	-9.13267
▁sarvaTA	-9.13391
▁UrDva	-9.13395
▁kanaka	-9.13395
▁mukti	-9.13396
▁jAH	-9.13468
yAni	-9.13725
▁yajYaH	-9.13809
▁akzaram	-9.13812
▁mArga	-9.13863
▁BAra	-9.14033
▁arDam	-9.14041
▁dIna	-9.14367
▁sTAn	-9.14528
▁dina	-9.14533
▁vAkya	-9.14584
Un	-9.14589
▁jYeyam	-9.14618
▁BrAtA	-9.14628
▁Bojanam	-9.14662
▁jale	-9.14702
▁dIpta	-9.14793
▁Sukra	-9.14925
▁Aditya	-9.14928
▁kzAra	-9.14986
vft	-9.15002
▁vidita	-9.15225
▁gacCant	-9.15312
▁ekA	-9.15477
▁apaham	-9.15897
▁zoqaSa	-9.15919
▁vfttam	-9.16001
▁SEla	-9.16007
dI	-9.16104
▁vajram	-9.16179
tEH	-9.1621
▁vahni	-9.16281
▁raRa	-9.16427
▁kzatriy	-9.16438
▁maRqal	-9.16557
▁Gfta	-9.1669
dev	-9.16752
▁tulyam	-9.16769
▁rataH	-9.169
▁indrasya	-9.16914
▁pratyuvAca	-9.17287
▁kzatriya	-9.17295
▁izyate	-9.17299
raRe	-9.17377
▁vizay	-9.17398
▁dvAdaSa	-9.17472
▁Gora	-9.1748
▁sUkzma	-9.17487
pUr	-9.17496
▁Darme	-9.17507
▁moh	-9.17564
▁mahABAga	-9.17633
▁mADava	-9.17726
▁gaREH	-9.17793
▁vfza	-9.17831
▁vyaktam	-9.17891
ntu	-9.1793
ine	-9.17998
▁yogaH	-9.18062
▁guR	-9.18168
▁nArAyaR	-9.18177
▁meGa	-9.18287
▁yaTAviDi	-9.18287
▁mUl	-9.18433
▁som	-9.18433
▁rAvaRaH	-9.1846
▁BavitA	-9.1848
▁dozAH	-9.18616
gfh	-9.18736
▁vikramaH	-9.18814
▁vidaH	-9.18842
▁deh	-9.19043
▁Sivam	-9.19103
▁jyoti	-9.19186
▁jaH	-9.19209
▁parityaj	-9.19256
Q	-9.19293
▁ApnuyAt	-9.19297
▁Bizak	-9.19297
▁atIt	-9.19318
▁gA	-9.19324
▁nATa	-9.19372
▁dakza	-9.19373
▁vasizWaH	-9.19383
▁aDipaH	-9.19385
▁kurvanti	-9.19442
▁prAya	-9.19498
tantr	-9.19728
▁agninA	-9.1979
▁samanvitaH	-9.19795
▁prayog	-9.19848
▁kaTaya	-9.19885
▁aBya	-9.20101
atA	-9.20258
itvA	-9.203
▁varjayet	-9.20328
▁jAyante	-9.20355
yEH	-9.20423
▁vAsudeva	-9.20426
▁sahitAH	-9.20587
▁Ap	-9.20651
▁praBfti	-9.20764
▁daRq	-9.20861
▁tila	-9.20871
yO	-9.20901
▁jal	-9.21022
▁ambara	-9.21075
▁gaj	-9.21111
▁viSez	-9.21249
▁nfpaH	-9.21269
▁lakz	-9.21287
▁BartA	-9.21291
▁tEla	-9.21335
▁tasyAm	-9.2135
▁cintA	-9.2138
▁jitA	-9.21508
▁marut	-9.21511
▁Sva	-9.21533
▁SUdra	-9.2158
sf	-9.21747
▁bAl	-9.21875
▁jagataH	-9.21991
ast	-9.22011
▁nASanam	-9.22029
▁snAnam	-9.22086
▁viz	-9.22179
▁SItam	-9.22226
▁pada	-9.22288
zAm	-9.22299
▁sTAvara	-9.22309
▁apaSyat	-9.2239
▁tAsAm	-9.22404
▁daRqaH	-9.22601
▁vadanti	-9.22659
▁pitr	-9.22762
▁yamaH	-9.2278
▁jAtam	-9.22818
▁Bog	-9.22981
▁proktA	-9.23083
▁samAna	-9.23114
▁guhya	-9.23117
▁dEva	-9.23149
▁mar	-9.23211
▁yuktA	-9.23262
▁jIvan	-9.23274
datt	-9.23406
kAn	-9.23423
▁tfzRA	-9.23443
▁prasidD	-9.23444
▁vismaya	-9.23452
▁tvad	-9.23475
▁kO	-9.23527
▁brahmaRA	-9.23538
▁grah	-9.23542
▁pfcC	-9.23561
▁pizw	-9.23564
▁yaj	-9.2379
▁darSana	-9.23794
▁AkAr	-9.23836
▁samanvitam	-9.23934
▁pAr	-9.24001
▁rasAyanam	-9.24133
asaH	-9.24213
▁tar	-9.24217
▁dvAr	-9.24248
▁DaraH	-9.24274
▁samAhitaH	-9.24331
▁lavaRa	-9.24422
▁varRam	-9.24435
▁kaTA	-9.24452
ntam	-9.24458
▁kftsna	-9.24601
▁pARqavAn	-9.24617
▁SAnti	-9.24626
▁uktAH	-9.24678
▁vftti	-9.24681
▁Kara	-9.24685
▁AtmajaH	-9.24694
▁udakam	-9.24803
▁proktaH	-9.24824
▁Agam	-9.24888
▁brAhmaRAnAm	-9.25018
▁labDa	-9.25053
▁mukta	-9.25075
pan	-9.25145
▁icCA	-9.25269
▁dAr	-9.25322
▁tejasaH	-9.25347
▁hara	-9.25367
▁pAn	-9.25404
▁Seza	-9.25429
▁suvarRa	-9.25506
▁vaSam	-9.25518
▁apar	-9.25556
▁bahiH	-9.25582
▁pumAn	-9.25598
▁Srama	-9.25628
▁SataSaH	-9.25652
Ita	-9.25664
jam	-9.25706
▁svaBAv	-9.25721
▁vitta	-9.25727
▁vikram	-9.2577
▁pradam	-9.25781
▁vizaya	-9.25798
▁citr	-9.25869
▁karmasu	-9.2601
▁sidDaH	-9.26032
kfzw	-9.26089
▁haMsa	-9.26177
▁purAR	-9.26262
▁hA	-9.2641
▁dEty	-9.26418
kAraH	-9.26506
▁sev	-9.26516
▁brahman	-9.26591
▁vAhan	-9.26622
oBiH	-9.26654
▁tIkzR	-9.26667
▁hetoH	-9.26669
▁kzipet	-9.26681
▁SrutiH	-9.26785
▁priyaH	-9.26906
▁Atmani	-9.27072
▁Salya	-9.27122
▁astr	-9.27332
▁apahaH	-9.27356
▁ke	-9.27385
▁ugra	-9.27416
▁BA	-9.27474
▁kAraRa	-9.2751
▁praBam	-9.27636
zWa	-9.27637
yeta	-9.27651
▁aMSam	-9.27717
aYj	-9.27755
ANg	-9.27766
jajYe	-9.27767
▁utsfjya	-9.27767
▁viDIyate	-9.27767
▁bravImi	-9.27774
▁Bavizyanti	-9.27796
▁lakzmaRa	-9.27804
▁labDvA	-9.27859
▁nIla	-9.27982
▁lakzaRa	-9.27984
▁rAkzasaH	-9.28137
ave	-9.28254
▁balAt	-9.28257
lok	-9.28377
▁ISAna	-9.28498
▁rUpaH	-9.28545
▁aneka	-9.28551
▁samBavaH	-9.28661
▁hasti	-9.28714
▁bal	-9.28793
▁devatAH	-9.28826
yanti	-9.28838
▁rog	-9.28881
▁pakz	-9.28883
▁SanEH	-9.28885
▁darSanAt	-9.29001
▁Bavat	-9.29106
yon	-9.29157
▁viduraH	-9.29171
▁As	-9.29218
▁smft	-9.29225
▁Ahave	-9.29225
▁dakziRa	-9.29407
▁aparaH	-9.29473
vyADa	-9.29495
▁aj	-9.29672
▁vijay	-9.29682
▁pARqav	-9.29817
▁anvitaH	-9.29878
▁agre	-9.29997
▁anala	-9.30031
▁japet	-9.30033
▁puzwi	-9.30301
viz	-9.30374
▁nfp	-9.30416
▁bARa	-9.30449
▁devasya	-9.30481
▁upAs	-9.30488
▁viSezaH	-9.30532
▁sita	-9.30563
budD	-9.30569
▁balena	-9.30596
▁astram	-9.30829
▁parIkz	-9.31067
▁rAtrO	-9.31139
▁banDu	-9.31146
▁cira	-9.31158
▁vastra	-9.31299
▁kawuka	-9.31304
▁ari	-9.31309
▁asyAH	-9.31377
▁itaH	-9.31544
▁SApa	-9.31593
▁netr	-9.31749
▁dvij	-9.31776
▁AdiBiH	-9.31807
▁raTam	-9.32015
iRI	-9.32046
▁suhft	-9.32288
▁tyajet	-9.32288
▁Akul	-9.32289
▁dadAti	-9.32298
▁mantraH	-9.32336
▁yug	-9.32423
▁BftA	-9.3244
banD	-9.32536
▁upA	-9.32655
▁puRyA	-9.32686
purARe	-9.32792
▁banDa	-9.32825
▁sTira	-9.33006
▁viprAH	-9.33055
▁rAvaR	-9.33223
▁izw	-9.33307
▁sparSa	-9.33393
▁jagm	-9.33395
▁prahasan	-9.33451
▁udAharanti	-9.33451
▁pUrRa	-9.33455
▁Bavizyasi	-9.33465
▁vAsaH	-9.33467
▁mftam	-9.33471
▁droR	-9.33475
▁pratI	-9.33515
▁gacCet	-9.33539
▁vijYey	-9.33546
▁ruDira	-9.3358
▁durlaBam	-9.33695
▁sahAy	-9.33741
BAv	-9.3376
▁Siras	-9.33948
▁sanAtanam	-9.3399
pAH	-9.34034
▁SAstram	-9.34091
▁Bojan	-9.34102
▁anuj	-9.3412
▁dur	-9.34231
▁janArdana	-9.34401
pAt	-9.34447
▁avasTA	-9.34535
▁Sakyam	-9.34581
▁duhit	-9.34591
▁brahmacArI	-9.34628
▁praDAnam	-9.34628
▁pavana	-9.34677
▁kurvIta	-9.34684
▁vraRa	-9.34689
▁prakftiH	-9.34735
▁SoRita	-9.3484
▁dravy	-9.34896
▁kzat	-9.34926
▁karmaBiH	-9.34961
▁lakzmaRaH	-9.35065
▁pAna	-9.35105
▁nI	-9.35125
▁vAma	-9.35144
▁Sastr	-9.35169
▁vfzwi	-9.35185
▁parAm	-9.35222
▁cit	-9.35225
▁vedAH	-9.35297
▁tyAg	-9.3552
▁Sruti	-9.35571
▁pare	-9.3572
▁puruzasya	-9.35756
▁gamanam	-9.35768
▁anug	-9.35799
▁vidD	-9.35801
▁provAca	-9.35818
▁aSnute	-9.35818
▁akarot	-9.35818
▁dadfS	-9.35818
▁vAky	-9.3583
▁jAn	-9.35849
▁smfti	-9.35872
▁sTAna	-9.36032
▁pramAR	-9.3604
▁siMh	-9.36095
▁vijaya	-9.36243
▁balI	-9.36286
▁tanay	-9.36378
▁eke	-9.36477
▁kANkz	-9.36486
▁nazwa	-9.36491
▁dfzwA	-9.36529
▁SAnta	-9.36641
▁samudra	-9.36673
Uz	-9.36688
▁hIna	-9.36724
▁prItiH	-9.36732
▁jIvit	-9.3675
▁vis	-9.36768
▁muhUrt	-9.36815
▁agr	-9.36922
▁SrAdDam	-9.36933
▁brAhm	-9.37
▁kurvan	-9.37015
▁Sriyam	-9.37022
▁cyut	-9.37022
▁saMsAra	-9.37023
▁zazwi	-9.37023
▁SuBe	-9.37023
▁BIzm	-9.37029
▁mAnavAH	-9.3704
rakz	-9.37047
▁viMSati	-9.37052
▁vayaH	-9.37085
▁AdayaH	-9.3709
▁sakft	-9.37104
▁viSudDa	-9.37275
▁SOnakaH	-9.37316
▁varuRa	-9.37321
▁karmaRaH	-9.37321
▁udaka	-9.37322
▁DyAna	-9.3734
▁janArdanaH	-9.37391
▁brAhmaRasya	-9.37396
▁suhfd	-9.37492
▁saMskAra	-9.37552
▁up	-9.37606
▁daSaraT	-9.37615
tAnAm	-9.37753
▁mAtu	-9.3776
▁samAH	-9.37874
▁BAskara	-9.37884
▁tanu	-9.37916
▁aBra	-9.37953
▁vyavasTit	-9.37996
▁niboDa	-9.38104
▁kzaye	-9.38197
▁divi	-9.38242
▁atIva	-9.38243
▁mAtf	-9.38244
▁svapna	-9.38278
▁agnO	-9.38313
▁apA	-9.38353
▁AdInAm	-9.38362
▁tvA	-9.38429
▁AkASa	-9.38471
▁GnaH	-9.38759
▁vfkz	-9.38799
ocan	-9.38912
▁vidAm	-9.3899
▁Ar	-9.39037
▁Gor	-9.39056
pate	-9.39058
▁avar	-9.39189
▁rasAyane	-9.392
▁fzI	-9.3923
▁vfdDa	-9.39259
▁anvitam	-9.39281
▁maraRam	-9.39462
▁keSa	-9.39472
▁dvijasattama	-9.39477
▁maDusUdana	-9.39477
▁aSvameD	-9.39477
▁mokz	-9.39483
▁kriyatAm	-9.39491
▁tvak	-9.39552
▁kAraR	-9.39652
▁suta	-9.39739
▁sar	-9.39744
▁Beda	-9.39802
▁bahuDA	-9.39868
▁hInaH	-9.39915
▁SEl	-9.39946
▁sati	-9.39993
▁raktam	-9.40071
▁aDyayana	-9.40073
▁purARam	-9.4014
▁pravar	-9.40166
▁kfzRam	-9.40307
▁kzIr	-9.40331
▁pal	-9.40355
▁yudD	-9.40478
▁snAna	-9.40528
asva	-9.40537
▁dIpanam	-9.40653
▁rAga	-9.40722
▁yuvA	-9.40729
▁bindu	-9.40729
▁vah	-9.40867
▁pretya	-9.40883
▁muktA	-9.40965
▁Arya	-9.40989
▁SAl	-9.41048
▁maRqalam	-9.41154
▁ftu	-9.41194
▁sarpa	-9.41214
▁antam	-9.4123
▁BAzitam	-9.41232
▁varRAH	-9.41297
▁kOravya	-9.41305
tAni	-9.41346
▁salila	-9.41396
▁SASvatam	-9.4144
▁Gftam	-9.41614
▁trElokya	-9.41623
▁vizRum	-9.41697
▁patat	-9.41699
▁niScayaH	-9.418
izyati	-9.41872
▁yogam	-9.41942
▁Dfzwadyumn	-9.41992
▁apekz	-9.41993
▁lomaSaH	-9.42007
▁mAnasaH	-9.42014
▁manyate	-9.42104
mARaH	-9.42193
▁jaG	-9.423
▁varg	-9.42352
▁vartamAn	-9.4238
▁upAy	-9.42382
▁lakza	-9.42391
▁SudDam	-9.42395
▁pAka	-9.42417
▁gaR	-9.4244
▁divyAni	-9.426
jit	-9.42763
▁tattv	-9.42829
▁Gana	-9.42837
▁parAkramaH	-9.42977
▁tIvra	-9.4302
▁vas	-9.43132
rAja	-9.43169
▁hiraRya	-9.4318
▁lakzmaR	-9.43192
▁mahAtmA	-9.43207
lAH	-9.43269
▁abruvan	-9.43274
▁aDunA	-9.43275
▁san	-9.43297
▁Suci	-9.4338
▁hite	-9.43425
▁BAk	-9.4346
▁patit	-9.43466
▁SaNk	-9.43474
▁muhUrtam	-9.43496
▁mAruta	-9.43503
▁dEv	-9.43518
▁SIt	-9.43584
zI	-9.4364
▁izwam	-9.43655
▁parameSvara	-9.43725
▁pAtre	-9.43742
▁prah	-9.43781
anta	-9.43787
▁SUnya	-9.43809
▁praBava	-9.43875
▁meru	-9.43883
▁dAruR	-9.43905
▁nivftt	-9.43942
▁pAYcAl	-9.43946
▁aSuBam	-9.43991
▁aB	-9.44006
▁kAryaH	-9.44045
▁ESvaryam	-9.4415
▁SfNg	-9.44173
▁samudr	-9.44205
▁rakzA	-9.44293
▁praDAna	-9.44311
▁japa	-9.44345
▁haya	-9.44546
▁janaH	-9.44568
Mz	-9.44573
▁AyuzaH	-9.44573
▁praSasyate	-9.44573
▁bfhaspatiH	-9.44615
▁kriyate	-9.44617
▁svADyAya	-9.44636
▁havya	-9.44732
▁pratyaya	-9.44737
▁asra	-9.4477
▁jYeyaH	-9.44963
▁mfd	-9.45012
▁samud	-9.45018
▁Sakt	-9.45025
▁ASramam	-9.45108
▁dattA	-9.452
▁KyAtaH	-9.45242
▁lohita	-9.4539
▁SrezW	-9.45508
▁sTAne	-9.45568
▁pUjit	-9.4561
▁mAl	-9.45617
▁cittam	-9.45671
▁Brama	-9.4577
▁jvaraH	-9.45809
▁guRam	-9.45867
▁Buj	-9.45877
▁pItam	-9.45888
▁bahuviD	-9.45889
▁SriyA	-9.45889
▁vapuH	-9.45889
▁vAnarAH	-9.4589
▁kurURAm	-9.45898
▁yAtrA	-9.459
BAz	-9.45911
▁gocar	-9.45961
▁kAri	-9.46117
▁brahmARam	-9.46118
▁SuBA	-9.46153
▁loB	-9.46161
▁DUma	-9.46213
▁vasuDA	-9.4637
▁yuktAH	-9.46391
▁kIrti	-9.46479
▁sadfSaH	-9.46516
▁SIl	-9.46579
▁mAMs	-9.46618
▁padm	-9.46636
▁nut	-9.46641
▁sAra	-9.46946
▁sUry	-9.47004
▁paraspara	-9.47021
▁anftam	-9.47029
▁devyA	-9.47048
▁hInA	-9.47069
▁gfha	-9.47115
arza	-9.47142
▁kavac	-9.47142
▁manyase	-9.47237
▁rasendra	-9.47239
▁guroH	-9.47246
▁icCati	-9.47261
▁kOrava	-9.4729
▁pitt	-9.47294
▁dfzwi	-9.47306
▁mAtaram	-9.47309
▁prajAyate	-9.47358
▁samaya	-9.47423
▁Agama	-9.47473
▁kuSal	-9.47484
▁BAz	-9.47494
▁Badre	-9.47499
▁fziBiH	-9.47539
▁anDa	-9.4754
▁janaka	-9.47688
▁antar	-9.47828
anAt	-9.47845
rARAm	-9.47882
▁puwe	-9.47889
▁kalyAR	-9.48048
▁bIj	-9.48063
▁grAm	-9.48172
▁yava	-9.48212
▁AyuD	-9.48213
▁dAra	-9.48283
▁putrAn	-9.48284
karma	-9.48361
▁Sar	-9.48365
▁varzam	-9.48405
▁kalp	-9.48426
▁muktaH	-9.48438
▁samast	-9.48463
▁mAtra	-9.48494
▁krUra	-9.48515
▁prakAS	-9.48524
Dvam	-9.48558
▁aYjali	-9.48574
▁laBet	-9.48574
jAH	-9.48584
▁vrajet	-9.48654
▁cakruH	-9.48659
▁BartAram	-9.48674
vit	-9.48688
▁puruzAH	-9.48711
▁varzARi	-9.48759
▁praBAv	-9.48829
▁rase	-9.48864
▁teByaH	-9.48907
▁amu	-9.49014
▁pradaH	-9.49033
▁kAnta	-9.49037
▁anyam	-9.49056
▁ABaraRa	-9.49064
▁Asana	-9.49068
▁deham	-9.49109
▁BAge	-9.49125
▁vaDaH	-9.49128
▁danta	-9.49212
▁aBAve	-9.4925
▁indriy	-9.49276
▁prasanna	-9.49292
▁tapas	-9.493
▁ISvar	-9.49328
▁parva	-9.49453
▁BIm	-9.49513
▁surAH	-9.49579
mAnaH	-9.49601
▁kali	-9.49622
▁dEvam	-9.49646
▁loBa	-9.49661
▁paNk	-9.49816
▁jaNgam	-9.49901
▁vijYAya	-9.49944
▁yuzmA	-9.49944
▁kaTyate	-9.49944
▁DArayet	-9.49944
▁hanyAt	-9.49945
▁AQy	-9.49948
▁agnim	-9.49949
▁kroDaH	-9.49949
▁yOvana	-9.49973
▁carma	-9.49981
▁yuDy	-9.50006
▁jap	-9.50038
eyuH	-9.50074
▁avaDy	-9.50074
▁prAjYaH	-9.50101
▁saBA	-9.50128
▁Bfgu	-9.50229
▁Arti	-9.50272
▁prayay	-9.50286
▁pradakziRam	-9.50332
▁arD	-9.50356
▁jantu	-9.50489
▁maheS	-9.5049
▁karza	-9.50492
▁vAsava	-9.50527
▁ASray	-9.50551
▁izwa	-9.5063
buD	-9.50777
▁vfdDi	-9.50934
▁gaH	-9.50954
▁manu	-9.51026
▁kAmAn	-9.51127
▁puzp	-9.5113
▁BErav	-9.51265
▁marty	-9.51288
▁Ayatan	-9.51305
▁BaradvAj	-9.51332
▁laNkA	-9.51332
▁upapadyate	-9.51332
▁samIpa	-9.51335
▁sAtyakiH	-9.51338
▁Sakr	-9.51342
▁kzut	-9.51342
▁sut	-9.5135
▁vaman	-9.51385
▁vaktr	-9.51453
▁aparAD	-9.5149
▁sidDA	-9.51532
rO	-9.51549
▁prajAnAm	-9.51554
▁vaS	-9.51592
▁arha	-9.51619
▁caturTa	-9.51724
▁AtmAnaH	-9.51804
▁lavaR	-9.51837
▁kAraRAt	-9.51875
▁akz	-9.51971
▁drum	-9.5198
▁kram	-9.51998
izyanti	-9.52098
▁saritaH	-9.52252
▁bAlaH	-9.52279
▁koSa	-9.52312
▁kaTitaH	-9.52312
▁tuly	-9.52398
▁damaH	-9.524
▁AcAr	-9.52406
▁SudDi	-9.52419
izu	-9.52433
▁DAriR	-9.52654
▁toy	-9.52711
▁samfdD	-9.52738
▁hfdy	-9.52741
▁svAhA	-9.52741
▁lipt	-9.52747
▁kzatriyaH	-9.52773
▁sarpiH	-9.52781
▁jayet	-9.52812
▁mfta	-9.52894
▁aBAvAt	-9.52957
▁BArgava	-9.53025
▁kratu	-9.53089
▁jIvita	-9.53116
▁dvez	-9.53195
▁carita	-9.53196
▁grAma	-9.53224
akza	-9.5323
▁hima	-9.53343
▁Aj	-9.53381
▁kumBa	-9.53419
ruh	-9.53573
▁sutAH	-9.53658
▁niScit	-9.53699
▁dvitIyaH	-9.5377
yase	-9.53855
▁mahAtma	-9.53954
▁buDaH	-9.53963
▁drOpadI	-9.54169
▁kaRWa	-9.54169
▁raSmi	-9.54169
▁kupit	-9.54178
▁gantum	-9.54184
▁BartuH	-9.54185
▁mahIpatiH	-9.54198
▁dehinAm	-9.54221
▁vftta	-9.54251
▁anyezAm	-9.543
▁kftavAn	-9.54326
▁uzR	-9.54356
sTA	-9.54362
▁pUjitaH	-9.54363
▁paSyet	-9.54387
▁vasan	-9.54408
▁tfRa	-9.54472
▁Bavatu	-9.54608
▁tApa	-9.5462
▁patita	-9.54626
▁uttare	-9.54656
▁nABi	-9.54688
▁kartavyaH	-9.54746
▁kevalam	-9.54786
▁brAhmaRam	-9.5479
▁manuzya	-9.54807
▁aDyAyaH	-9.54862
▁AkASam	-9.54863
▁dehe	-9.54946
tena	-9.55025
▁svara	-9.55068
▁nikft	-9.55116
▁fzaBaH	-9.55124
▁dayA	-9.55217
▁vyAsa	-9.55226
▁vaDam	-9.55278
▁patay	-9.55293
▁aDikaH	-9.55299
yata	-9.55344
akAH	-9.55369
▁mArut	-9.55395
▁Ama	-9.5559
▁upavizw	-9.55619
▁yutam	-9.55619
▁asmABiH	-9.5562
▁prApte	-9.5562
▁nirmal	-9.55623
▁baBUvuH	-9.55652
zva	-9.55655
▁brAhmaREH	-9.55659
▁amft	-9.5567
▁manuja	-9.55749
▁ratnAni	-9.5581
▁akzayam	-9.55828
▁dagD	-9.56044
DAra	-9.56118
▁uttamA	-9.56148
▁prasAda	-9.56164
▁gulma	-9.56209
▁Dvaj	-9.56234
▁suKI	-9.56245
▁fzaBAH	-9.56325
▁SItal	-9.56444
▁samAgat	-9.56469
▁Atmaj	-9.5647
▁gat	-9.56611
▁sTitA	-9.56651
▁viviDa	-9.56751
▁vaSa	-9.56878
▁CAyA	-9.56911
▁patim	-9.56926
▁maheSvaram	-9.56955
▁vizaye	-9.57
▁adButa	-9.57063
▁Arogya	-9.57089
▁asfjat	-9.57089
▁mUrDn	-9.57089
▁sTUla	-9.5709
▁karomi	-9.57091
DIyata	-9.57093
▁atyanta	-9.57096
▁rocate	-9.57103
▁yasyA	-9.57128
▁guRaH	-9.57129
▁varRaH	-9.5714
▁utpann	-9.57157
▁dagDa	-9.57211
▁pAl	-9.57263
▁viparyay	-9.5736
▁purARa	-9.57363
▁dine	-9.57387
▁asm	-9.57512
▁Dvaja	-9.57557
▁sO	-9.57635
▁pradAn	-9.57665
▁kamala	-9.57753
▁parivft	-9.57771
eSvaram	-9.57876
▁niBa	-9.57884
▁amAty	-9.57889
▁ABam	-9.58132
▁kzaRam	-9.58222
▁jyezW	-9.58261
▁Boga	-9.58273
▁astrAR	-9.58291
▁tejasv	-9.58405
▁SrezWA	-9.58412
▁BUri	-9.58428
▁SoB	-9.58454
▁vicitra	-9.58481
▁SrutaH	-9.58504
▁SradDA	-9.58582
▁SayyA	-9.58584
▁dAnavAH	-9.58597
▁vigata	-9.58617
▁karizyati	-9.58655
▁anDaka	-9.58703
▁mAlA	-9.58717
▁sattv	-9.58797
▁yayA	-9.58875
prekzya	-9.59031
▁upamam	-9.5908
▁kAYcana	-9.59126
▁prARaH	-9.59222
▁dfzw	-9.59224
▁OzaDam	-9.59231
yamAnaH	-9.59305
▁mahIm	-9.59309
▁yuDizWiram	-9.59386
▁Ur	-9.59403
UnAm	-9.59434
▁yogI	-9.59522
▁eti	-9.59615
▁Suzka	-9.59619
▁vyAGr	-9.59861
▁aNgam	-9.59895
▁ne	-9.59937
▁arTI	-9.59965
▁sTa	-9.60047
▁Buja	-9.60049
▁bAD	-9.60057
▁vav	-9.60072
▁Sakun	-9.6009
▁bAnDavAH	-9.60097
▁BuktvA	-9.60097
▁aNgiras	-9.60101
▁hatA	-9.60104
▁SItalam	-9.60111
▁DAtA	-9.60114
▁dvayoH	-9.60128
▁pad	-9.60171
▁ISaH	-9.60185
▁nanu	-9.60194
▁asma	-9.60199
▁arTAH	-9.60258
▁ant	-9.60365
▁tyAgaH	-9.60483
▁nimittam	-9.60491
▁mUQa	-9.60559
▁aparA	-9.60634
▁sTiti	-9.60643
▁yantra	-9.60648
adBiH	-9.60668
▁pArTiv	-9.60687
▁OzaDa	-9.60696
▁pAdO	-9.60768
▁gaman	-9.60816
▁vega	-9.6082
▁tapta	-9.60886
▁Cinna	-9.60909
▁prasAd	-9.6104
▁sarga	-9.61046
▁tAla	-9.61097
▁datta	-9.61125
▁raTin	-9.61131
▁hfday	-9.61213
▁etez	-9.61239
▁devadev	-9.61269
varR	-9.61405
▁Siv	-9.61405
▁yogAt	-9.6143
▁tIkzRam	-9.61431
▁vimal	-9.61433
▁kumAr	-9.61453
▁hatAH	-9.61462
▁vaktra	-9.61502
▁AkAra	-9.61508
▁prakASa	-9.61527
▁viGna	-9.61635
▁Bitt	-9.61636
▁BAvayet	-9.61636
▁siDyati	-9.61645
▁sfzwi	-9.61686
▁sfj	-9.61712
▁vimukt	-9.61721
▁hareH	-9.61726
▁AhAr	-9.61736
▁cakzuzA	-9.61742
vena	-9.61747
avyam	-9.61807
▁rUpARi	-9.61866
▁papracCa	-9.61925
▁prayatnena	-9.61934
▁rakt	-9.62007
▁amlam	-9.6204
▁kzayaH	-9.62143
▁AtmakaH	-9.62152
▁viSvAmitraH	-9.6224
▁jayaH	-9.62255
▁jam	-9.62255
▁tamas	-9.62306
paH	-9.62327
▁Adity	-9.62425
▁Daram	-9.62474
▁matsyaH	-9.62614
▁lavaRam	-9.62757
▁AS	-9.62762
▁toyam	-9.62845
▁pArTivaH	-9.62854
▁DArmikaH	-9.63051
▁pUrve	-9.6314
▁SiKaRq	-9.63197
▁catuzwayam	-9.63198
▁gOtamaH	-9.63198
▁ripu	-9.63198
▁atri	-9.63198
▁varDate	-9.63198
▁sADanam	-9.63199
▁SarkarA	-9.63199
▁Akfti	-9.63199
▁vijYAna	-9.63211
▁vfzRi	-9.63212
sarja	-9.63214
▁niDanam	-9.63224
▁palam	-9.63251
▁hfta	-9.63266
▁til	-9.63286
eSvar	-9.63293
▁pArad	-9.63303
▁pattra	-9.63352
▁hantu	-9.63353
▁dviDA	-9.63372
▁atikram	-9.63375
▁cacAra	-9.63417
▁imAn	-9.63445
▁sampannA	-9.63504
▁vijYAnam	-9.63561
▁vipulam	-9.63736
▁kAnti	-9.63818
▁harim	-9.63884
▁pala	-9.63912
▁preta	-9.63975
▁madya	-9.64026
▁AdO	-9.64037
▁muKe	-9.6409
▁rav	-9.64144
▁asita	-9.64241
▁aml	-9.64258
▁nady	-9.64263
▁pradA	-9.64263
kriyA	-9.64283
▁ukt	-9.64292
▁Sak	-9.64345
▁pati	-9.64357
▁pOtr	-9.64452
▁pitAmaham	-9.64468
▁DftiH	-9.64555
▁yojan	-9.64577
vAha	-9.64581
▁SUdr	-9.64668
▁vfzya	-9.64684
riza	-9.64684
▁Bakza	-9.64748
▁sUkzm	-9.64774
▁brUte	-9.64785
▁jYAH	-9.64785
▁rAtri	-9.64785
▁rahit	-9.64787
▁pratigfhya	-9.64794
▁vIrAH	-9.64802
▁aBihat	-9.64806
▁tIre	-9.64825
bAh	-9.64827
▁kAryA	-9.64885
▁SatEH	-9.6489
▁pOr	-9.64906
je	-9.64921
▁samudBav	-9.64937
▁vraR	-9.64945
▁vijit	-9.64986
▁matim	-9.65012
▁skanda	-9.6504
▁praty	-9.65075
▁payaH	-9.65132
▁sattam	-9.65157
▁nihataH	-9.65194
▁Gn	-9.65232
▁Bft	-9.65234
▁tizWanti	-9.65281
▁haret	-9.65326
▁divyA	-9.65331
▁indriyARi	-9.65335
▁Sok	-9.65395
▁dIpa	-9.65521
▁kala	-9.65599
▁matsya	-9.65658
sAra	-9.65741
▁Alayam	-9.65747
▁rasEH	-9.65773
▁karI	-9.65802
▁gaRAn	-9.65803
▁Saky	-9.65897
▁pUjay	-9.65932
▁mitr	-9.65978
▁uda	-9.66006
▁sve	-9.66092
▁prayAt	-9.66133
▁varjitaH	-9.66167
▁SarIre	-9.66227
▁mftaH	-9.66236
▁darSin	-9.66268
▁budDim	-9.66272
▁dviviDam	-9.66398
▁samADi	-9.66398
▁sfYjay	-9.66398
▁niyog	-9.66399
▁parAyaRA	-9.66399
▁kASyap	-9.664
▁SrUyatAm	-9.66405
▁SrUyate	-9.66415
▁aBavan	-9.66429
▁rati	-9.66481
▁jAnAti	-9.66489
▁tapt	-9.66494
▁yoginaH	-9.66526
▁yAma	-9.66612
▁tf	-9.66628
▁nimitt	-9.66637
▁pAS	-9.66638
▁ganDam	-9.66724
▁AyuDa	-9.66735
▁agne	-9.66757
▁acyuta	-9.66802
▁kurvat	-9.6682
▁toya	-9.66831
▁latA	-9.67072
▁cint	-9.67125
▁manyu	-9.6725
▁vahniH	-9.67292
▁cintay	-9.67318
▁dakziRam	-9.67337
▁jyezWa	-9.67479
rzayaH	-9.676
▁viw	-9.67605
▁pfzwaH	-9.67689
▁kopa	-9.6769
▁vikAra	-9.67718
▁aBiD	-9.67915
▁aYjana	-9.67926
▁pOra	-9.67934
▁Badra	-9.67948
▁vasizWa	-9.6797
▁manIziRaH	-9.68038
▁samAKyAt	-9.68038
▁gamizyAmi	-9.68043
manAH	-9.68053
▁mahIpate	-9.68059
▁hiMsA	-9.68072
▁cApa	-9.68085
▁yoginAm	-9.68104
▁icCatA	-9.68182
▁SyAma	-9.68185
▁vAcya	-9.68194
▁DArmik	-9.68195
▁tapasaH	-9.68215
▁prAtaH	-9.68279
▁anft	-9.68386
▁Arta	-9.68433
▁viSrutaH	-9.68437
▁SAka	-9.68505
▁prAYjali	-9.68515
▁dehi	-9.68539
▁SUdraH	-9.686
▁kfpaH	-9.68604
▁Adizu	-9.68692
▁salil	-9.68818
▁praB	-9.69001
▁Bakta	-9.69006
▁parasya	-9.69081
▁BImasen	-9.69128
▁lakzmaRam	-9.69137
▁vfdDaH	-9.6916
▁yaSasvin	-9.69198
▁ISa	-9.69212
▁jawA	-9.69275
▁Sayan	-9.6929
▁rUpya	-9.69298
▁BfguH	-9.69355
▁kzatriyAH	-9.69411
P	-9.69451
▁ugr	-9.69487
▁dik	-9.69611
▁sambanD	-9.69633
▁pakzi	-9.69648
▁pAnam	-9.69655
▁kftyam	-9.69666
▁hatam	-9.69703
▁mudA	-9.69704
▁sAttvik	-9.69704
▁vfTA	-9.69704
▁vidyut	-9.69704
▁pratizWA	-9.69704
▁dAyAd	-9.69713
▁Bojy	-9.69735
▁tAmram	-9.69783
▁kapila	-9.69933
▁samAyukt	-9.69958
▁aSma	-9.69972
▁pUrvam	-9.70017
▁fzaB	-9.70083
▁anvit	-9.70088
▁homa	-9.7009
rasya	-9.70093
▁aDik	-9.70152
▁nAqI	-9.70285
▁samanvitA	-9.70301
Bft	-9.70317
▁jitvA	-9.70492
▁SarIr	-9.70499
▁vahn	-9.70575
▁dviguRam	-9.70581
▁dIpt	-9.70581
▁jyezWaH	-9.70637
dya	-9.7065
▁dvIp	-9.70745
▁gIta	-9.70786
▁vihitam	-9.70952
▁puzpam	-9.71063
▁kAkutsTa	-9.71144
tIrTam	-9.71212
▁aNgaH	-9.7122
▁prasIda	-9.71224
▁hft	-9.71284
▁jAnI	-9.7133
▁kIdfS	-9.71399
▁nfSaMs	-9.71399
▁saciv	-9.71402
▁roma	-9.71404
▁suvrata	-9.71431
▁viSizwa	-9.71443
▁upetA	-9.71444
▁grahaRam	-9.7156
▁ajY	-9.71666
▁pASa	-9.71765
▁Soc	-9.7186
▁meDA	-9.71864
tvAt	-9.71897
▁uttar	-9.71964
▁gada	-9.72033
▁sattamA	-9.72041
▁SUl	-9.72047
▁buD	-9.72102
▁nirat	-9.72131
▁ezaH	-9.72163
▁ganDaH	-9.72232
▁rAGav	-9.72232
▁matta	-9.72251
▁kAy	-9.72312
▁pratyakzam	-9.72319
▁vyADa	-9.72322
▁ISvarAH	-9.72422
▁ganDarvA	-9.72479
▁apsaras	-9.72534
▁dAtavya	-9.72548
▁banD	-9.72593
▁kumAra	-9.72603
▁dala	-9.72747
▁AcAry	-9.72777
▁sTAH	-9.72871
▁praTama	-9.72939
▁SAli	-9.72996
▁zazW	-9.7302
▁keS	-9.73115
▁jihvA	-9.73123
▁samIkzya	-9.73123
▁mETun	-9.73123
▁saMSray	-9.73123
▁yUTap	-9.73126
▁aNgula	-9.73128
▁utpadyate	-9.73134
▁janapad	-9.73167
▁udvaha	-9.73172
▁ukte	-9.73175
▁sirA	-9.73188
▁satyena	-9.73188
▁pradadO	-9.73194
▁vAdinaH	-9.732
▁pramuK	-9.73206
▁kAzW	-9.73218
▁yojana	-9.73351
▁hfzwA	-9.73377
▁nAS	-9.7338
▁kal	-9.7345
▁astam	-9.73451
▁avyakt	-9.73453
▁vetti	-9.73465
IBUt	-9.73481
▁veDa	-9.73535
IrR	-9.73537
▁parvataH	-9.73565
▁ikzvAku	-9.73689
▁kazAy	-9.73711
▁brahmacaryam	-9.73716
▁niScay	-9.73727
▁varjit	-9.73739
▁garB	-9.7385
▁mf	-9.73888
▁mAsi	-9.73983
▁BaktaH	-9.74041
▁Srotram	-9.74082
▁naKa	-9.74104
▁vedanA	-9.74164
▁nivftti	-9.74228
▁IkzaR	-9.74397
▁Sil	-9.74475
▁puzkara	-9.74521
▁puwa	-9.74532
▁gAtra	-9.74545
▁paTyam	-9.74592
▁vizama	-9.74593
▁kzIram	-9.74622
▁kElAsa	-9.74838
▁jYAti	-9.74862
▁sparS	-9.74869
▁AjYA	-9.74878
▁bruvat	-9.74878
▁saMvAda	-9.74878
▁muYca	-9.74878
▁purohit	-9.74878
▁goptA	-9.74878
▁samAkul	-9.74879
▁antarA	-9.74893
▁bali	-9.74894
▁stut	-9.74899
▁cetasaH	-9.74932
▁umA	-9.74965
▁brUyAt	-9.74979
▁kaRwak	-9.7499
▁kulam	-9.75008
▁SukaH	-9.7502
▁eziR	-9.75049
▁Dfta	-9.75053
▁smftiH	-9.75065
▁udak	-9.75066
▁asurAH	-9.751
caRq	-9.75114
▁grAhyam	-9.75141
▁tAmas	-9.75164
▁samAhit	-9.75178
▁Bed	-9.75183
▁DyAt	-9.75199
▁rat	-9.75211
▁praDAn	-9.75244
▁sADy	-9.75257
▁anyA	-9.75272
▁gAtr	-9.75274
▁upasTit	-9.75278
▁samAvft	-9.75353
▁vaNga	-9.7546
▁dravEH	-9.75503
▁dvijottama	-9.75514
▁mUrti	-9.75526
▁aBAvaH	-9.75678
▁dvijottamA	-9.75681
▁kaSyapaH	-9.75813
▁oG	-9.75823
▁pARqavEH	-9.75876
▁kuSa	-9.75978
▁SAp	-9.76082
▁nAd	-9.76087
▁aKilam	-9.76109
▁mUtr	-9.7615
▁ASA	-9.76276
▁Bavana	-9.76334
deSa	-9.7634
▁Gft	-9.76483
▁kIrtiH	-9.76525
▁BAvena	-9.76557
▁AKyA	-9.76559
▁pAradaH	-9.7657
▁lepa	-9.76593
▁loma	-9.76645
▁uraga	-9.76663
▁vErAgy	-9.76664
▁juzw	-9.76664
▁nAsA	-9.76668
▁Dik	-9.7667
▁praBum	-9.76707
▁SoBanam	-9.7671
▁SayAn	-9.76727
▁krudDa	-9.76745
▁snigD	-9.76755
ARq	-9.76767
▁candramAH	-9.76786
▁virAwa	-9.76826
▁hfzwa	-9.76851
▁pAvakaH	-9.76858
▁kzetr	-9.76896
oga	-9.76913
▁jyA	-9.7693
▁Baj	-9.76943
▁patitA	-9.76999
▁acal	-9.77002
▁kalO	-9.77006
▁caturBiH	-9.77041
▁purIz	-9.77046
▁Ajya	-9.77179
▁durg	-9.77199
▁gurum	-9.77202
▁pratiBA	-9.77256
▁puwam	-9.77323
▁vaMS	-9.77329
▁Uru	-9.77356
▁anugraha	-9.77402
▁jAtA	-9.77446
▁vasati	-9.77497
▁KyAtam	-9.77537
▁matvA	-9.77557
▁etena	-9.77591
▁Amaya	-9.77594
▁samBU	-9.77686
vratam	-9.77716
▁rAvaRam	-9.7773
▁yajYe	-9.77782
▁BImam	-9.77854
▁vftra	-9.77859
guR	-9.77882
pravakzyAmi	-9.77978
▁vaDe	-9.78214
▁AkASe	-9.78218
▁dEvatam	-9.78248
▁bil	-9.78304
mahe	-9.78388
▁supt	-9.78447
▁granTa	-9.78481
▁paWet	-9.78481
▁viSizyate	-9.78481
▁kurvAR	-9.78482
▁nahuz	-9.78482
▁viDAnena	-9.78482
▁divam	-9.78482
▁arRava	-9.78482
▁kumBakarR	-9.78482
▁tvarita	-9.78486
▁mAyayA	-9.7849
▁Soza	-9.78508
▁SizyaH	-9.78546
▁praharaR	-9.7856
▁vAh	-9.78566
▁Apat	-9.78571
▁lokapAl	-9.7864
▁antarikz	-9.7866
▁varDan	-9.78666
▁vastu	-9.78676
▁indu	-9.78704
mARam	-9.78805
▁pfTu	-9.78896
▁hate	-9.78925
▁samutpann	-9.78979
▁anvitAH	-9.78982
raTaH	-9.78987
▁kArye	-9.7901
▁dAtu	-9.79031
▁ravi	-9.79241
▁dfzwa	-9.79289
▁ratAH	-9.79294
▁bAhya	-9.79339
▁banDan	-9.79345
▁SrAdDa	-9.79412
▁pakva	-9.79414
▁DI	-9.79461
▁tejas	-9.79492
▁utpat	-9.79497
▁vimala	-9.79517
▁sargaH	-9.79638
▁nASanaH	-9.79724
▁hitaH	-9.79833
▁vEdya	-9.7985
▁rAzwr	-9.7991
▁drav	-9.79942
▁stamBa	-9.80026
▁vESyaH	-9.80051
▁BedaH	-9.80062
gupt	-9.80131
▁rUpA	-9.80249
▁SAs	-9.80262
▁jay	-9.80314
▁drakzy	-9.80319
jAnAmi	-9.80324
▁daSagrIva	-9.80333
▁hfzIkeSa	-9.80333
▁pArSva	-9.80334
▁SuBr	-9.80334
▁yamunA	-9.80337
▁Sasyate	-9.80338
▁aDigacCati	-9.8034
▁mUrDani	-9.80358
▁kurav	-9.8036
▁anantaram	-9.80403
▁marma	-9.80407
▁avayav	-9.80411
▁surEH	-9.80419
▁nityam	-9.80447
▁anvay	-9.80465
▁aDikAr	-9.80489
▁govinda	-9.80491
▁icCanti	-9.80502
▁kAka	-9.80541
▁daD	-9.80551
▁SoDanam	-9.80556
▁pade	-9.80562
▁aDIt	-9.80573
▁tiktam	-9.8063
▁vira	-9.80633
▁SivAya	-9.80635
▁pArag	-9.8076
▁saMyog	-9.80763
▁Sruta	-9.80793
▁pARqura	-9.80796
▁nArada	-9.8084
AyAH	-9.80847
▁BAgaH	-9.80855
▁Asanam	-9.80864
▁karmA	-9.80893
▁mahABAgA	-9.81038
▁SudD	-9.81123
▁vfz	-9.81143
▁jAla	-9.81144
▁pralaya	-9.81168
▁Dft	-9.81206
▁pratyakza	-9.81218
▁Bfty	-9.81223
▁SlokaH	-9.81415
▁SiKar	-9.81519
▁avasTit	-9.81558
▁SoRitam	-9.81574
▁pUjy	-9.81617
▁rogAH	-9.81708
▁AvA	-9.81721
▁kzudra	-9.81766
▁aSana	-9.81852
▁nakzatra	-9.81877
▁jYeyA	-9.81889
▁dUr	-9.81977
▁vAdI	-9.81983
▁jambIra	-9.8211
▁SukraH	-9.82122
▁krudD	-9.82139
▁diSam	-9.8222
▁viroD	-9.8222
▁Bartf	-9.8222
▁svaDarm	-9.8222
▁agamat	-9.8222
▁vikray	-9.82221
▁avApya	-9.82221
▁SAsanAt	-9.82229
▁kzaR	-9.82253
▁svapne	-9.82258
▁mEtreya	-9.82266
▁krUr	-9.82303
▁nidarSanam	-9.82372
rezu	-9.82422
▁dAruRam	-9.82423
▁nakulaH	-9.82428
▁varuR	-9.82439
▁kurukzetr	-9.82499
▁carati	-9.82502
▁pfzw	-9.82631
▁puwet	-9.8264
▁BAradvAja	-9.82711
▁udaya	-9.8286
▁jAnAmi	-9.8286
▁vyasan	-9.82933
▁tuzwi	-9.8296
▁rogAn	-9.82962
zwi	-9.82976
▁Bagn	-9.83088
▁maraRa	-9.83089
zyati	-9.83094
▁durbal	-9.83122
▁avyayaH	-9.83136
▁parAkram	-9.8318
▁upAya	-9.83186
Sakti	-9.8327
▁tfpt	-9.833
▁kovid	-9.8332
▁kul	-9.83419
▁gad	-9.83457
▁Druvam	-9.83525
▁candana	-9.83573
▁arjunam	-9.83597
▁BUzaRam	-9.83673
▁viDAnam	-9.8368
▁uditam	-9.83777
▁varjitam	-9.8378
▁tala	-9.83789
▁dvitIyam	-9.83833
▁dfzwiH	-9.83899
▁vESya	-9.84054
▁itTam	-9.84143
▁samaBavat	-9.84143
▁trIRi	-9.84143
▁vimokz	-9.84143
▁kfmi	-9.84143
▁upekz	-9.84143
▁vihIna	-9.84144
▁ahiMsA	-9.84144
▁anity	-9.84145
▁anarT	-9.84148
▁leB	-9.8415
▁nirmitam	-9.8415
▁nirguR	-9.84155
▁prAptAH	-9.84163
▁mardya	-9.84177
Ari	-9.84198
▁praviveSa	-9.84207
▁kAryARi	-9.84226
▁darSane	-9.84271
▁vasUn	-9.84297
▁niboData	-9.84361
hfz	-9.84407
▁dUra	-9.84409
▁viBIzaRaH	-9.84425
▁niB	-9.84461
▁Saktim	-9.84517
▁mfg	-9.84565
▁parigrah	-9.84584
▁viSrutam	-9.84588
▁vizRunA	-9.84629
▁vEzRav	-9.84681
▁anubanD	-9.84686
trIn	-9.84737
▁araRye	-9.84743
▁SIGra	-9.84765
▁mantreRa	-9.8477
▁putrO	-9.84792
▁mAnam	-9.84801
▁prayojanam	-9.84804
▁pramARa	-9.84835
dru	-9.84847
▁dehaH	-9.84863
▁buDEH	-9.84889
▁kalyARa	-9.84905
▁udara	-9.84957
▁samarT	-9.85058
▁kuSala	-9.851
▁pArTivAH	-9.8513
▁SAstr	-9.85271
▁lakzaRA	-9.8534
▁aRqa	-9.8544
▁mune	-9.85575
▁viDim	-9.85586
▁dviz	-9.85606
▁vyAGraH	-9.85628
▁kleSa	-9.85651
▁SiS	-9.85673
▁sukfta	-9.85718
▁pi	-9.85739
▁utpatti	-9.85756
▁sEnDav	-9.85854
▁puzpAR	-9.8591
▁Bavant	-9.86002
▁asmE	-9.8602
▁cakr	-9.8602
▁parameSvaraH	-9.86038
paYc	-9.86049
▁AjYayA	-9.86104
▁aBAzata	-9.86104
▁catvAri	-9.86104
▁vedapArag	-9.86104
▁dvijAtayaH	-9.86104
▁parAyaRaH	-9.86105
▁yaTAkAmam	-9.86105
▁yUyam	-9.86105
▁hantA	-9.86106
▁apahft	-9.86107
▁arTAn	-9.86108
▁triMSat	-9.86109
▁Danuz	-9.86111
▁ajina	-9.86115
▁dIpyamAn	-9.8614
▁prekz	-9.86146
▁uktavAn	-9.86151
▁sakalam	-9.86164
▁kuruzva	-9.86169
▁udit	-9.86252
▁tantra	-9.86263
▁vAcaH	-9.86264
▁kftArT	-9.86275
▁prARinAm	-9.8628
▁alp	-9.86284
▁samasta	-9.86419
▁vasanti	-9.8642
▁vedAn	-9.86563
▁rAkzasAnAm	-9.86575
▁vigrah	-9.86607
▁jAl	-9.86666
▁mahABAg	-9.86686
▁AgatAH	-9.86705
▁caraRa	-9.8676
▁BIt	-9.86762
▁samBUta	-9.86809
▁gati	-9.86836
▁SezaH	-9.86926
▁vAsinaH	-9.86947
▁BUmiH	-9.87057
▁sahas	-9.87136
▁deyaH	-9.87138
▁izu	-9.87141
▁avaD	-9.87262
▁cakram	-9.8728
▁drava	-9.87433
▁hInam	-9.87456
▁kaTAm	-9.87521
▁samarTaH	-9.8762
▁varDanam	-9.87639
▁sADakaH	-9.87641
rAw	-9.8768
▁carit	-9.87694
▁raTaH	-9.87918
▁kaw	-9.87998
plut	-9.88037
▁cikzepa	-9.88104
▁udAhftam	-9.88104
▁vistareRa	-9.88104
▁dvApare	-9.88104
▁niSit	-9.88104
▁cetasA	-9.88107
▁upetaH	-9.88107
▁sADAraR	-9.88108
▁vihAya	-9.8811
▁prapann	-9.88114
▁vindati	-9.88128
▁yujyate	-9.8813
▁saMyogaH	-9.88158
▁jaNgamam	-9.88167
▁kzamam	-9.8817
▁nityaSaH	-9.88172
▁mAnasam	-9.88188
▁smftA	-9.8821
▁ananta	-9.88218
▁SvAsa	-9.88232
▁aBizeka	-9.8824
▁vaSe	-9.88265
varteta	-9.88269
▁rAjy	-9.88273
arpa	-9.88303
▁lohAn	-9.88304
▁kzetrajYa	-9.88305
▁niSA	-9.88388
▁SoPa	-9.88394
▁paYcamam	-9.88405
▁paYcamaH	-9.88422
▁kzep	-9.88485
▁aSakt	-9.88495
adA	-9.88541
▁nyAya	-9.88554
▁aBimAn	-9.88586
▁Sayana	-9.8866
▁manasi	-9.88681
▁kilbiz	-9.88704
▁marIci	-9.88715
▁aKil	-9.88729
▁dvAram	-9.88744
▁udyam	-9.8877
▁tftIyaH	-9.88787
▁aDama	-9.88792
▁akft	-9.88802
▁udBav	-9.88889
▁praTamaH	-9.88992
▁mand	-9.89017
▁gurav	-9.89027
▁saMyoga	-9.89091
▁BAvam	-9.89133
▁pAtak	-9.89187
▁vasA	-9.89225
▁samAgatAH	-9.89231
▁nirvft	-9.89254
▁nfpate	-9.8927
▁lubD	-9.89278
▁Bukta	-9.89359
▁uttamAH	-9.89401
▁pAke	-9.89418
▁praTamam	-9.89465
▁mahatI	-9.89485
▁saraH	-9.89518
▁BrAt	-9.89524
▁caturTaH	-9.8969
▁divasa	-9.89692
▁janamejaya	-9.89719
▁SAstrAR	-9.89723
▁vfdDiH	-9.89823
▁vidyAm	-9.89828
▁pravizw	-9.89896
▁Kaqga	-9.89914
tavyA	-9.89957
▁Asya	-9.9005
endra	-9.90095
▁mitram	-9.90136
▁drORi	-9.90145
▁ojasaH	-9.90145
▁purastAt	-9.90145
▁uddizw	-9.90145
▁pulaha	-9.90145
▁utsahe	-9.90145
▁prajApateH	-9.90146
▁fze	-9.90146
▁parAyaRam	-9.90146
▁vartma	-9.90149
▁pramAd	-9.9015
▁aSru	-9.90162
▁Baga	-9.90171
▁ft	-9.90184
▁sakt	-9.90198
▁pfzWa	-9.90204
▁icCet	-9.90208
▁vasat	-9.90235
▁BEravaH	-9.90245
▁icC	-9.90272
▁prayacCati	-9.90318
▁rukma	-9.9037
▁maDy	-9.90379
▁viSvAsa	-9.90393
▁pUjayit	-9.904
▁purogamAH	-9.90427
▁niSAcar	-9.90457
▁kAya	-9.90469
▁cUrR	-9.90509
▁sneh	-9.90533
▁vyavasTitaH	-9.90559
▁gfDra	-9.90575
▁gfhasTa	-9.9059
▁pipAsA	-9.90708
▁mardan	-9.90709
▁rAg	-9.90755
▁SaktyA	-9.9077
▁citt	-9.90825
▁nandanaH	-9.9094
▁mAza	-9.90963
▁mfgAH	-9.91018
▁guqa	-9.91076
▁sevit	-9.91226
▁kAntam	-9.91322
▁nimitta	-9.91381
▁Druv	-9.91384
▁kriyAH	-9.91389
▁tasT	-9.9149
▁cAriRaH	-9.91512
▁hfdaye	-9.91598
▁AgatA	-9.91606
▁sUtra	-9.91609
▁maDurA	-9.91728
▁ESvarya	-9.91787
▁keSavaH	-9.91817
nAT	-9.9189
▁sah	-9.91995
▁akzaH	-9.92064
▁dant	-9.92077
▁suvarRam	-9.92144
▁vraja	-9.92181
▁rasasya	-9.92191
▁aByaDik	-9.92228
▁haviH	-9.92228
▁jAmbUnada	-9.92228
▁kfzRadvEpAyan	-9.92228
▁Agney	-9.92228
▁uzit	-9.92229
▁aNgirAH	-9.92229
▁yutaH	-9.92229
▁sOKya	-9.9223
▁girA	-9.92232
▁niroD	-9.92232
▁durjay	-9.92237
▁mumoca	-9.92246
▁Sapt	-9.92274
▁pawa	-9.92278
▁vinIt	-9.92279
▁setu	-9.92349
▁sEnyam	-9.9235
▁puMsAm	-9.92396
▁SirasA	-9.92408
▁citram	-9.92413
▁daSA	-9.92426
▁snehaH	-9.92433
▁Aste	-9.92442
▁vipAk	-9.92457
▁udyata	-9.92476
▁gagana	-9.92513
▁vAji	-9.92529
▁tyakta	-9.92617
▁vajr	-9.92696
▁paramAtmA	-9.92717
amAnA	-9.92757
▁alpam	-9.92854
▁SarAn	-9.92939
▁cAru	-9.92946
▁upamaH	-9.92968
▁kazAyaH	-9.93058
▁vIrO	-9.93073
▁mUrtiH	-9.93111
▁kANkziR	-9.93168
▁anucar	-9.93208
▁yAta	-9.93245
▁pratij	-9.93342
▁Ced	-9.93361
▁samprAp	-9.93361
▁gulm	-9.93493
▁ASrame	-9.93502
▁raTena	-9.9351
▁vrataH	-9.93548
▁svAmin	-9.9355
▁tumula	-9.93564
▁Amay	-9.93571
▁Barat	-9.93616
▁mAtre	-9.93689
▁vartamAna	-9.93731
▁parAkramam	-9.93776
▁kuRqa	-9.93802
pattr	-9.93855
▁banDanam	-9.94066
▁rOdr	-9.94112
▁harA	-9.94158
▁dIrGam	-9.94162
▁divase	-9.94163
▁saMsT	-9.94184
▁uBayam	-9.94218
▁sAhasr	-9.94244
▁DaraRI	-9.9429
▁sparSaH	-9.94295
▁dfQam	-9.94324
▁Bezajam	-9.94342
▁CittvA	-9.94356
▁SuSrUzA	-9.94356
▁bfhadaSv	-9.94356
▁dIkzA	-9.94356
▁kaTayizy	-9.94356
▁vArzReya	-9.94356
▁vinaSyati	-9.94356
▁naSyati	-9.94356
▁upayog	-9.94356
▁dIyate	-9.94357
▁prAd	-9.94396
▁devadeveSa	-9.94408
▁udyAn	-9.94409
▁modate	-9.94415
▁vaset	-9.94426
▁hitAya	-9.94433
▁granTi	-9.94471
▁hAni	-9.94505
▁mudga	-9.94509
Ips	-9.94533
▁rudrasya	-9.94607
▁pakvam	-9.94719
▁pravftti	-9.94778
▁dit	-9.94858
▁aBayam	-9.9486
▁tis	-9.94934
TAH	-9.9495
▁kirIw	-9.94963
▁duzkaram	-9.94963
▁paScime	-9.94966
▁pAk	-9.94968
▁kaTit	-9.94983
▁rAkzasAn	-9.95028
▁agry	-9.95086
▁SvA	-9.95111
Ikftam	-9.9518
▁mokzaH	-9.95239
▁yukta	-9.95289
▁ugram	-9.95327
▁pavitram	-9.9542
▁ratiH	-9.95558
▁vicitr	-9.95568
▁rasAyan	-9.95631
▁vEvasvata	-9.95671
▁prakft	-9.95704
▁pUt	-9.95716
▁vikrama	-9.95722
▁nizWA	-9.95779
▁BogAn	-9.95786
tva	-9.9582
▁sugrIv	-9.95914
▁nija	-9.95949
▁mardana	-9.95983
▁hom	-9.9603
▁DyAnam	-9.96042
▁etO	-9.96053
▁puruzottama	-9.96221
▁meha	-9.96256
▁Palguna	-9.963
▁satyA	-9.9634
▁samBavam	-9.96358
▁paScima	-9.96401
▁sAkzi	-9.96504
▁Cand	-9.96512
▁srot	-9.96529
▁bfMhaR	-9.9653
▁sPuw	-9.9653
▁anurakt	-9.9653
▁pratipadyate	-9.9653
▁aBiDIyate	-9.9653
▁yadu	-9.96531
▁yotsy	-9.96532
ASv	-9.96533
▁aBigamya	-9.96537
▁hIyate	-9.9654
▁nirmukt	-9.96542
▁nftya	-9.96545
▁nirvARa	-9.96556
▁patrARi	-9.96558
▁pannag	-9.9657
▁nfpatiH	-9.96577
▁amal	-9.96603
▁SaSi	-9.96606
▁dAnavAn	-9.96688
▁pUjitam	-9.96698
▁nagaram	-9.96716
▁sidDaye	-9.96839
ruH	-9.96882
▁pAram	-9.96891
▁fkza	-9.96895
▁SaktaH	-9.96916
▁SatrU	-9.96957
▁Adyam	-9.96978
▁praSaMsant	-9.96981
▁vijYeyam	-9.97002
▁karRam	-9.97003
▁skanD	-9.97076
▁lakzaRaH	-9.97141
▁BUH	-9.97163
▁Atura	-9.97187
▁dUt	-9.97188
▁ISAn	-9.97244
▁hutASan	-9.97256
▁vipul	-9.97278
▁Sukram	-9.97296
▁adfSya	-9.97339
▁anil	-9.974
▁Agamana	-9.97416
▁boD	-9.97459
▁prasTit	-9.97575
▁tan	-9.97577
▁saNga	-9.97602
▁SiSir	-9.97619
▁janana	-9.97744
▁kftAH	-9.97758
▁durDarza	-9.97788
▁sADaka	-9.97791
▁vAraRa	-9.97805
▁SUny	-9.97839
nak	-9.97852
▁aDarmaH	-9.9791
▁upAyaH	-9.97911
▁ahit	-9.98019
▁SIGram	-9.98074
▁dUta	-9.98098
▁upavAs	-9.98159
▁tAraka	-9.98206
▁vad	-9.98234
▁nASan	-9.98247
▁AScaryam	-9.98284
▁nakula	-9.98538
▁dakz	-9.98556
▁evaMviD	-9.9861
▁mUtram	-9.98621
▁BUti	-9.98629
▁Avaham	-9.98752
▁inDan	-9.98752
▁pIqA	-9.98752
▁prapitAmah	-9.98752
▁striyA	-9.98752
▁SamBoH	-9.98752
▁SiKA	-9.98752
▁ikzu	-9.98752
▁paSavaH	-9.98752
▁paryApt	-9.98752
▁gantA	-9.98752
▁vinazw	-9.98757
▁BuYjIta	-9.98758
▁cIra	-9.98759
▁vftam	-9.98769
▁mayI	-9.98777
▁sampannam	-9.98815
▁uddiSya	-9.98872
▁prahAr	-9.98874
▁pARq	-9.98983
▁kAYcan	-9.98989
▁rOdra	-9.99008
▁vyakt	-9.99008
▁Akar	-9.99023
▁gupta	-9.99023
▁dAtA	-9.99027
▁AgamaH	-9.9905
▁svarRam	-9.99098
▁BAti	-9.9914
▁apatyam	-9.99244
▁samBavA	-9.99267
▁kanda	-9.99299
▁duzw	-9.99362
▁upavAsa	-9.99364
▁ISam	-9.99366
▁mahAdev	-9.99392
▁BavizyAm	-9.99412
▁Binn	-9.99436
▁SravaR	-9.99489
▁aruRa	-9.99574
▁viSvam	-9.99607
▁Ke	-9.99617
▁druma	-9.99696
▁Ceda	-9.99802
▁nagare	-9.99832
▁deSaH	-9.99863
▁rAkzas	-9.99898
▁mUle	-9.99909
▁pOruzam	-9.99944
▁bAhy	-10.0001
▁nIti	-10.0003
▁naraka	-10.0005
▁med	-10.0009
▁haMs	-10.0013
▁Bakzya	-10.0018
▁ahi	-10.0019
▁yajYAH	-10.0022
▁balim	-10.0025
▁maDur	-10.0029
▁Atur	-10.0036
PalaH	-10.0037
▁darpa	-10.0038
▁pravizwaH	-10.0039
▁nayan	-10.0049
▁kAS	-10.0051
▁gfhasT	-10.0054
▁yukte	-10.0066
▁nASaH	-10.0068
▁sit	-10.0085
▁Suka	-10.0085
▁praBavaH	-10.0089
▁ann	-10.0094
▁gala	-10.0095
▁dig	-10.0097
▁mEtr	-10.0097
▁veSma	-10.01
▁anindit	-10.0102
▁mUrCA	-10.0102
▁saMhAra	-10.0102
▁ganDamAdan	-10.0102
▁upajAyate	-10.0102
▁mAdrI	-10.0103
▁raGunandana	-10.0103
▁pUta	-10.0103
▁vidyayA	-10.0103
▁dayit	-10.0103
▁pramadA	-10.0103
▁mAnasAH	-10.0103
▁parezAm	-10.0105
▁BIru	-10.0105
▁prakfteH	-10.0106
▁sUtaputra	-10.0106
▁icCayA	-10.0107
▁varze	-10.0108
▁spfS	-10.0109
▁vizAda	-10.0109
▁ruc	-10.0109
▁BrAtr	-10.0109
▁viKyAtaH	-10.0109
▁kftakfty	-10.0109
▁ramate	-10.011
▁gira	-10.0113
▁varAn	-10.0118
▁manuzyAH	-10.0121
▁sparSan	-10.0122
haret	-10.0122
▁abd	-10.0126
▁varizW	-10.0129
▁karaRam	-10.0131
▁yAjYavalkyaH	-10.0132
▁matA	-10.0135
yI	-10.0135
plav	-10.0136
kzam	-10.0137
▁hanizy	-10.0137
▁prayukt	-10.0153
▁kam	-10.0154
▁SAKA	-10.016
vAhanaH	-10.0162
▁muneH	-10.0164
▁puwEH	-10.0165
▁aDamaH	-10.0165
▁vizayam	-10.0168
▁kuRqal	-10.0173
▁vicakzaRaH	-10.0178
▁parvate	-10.0188
▁svasTa	-10.0189
▁azwama	-10.0191
▁bahUnAm	-10.0191
▁balinA	-10.0193
▁BikzA	-10.0194
▁pUrvakam	-10.0194
▁vastr	-10.0201
▁senApati	-10.0206
▁yajYam	-10.0215
▁manvantar	-10.0215
▁SUdrAH	-10.0221
▁anurUp	-10.0223
▁vEdy	-10.0224
▁caran	-10.023
roH	-10.0234
▁Gawa	-10.0236
▁dAnta	-10.024
▁mAtula	-10.0243
▁vikramam	-10.0253
▁sADak	-10.0259
▁samaye	-10.026
▁uts	-10.026
▁budD	-10.027
▁saNg	-10.0272
nayan	-10.0273
saNg	-10.0279
▁SudDiH	-10.0283
▁kfzRA	-10.0283
▁Sabdam	-10.0287
▁tyaja	-10.0287
bIj	-10.0288
▁niScayam	-10.0289
▁vAsam	-10.0293
▁vAsavaH	-10.03
▁BAvAt	-10.0301
▁loham	-10.0303
▁cAriR	-10.0304
▁sambanDaH	-10.031
▁narARAm	-10.0315
▁DftarAzwra	-10.0317
▁lakzmI	-10.0323
▁ruk	-10.0326
▁viBAg	-10.033
▁aSvinO	-10.0335
▁kaTayAmi	-10.0335
▁mriyate	-10.0335
▁striyam	-10.0335
▁suvratAH	-10.0335
▁munIn	-10.0335
▁sOBAgya	-10.0335
▁upajIv	-10.0335
▁anuvartate	-10.0335
▁spfzw	-10.0335
▁kzuDA	-10.0335
▁prApti	-10.0335
▁amitr	-10.0335
▁gokarR	-10.0335
▁kziti	-10.0336
▁aSez	-10.0336
▁yayuH	-10.0336
▁kftavarmA	-10.0336
▁kekay	-10.0336
▁suganDi	-10.0336
▁dahan	-10.0336
▁Amalak	-10.0337
▁AjagAma	-10.0338
▁dahat	-10.0338
▁vasavaH	-10.0339
yantram	-10.034
▁mokzam	-10.0341
▁pAtAla	-10.0341
▁pakziRaH	-10.0342
▁vawa	-10.0342
▁navam	-10.0345
▁aBiBUt	-10.0349
▁viSudD	-10.0362
▁lAB	-10.0364
▁savyasAcin	-10.0365
▁azwakaH	-10.0365
▁janmani	-10.0367
▁kalk	-10.037
▁kAryezu	-10.0371
▁hayAn	-10.0378
▁SizwA	-10.0379
▁tIvr	-10.0382
▁kuYjara	-10.0383
▁Atmane	-10.039
▁atiT	-10.0397
▁utpattiH	-10.0399
▁anayA	-10.0399
▁kOtUhala	-10.0403
▁sAmAnyam	-10.0406
▁kusuma	-10.041
▁Sarad	-10.041
▁vihita	-10.041
▁nArad	-10.0415
▁Gan	-10.0415
▁nayana	-10.0416
▁liNgAni	-10.0416
▁pakv	-10.0417
▁aBimuK	-10.0421
▁ratn	-10.0422
jAnIhi	-10.0423
▁prApnuy	-10.0425
▁kumAraH	-10.0434
▁dAhaH	-10.0435
▁tfpti	-10.0439
▁aSn	-10.0443
▁aByAsa	-10.0445
▁avekz	-10.0447
▁parASaraH	-10.0447
▁Alay	-10.0447
▁Saman	-10.0451
▁paRqitaH	-10.0453
▁jIvant	-10.0453
▁Buvana	-10.0456
▁sutAn	-10.0458
▁AdityaH	-10.0459
▁yav	-10.0462
pAda	-10.0469
▁sarit	-10.0471
▁Apta	-10.0473
▁araRya	-10.0475
▁avamAn	-10.0476
▁sahadevaH	-10.0478
▁pannaga	-10.0483
▁vyasana	-10.0485
▁ABaraR	-10.0487
▁sTitiH	-10.049
▁sevitam	-10.0493
▁SravaRa	-10.0495
▁anupa	-10.0498
▁Sast	-10.05
▁SAstre	-10.051
▁piRq	-10.0511
▁SAntim	-10.0511
izWA	-10.0512
eSvaraH	-10.0516
▁kuzW	-10.0519
▁pARquH	-10.0523
▁saMSay	-10.0526
▁sUkzmam	-10.0526
▁Baja	-10.0528
loh	-10.0547
▁kfS	-10.0552
▁apah	-10.056
▁viKyAta	-10.0566
▁rasAH	-10.0568
▁gUQa	-10.0573
▁kAYjik	-10.0573
▁nyasta	-10.0573
▁paYcASat	-10.0573
▁pracakz	-10.0573
▁viBakt	-10.0573
▁Sreyas	-10.0573
▁niyukt	-10.0573
▁samIpe	-10.0573
▁vEdik	-10.0573
▁paramAtman	-10.0573
▁pragfhya	-10.0574
▁nivftta	-10.0575
▁SrIH	-10.0575
▁viSrutA	-10.0577
▁upalaByate	-10.0578
▁antakaH	-10.058
▁keval	-10.0584
▁vESy	-10.0585
▁pfzWe	-10.0585
▁varAnan	-10.0589
▁rUkz	-10.0592
▁prayacCa	-10.0594
▁bfhaspati	-10.0595
▁varma	-10.0598
▁karav	-10.0604
▁dIrG	-10.0605
vallI	-10.0605
▁drupadaH	-10.0611
▁prayata	-10.0615
▁payasA	-10.0615
▁ASI	-10.0625
▁vyavahAr	-10.0627
▁vadatA	-10.0628
▁kOsalyA	-10.0635
▁mantriRaH	-10.0646
▁rADeya	-10.0646
▁caryA	-10.0648
▁SaSa	-10.065
▁tftIye	-10.0659
▁rASi	-10.0663
▁Ardra	-10.0665
▁nizW	-10.0671
▁apsarasA	-10.0674
▁nIt	-10.0679
ADipa	-10.068
▁gIt	-10.068
▁kawuH	-10.0682
▁ganDarvaH	-10.0686
▁nigrah	-10.0686
▁buDAH	-10.0687
▁aBram	-10.0688
▁vEram	-10.0691
▁BAskaraH	-10.0694
▁kzAr	-10.0712
▁pAcanam	-10.0712
▁anugata	-10.0716
▁dvaya	-10.0719
▁duryoDan	-10.0725
▁dvay	-10.0726
▁Sam	-10.0729
▁Kar	-10.0731
rasaH	-10.0744
▁Sukl	-10.0745
▁satI	-10.0747
▁kirIwin	-10.0748
▁uttarA	-10.0754
▁kratuH	-10.0757
▁aNgAr	-10.0757
▁nity	-10.0758
dfk	-10.0766
▁Sir	-10.0773
▁prapaSy	-10.0788
▁antarikza	-10.0793
▁sampat	-10.0802
▁niD	-10.0802
▁kAzWa	-10.0808
▁prAptA	-10.0816
▁Ayuzya	-10.0817
▁Danvin	-10.0817
▁aByaBAzata	-10.0817
▁aSvatTAmA	-10.0817
▁bIBatsu	-10.0817
▁bruvAR	-10.0817
▁pulastyaH	-10.0817
▁suyoDanaH	-10.0817
▁vfRI	-10.0817
▁vimuYc	-10.0817
▁yadfcCayA	-10.0817
▁liKit	-10.0817
▁vihAr	-10.0817
▁upetam	-10.0817
▁niSitA	-10.0818
▁praTita	-10.0818
▁laByate	-10.0819
▁Agamya	-10.0819
▁SakuniH	-10.082
▁hArI	-10.0822
▁viditvA	-10.0822
▁samBft	-10.0827
▁kAry	-10.083
▁DmAt	-10.083
▁AKyAnam	-10.0832
▁mita	-10.0833
▁Sakyate	-10.0833
▁gfhRAti	-10.0834
▁surARAm	-10.0836
▁aty	-10.0836
▁ekEkam	-10.0838
▁saBAm	-10.0845
▁Gore	-10.0847
▁gayA	-10.0853
▁saMvatsara	-10.0854
▁pAtram	-10.0856
▁prahar	-10.0858
dant	-10.0859
▁nIlam	-10.0861
▁pravfttiH	-10.0864
▁ArtaH	-10.0865
▁sEnDava	-10.0874
▁Basm	-10.0875
▁gOra	-10.0878
▁sarvajYa	-10.088
▁aBinand	-10.0884
▁uttaraH	-10.0885
▁BIta	-10.0887
▁KyAti	-10.0889
▁sAgaram	-10.0889
▁yukti	-10.0894
▁kuS	-10.0897
▁vyAs	-10.0901
▁Sarva	-10.0902
▁nipatit	-10.0909
▁samB	-10.0909
▁tumul	-10.0911
▁harz	-10.0912
▁apahA	-10.0915
▁dfS	-10.0917
▁yajet	-10.0924
▁pAcan	-10.0924
▁samAgamaH	-10.0926
▁virudDa	-10.0936
▁val	-10.0947
▁sahadev	-10.0948
▁aByAs	-10.095
▁Bagna	-10.0953
▁mitrAR	-10.0959
▁puw	-10.0961
▁SASvat	-10.0962
▁saMSayam	-10.0962
▁kuSalAH	-10.0963
▁Saly	-10.0967
▁jarAm	-10.0967
▁aByanujYAt	-10.0969
▁lABaH	-10.0972
▁nalaH	-10.0986
▁pApAni	-10.0986
▁udBavam	-10.0993
▁anyAH	-10.0993
▁GorA	-10.1004
▁nihan	-10.1009
▁apara	-10.1014
▁jAtAH	-10.1024
▁cUrRa	-10.1045
▁vistAr	-10.1051
▁prAjY	-10.1065
▁BuNkte	-10.1067
▁ayoDyA	-10.1067
▁bAzpa	-10.1067
▁durAtmanaH	-10.1067
▁dviviDaH	-10.1067
▁kftAYjaliH	-10.1067
▁nyaset	-10.1067
▁saMramB	-10.1067
▁vyoma	-10.1067
▁muzwi	-10.1067
▁aBiprAy	-10.1067
▁vAsuki	-10.1067
▁nibarhaR	-10.1067
▁prApnuvanti	-10.1067
▁carAcar	-10.1067
▁citrasena	-10.1067
▁aByantar	-10.1068
▁DAtrI	-10.1068
▁imO	-10.1068
▁rAjarziH	-10.1069
▁BavadBiH	-10.1069
▁vakzyati	-10.1071
▁seveta	-10.1071
▁mAtaraH	-10.1072
▁cOr	-10.1075
▁candramas	-10.108
▁nIca	-10.1082
▁ASrayaH	-10.1082
▁nivAs	-10.1083
▁paSUnAm	-10.1085
▁gfhRIyAt	-10.1086
▁sUn	-10.1086
▁jagatAm	-10.1087
▁datte	-10.1092
Amahe	-10.1093
▁upacAr	-10.1093
▁asaMSayam	-10.1095
▁viparIt	-10.1096
▁suDA	-10.1097
▁viBAga	-10.1112
▁tal	-10.1116
▁AdIni	-10.1118
▁vatsar	-10.1128
kfz	-10.1131
▁lABa	-10.1131
▁pratya	-10.1131
▁kftsnA	-10.1135
▁biBe	-10.1138
▁pittam	-10.1139
▁bale	-10.1144
▁tapasvinaH	-10.1145
▁nikzip	-10.1146
▁candraH	-10.1151
▁SfNga	-10.1153
▁yozitaH	-10.1155
▁duzkftam	-10.1157
▁vinASaH	-10.1158
▁vaktavyam	-10.1161
▁cintayan	-10.1165
▁muKyAH	-10.1166
▁garuq	-10.1174
▁indriyEH	-10.1176
▁kuSalaH	-10.1178
▁Srotr	-10.1178
▁aSuB	-10.1181
▁Arjavam	-10.1187
▁vyaTA	-10.1191
▁balin	-10.121
▁hfzwaH	-10.1213
▁lokAt	-10.1217
▁SASvataH	-10.122
▁yuktasya	-10.1227
▁garh	-10.1235
▁kalpaH	-10.1237
▁tuzwA	-10.1245
▁nazwe	-10.1245
▁rAgaH	-10.1251
▁Atapa	-10.1258
▁putrEH	-10.1262
▁parvatam	-10.1265
▁rAjarz	-10.1267
▁yogi	-10.1268
smi	-10.1275
▁arcanam	-10.1277
▁vikalpa	-10.1284
▁virAwaH	-10.1288
▁kartavyA	-10.1296
▁darSanA	-10.1302
▁OzaD	-10.1305
kuRq	-10.1311
▁vasizW	-10.1312
▁candr	-10.1321
AMSu	-10.1323
▁SuDyati	-10.1323
▁Sulba	-10.1323
▁arGya	-10.1323
▁asADy	-10.1323
▁durAsad	-10.1323
▁klIb	-10.1323
▁krIqA	-10.1323
▁kuwumb	-10.1323
▁manasvin	-10.1323
▁nirdizw	-10.1323
▁pAzARa	-10.1323
▁prAjApaty	-10.1323
▁saMsparS	-10.1323
▁ulbaR	-10.1323
▁urasi	-10.1323
▁yojyam	-10.1323
▁DEry	-10.1323
▁SastraBftAm	-10.1323
▁hetavaH	-10.1323
▁uttaNka	-10.1323
▁SitEH	-10.1324
▁velA	-10.1324
▁gahan	-10.1324
▁upaBog	-10.1324
▁kAMsya	-10.1324
▁gAlava	-10.1324
▁vikfti	-10.1324
▁ASrayam	-10.1324
▁Dany	-10.1326
▁kulIn	-10.1328
▁vimucyate	-10.133
▁hAri	-10.1332
▁jetu	-10.1333
▁Asur	-10.1336
▁vasanta	-10.1337
▁kalpe	-10.1339
▁sAhas	-10.1341
▁Denu	-10.1345
▁vAcam	-10.1346
▁hetunA	-10.1356
▁naBaH	-10.1364
▁upamAH	-10.1373
▁tapasv	-10.1374
▁anava	-10.1375
▁jvalan	-10.1388
▁smaran	-10.1389
▁kzaRena	-10.1399
▁kIrt	-10.1402
▁dveza	-10.1403
▁jayati	-10.141
▁amlena	-10.1415
▁raviH	-10.1421
▁PalEH	-10.1423
▁BImasenam	-10.1434
▁anumat	-10.1434
▁Buk	-10.1435
▁tva	-10.144
▁cintak	-10.1452
▁dvIpa	-10.1457
▁vyUha	-10.1466
▁brAhmaRAn	-10.147
▁yajant	-10.1472
▁cikitsA	-10.1482
▁mandara	-10.1493
kftya	-10.1493
▁janArdanam	-10.1494
▁garBe	-10.1509
▁anugrah	-10.1511
▁avasTitam	-10.1524
▁vaSI	-10.1525
▁kfpa	-10.1525
dDi	-10.1526
cakram	-10.1529
▁parigrahaH	-10.1529
▁dIpanaH	-10.153
▁praSaMs	-10.1532
▁kuYjar	-10.1532
▁maDyamaH	-10.1533
muKaH	-10.1533
▁dIptA	-10.1535
▁sOmy	-10.1543
▁anujYAta	-10.1557
▁mantrEH	-10.1558
▁praSam	-10.1558
▁rAGavam	-10.1562
▁sahasrAkza	-10.1572
▁aByu	-10.1585
▁SaMsa	-10.1585
▁IS	-10.1585
triMSa	-10.1586
▁sarvAs	-10.1587
▁SradDa	-10.1587
▁SatruGna	-10.1587
▁bfhat	-10.1587
▁jYEH	-10.1587
▁jvalit	-10.1587
▁kfTAH	-10.1587
▁lakzaREH	-10.1587
▁mAtuluNga	-10.1587
▁puNK	-10.1587
▁sUdana	-10.1587
▁samASrit	-10.1587
▁samudAhft	-10.1587
▁ujjval	-10.1587
▁visfjya	-10.1587
▁nindA	-10.1587
▁ramaRIy	-10.1587
▁nyAsa	-10.1587
▁utkaw	-10.1587
▁BfSa	-10.1587
▁BuvaH	-10.1587
▁SlokAH	-10.1587
▁ajYAnAt	-10.1587
▁taruRa	-10.1587
▁prApsya	-10.1587
▁upapanna	-10.1587
▁Damet	-10.1587
▁pUrvA	-10.1587
▁biBrat	-10.1588
▁avatAr	-10.1589
▁vanaspat	-10.159
▁icCan	-10.159
▁SarAva	-10.159
▁fdD	-10.159
▁dAsyAmi	-10.1591
▁parAjay	-10.1591
▁utsfzw	-10.1592
▁Bojana	-10.1593
▁AtmanAm	-10.1594
▁samApt	-10.1596
▁vESravaRa	-10.1599
▁kavacam	-10.1603
▁dehinaH	-10.1604
▁durga	-10.1604
▁nivartate	-10.1608
▁takzak	-10.1613
▁Aroh	-10.1616
▁vAyunA	-10.162
▁puzy	-10.1621
▁saMvatsar	-10.1624
▁patanti	-10.1632
▁puzkar	-10.1641
▁kOrav	-10.1643
▁vAsudev	-10.1646
▁nIl	-10.1653
▁SASvatI	-10.1654
▁kampa	-10.1658
▁uktAni	-10.1658
▁suzu	-10.1659
▁trElokyam	-10.1664
▁vaSAt	-10.1678
▁kaTitA	-10.1682
▁nAda	-10.1682
▁antaka	-10.1684
▁sTite	-10.1684
▁kAyaH	-10.1688
▁SAsanam	-10.1692
▁stey	-10.1709
▁pOruz	-10.1714
vfttam	-10.1724
▁jAte	-10.1725
▁dfzwe	-10.1728
▁pitAmah	-10.1728
▁Atape	-10.1729
janam	-10.1733
▁vivAh	-10.174
▁garuqaH	-10.1743
banDaH	-10.1748
▁madana	-10.1757
▁baka	-10.1758
▁Asy	-10.1762
▁muKAt	-10.1764
▁anumAn	-10.1765
▁hutASanaH	-10.1767
▁rAjas	-10.1771
▁Goz	-10.1772
▁tftIya	-10.1772
▁gAmi	-10.1776
▁DruvaH	-10.1781
▁vEzRavam	-10.1781
▁varAH	-10.1787
▁Bavantam	-10.179
▁SudDaH	-10.1791
▁raj	-10.1794
▁SamBu	-10.1799
▁SuBAH	-10.1804
▁uc	-10.1808
▁yugam	-10.182
▁Adityam	-10.1828
BAg	-10.183
▁dviguR	-10.1841
▁BI	-10.1843
▁gur	-10.1849
▁jayam	-10.1852
taRqul	-10.1857
▁grahaRe	-10.1857
▁anusmaran	-10.1857
▁arbud	-10.1857
▁jiGAMs	-10.1857
▁kaWin	-10.1857
▁musal	-10.1857
▁samprati	-10.1857
▁mAgaD	-10.1857
▁abal	-10.1857
▁virUpAkza	-10.1857
▁kzitO	-10.1857
▁ajAyata	-10.1857
▁hrI	-10.1857
▁trAsa	-10.1857
▁sakAS	-10.1857
▁locanA	-10.1858
▁sampadyat	-10.1858
▁mahIpAla	-10.1859
▁Sete	-10.1859
▁sAkziRaH	-10.186
▁DAma	-10.186
▁dfQ	-10.1862
▁asurARAm	-10.1862
▁mahAtmane	-10.1865
jaGnuH	-10.1865
▁parAn	-10.187
▁darS	-10.187
▁rucyam	-10.1871
▁trivft	-10.1871
▁yuyuDAna	-10.1871
▁lakzmIH	-10.1875
▁Bukti	-10.1875
jagmatuH	-10.1879
▁nagara	-10.188
▁mAnuzam	-10.1889
▁vAyoH	-10.1889
▁droh	-10.1895
jYaH	-10.1897
▁sevan	-10.1898
▁pARinA	-10.1898
▁aDikA	-10.1899
▁pAtra	-10.1903
▁vicitrAR	-10.1903
▁pAdayoH	-10.1908
▁parEH	-10.1914
▁Anana	-10.1914
▁dozARAm	-10.1915
▁pAvakam	-10.1915
Boj	-10.1915
▁banDuH	-10.1918
▁vihar	-10.1919
▁yO	-10.192
▁DarmAH	-10.1929
▁Ayas	-10.193
▁dInA	-10.193
▁laya	-10.1932
▁parABav	-10.1936
▁yaSasvinI	-10.194
▁janasya	-10.1943
▁Suzk	-10.1943
▁muRqa	-10.1946
vanam	-10.1946
▁kaTAH	-10.1956
▁rakzati	-10.1956
▁mUlyam	-10.196
▁vihit	-10.1966
▁pradAtavy	-10.1975
▁karAH	-10.1988
▁naga	-10.199
▁svAm	-10.1992
▁triguR	-10.1998
▁pARqavam	-10.2001
▁DArayan	-10.2001
▁durbala	-10.2003
▁citraka	-10.2015
▁dattaH	-10.2023
▁suhfdA	-10.2026
▁indram	-10.2029
▁SarAH	-10.203
▁smara	-10.203
▁dvijottamaH	-10.2031
▁putraka	-10.2035
▁locanaH	-10.2045
▁prasAdaH	-10.2049
▁kUrmaH	-10.2052
▁dozAn	-10.2053
▁udBavaH	-10.2063
▁kvAT	-10.2069
▁mene	-10.2076
▁upasTitam	-10.2076
▁prahfzw	-10.2079
▁dvipa	-10.208
▁lep	-10.2082
▁nIlaH	-10.2087
▁uditaH	-10.2088
▁paruza	-10.209
▁karizy	-10.2096
▁udaram	-10.2101
▁BUtaH	-10.2105
mAnasya	-10.2114
▁apriy	-10.212
▁drutam	-10.2125
▁nihant	-10.2126
▁mArutaH	-10.2128
▁sakala	-10.2129
▁upalaB	-10.2129
▁pinAk	-10.2132
▁agnizwoma	-10.2135
▁kokil	-10.2135
▁mArjAra	-10.2135
▁pratyaBAzata	-10.2135
▁tryambak	-10.2135
▁udAhftaH	-10.2135
▁SIrz	-10.2135
▁hEm	-10.2135
▁rAhu	-10.2135
▁visarg	-10.2135
▁SiKi	-10.2135
▁nizPal	-10.2135
▁gantavya	-10.2135
▁ayukt	-10.2135
▁lop	-10.2135
▁takr	-10.2135
▁antarhit	-10.2135
▁dvitIye	-10.2135
▁prapadye	-10.2135
IkaraRam	-10.2136
▁anusAr	-10.2136
▁nareSvara	-10.2137
▁azwA	-10.2137
▁dEvatEH	-10.2138
▁pravIr	-10.2138
▁DAny	-10.2139
▁vIta	-10.214
▁anekaSaH	-10.214
▁Ayatanam	-10.214
▁aDipatiH	-10.2141
▁pakt	-10.2142
▁fRa	-10.2143
Sizw	-10.2143
▁jIvitum	-10.2143
▁grahaRa	-10.2146
▁saBAyAm	-10.2149
▁indrajit	-10.215
▁budDe	-10.2152
▁prayAnt	-10.2154
▁saKya	-10.2154
▁saMsTAna	-10.2157
▁parvatAn	-10.2162
▁varcas	-10.2165
▁raTe	-10.2165
▁anujYA	-10.2166
▁sAram	-10.217
▁puruzottamaH	-10.2174
IkftA	-10.2175
▁vivft	-10.2176
▁rAjye	-10.218
▁kaTayati	-10.2183
▁durlaBaH	-10.2197
▁kleS	-10.22
▁aBijY	-10.2204
▁samit	-10.2216
▁dey	-10.2222
▁Goza	-10.2223
▁praSamana	-10.2233
▁caranti	-10.2236
▁aparAjitaH	-10.2237
▁vfkodaraH	-10.2237
▁IkzaRA	-10.2246
▁udayaH	-10.2251
▁SudDA	-10.2251
▁candan	-10.2251
▁indrAH	-10.2254
▁durDarz	-10.2257
▁japt	-10.2257
▁prayogaH	-10.2265
▁samagr	-10.2266
▁kaSyap	-10.2269
▁karizye	-10.2275
▁BEkz	-10.2281
▁pret	-10.2286
▁jitaH	-10.2296
▁DIraH	-10.2298
▁prahfzwa	-10.2302
▁udAna	-10.2307
▁aSvAn	-10.231
▁varuRasya	-10.2318
▁viBIzaRa	-10.232
▁SiSira	-10.2325
▁vftte	-10.2328
roha	-10.2329
▁vayas	-10.233
▁KyAt	-10.234
▁kurvate	-10.2346
▁grahAH	-10.2351
▁BAskar	-10.236
▁nASam	-10.2364
▁prayatn	-10.2365
▁varDanaH	-10.2367
▁yAH	-10.2373
dAru	-10.2377
taraH	-10.2381
▁samprekz	-10.2387
▁daRqak	-10.2388
▁sEnDavam	-10.239
▁mAlya	-10.2397
▁anant	-10.2401
▁piban	-10.2403
▁gajapuwe	-10.2411
▁Bid	-10.2413
puzpaH	-10.2413
▁nivas	-10.2416
▁SraddaDAn	-10.242
▁SuBEH	-10.242
▁SuSuB	-10.242
▁aGor	-10.242
▁adarSanam	-10.242
▁apfcCat	-10.242
▁azwAvakra	-10.242
▁durAtmanA	-10.242
▁saMsadi	-10.242
▁samAvizw	-10.242
▁tfpyati	-10.242
▁varAroh	-10.242
▁SlezmA	-10.242
▁cezwit	-10.242
▁parANmuK	-10.242
▁pradIpt	-10.242
▁prasravaR	-10.242
▁antarAtman	-10.242
▁dahyamAn	-10.242
▁matsyAn	-10.242
▁SOry	-10.242
▁majja	-10.2421
▁kfzi	-10.2421
▁praRava	-10.2421
▁sAtmya	-10.2422
▁SrAnt	-10.2422
▁svAgat	-10.2422
▁praTame	-10.2422
▁puRqarIkAkza	-10.2422
▁niveSanam	-10.2422
▁gamizyati	-10.2423
▁BrAnt	-10.2423
▁utpAda	-10.2423
▁BARqa	-10.2425
▁prAyaSaH	-10.2427
▁apramey	-10.2427
▁dvijAtIn	-10.2427
▁adri	-10.2428
▁varjy	-10.243
▁manyante	-10.2432
▁sunda	-10.2433
nft	-10.2435
▁turag	-10.2437
▁BAvitam	-10.2438
▁vistAra	-10.2439
▁upadeSa	-10.2445
▁rakzaRam	-10.2449
antum	-10.2463
▁vfdDim	-10.2464
▁devarAja	-10.2472
▁pAvana	-10.2475
▁mAse	-10.2478
▁stana	-10.2486
URAm	-10.2496
▁nigrahaH	-10.2497
▁vinay	-10.2524
▁strIzu	-10.2533
▁Sama	-10.2542
▁baliH	-10.2547
▁camU	-10.2548
▁mudit	-10.2551
▁kARq	-10.2551
▁DAraRam	-10.2564
▁apatya	-10.2566
▁varAha	-10.2573
▁puRye	-10.2574
▁AdAn	-10.2584
▁dIp	-10.2587
▁Dfti	-10.2593
▁dyUta	-10.2602
▁aMSu	-10.2602
▁maye	-10.2603
▁SastrAR	-10.2603
▁viduzA	-10.2604
nIyam	-10.2607
▁SamaH	-10.2618
▁sTAvar	-10.2623
▁maDyamam	-10.2626
▁saMvatsaram	-10.2628
▁vahan	-10.2628
▁parRa	-10.2637
▁upahata	-10.2638
▁SAK	-10.2641
▁jav	-10.2641
▁vismit	-10.2644
▁pAkaH	-10.2645
▁agryam	-10.2646
▁BArgav	-10.2655
▁vats	-10.2658
▁AKye	-10.2658
liNg	-10.266
▁acalaH	-10.2662
kzep	-10.2665
▁prARAH	-10.2676
▁DarAH	-10.2682
▁aDyAtmam	-10.2689
▁vAraR	-10.2691
▁kaPe	-10.27
▁vimuK	-10.2702
▁vipulA	-10.2713
▁vidaD	-10.2714
▁gamBIra	-10.2714
▁AvasaT	-10.2714
▁Bizaj	-10.2714
▁daridr	-10.2714
▁ftvij	-10.2714
▁mAciram	-10.2714
▁miTaH	-10.2714
▁pariSrAnt	-10.2714
▁sampuwe	-10.2714
▁tizWet	-10.2714
▁leKya	-10.2714
▁nindit	-10.2714
▁SatravaH	-10.2715
▁dvAByAm	-10.2715
▁vijAnat	-10.2715
▁jambu	-10.2715
▁DAtavaH	-10.2715
▁tiktA	-10.2715
▁kAmarUpiR	-10.2715
▁guda	-10.2715
▁apatat	-10.2715
▁balavattar	-10.2715
▁tApya	-10.2716
▁dyutiH	-10.2716
▁praBave	-10.2716
▁karizyasi	-10.2717
▁prayAga	-10.2717
▁mahAmati	-10.2717
▁vAmadev	-10.2717
▁vistaram	-10.2717
▁drazwavy	-10.2717
▁vibuDa	-10.2717
▁samapadyata	-10.272
▁upacakram	-10.2724
▁visfzw	-10.2724
▁druta	-10.2725
▁svacCa	-10.2728
▁jvare	-10.2729
▁martyaH	-10.2731
▁hasan	-10.2732
▁vAriRA	-10.2732
▁praBAvaH	-10.2733
▁kupya	-10.2733
▁talam	-10.2738
▁jAnan	-10.2739
▁Kal	-10.274
▁SlakzRa	-10.2743
▁kriyamAR	-10.2746
▁mftyoH	-10.2749
▁vahat	-10.2752
▁alak	-10.2762
karza	-10.2774
▁jvalana	-10.2785
▁rahasyam	-10.2791
▁kArakam	-10.2793
▁kArakaH	-10.2798
arSa	-10.2804
▁dAsa	-10.2807
▁vyakta	-10.2814
▁ayutam	-10.2817
▁satAm	-10.2825
▁pUjanam	-10.2825
▁BAvAH	-10.2828
▁muniBiH	-10.284
▁Gaw	-10.2841
▁Bay	-10.2843
▁sten	-10.2849
▁BItA	-10.2852
▁gomuK	-10.2853
▁rAzwram	-10.2853
▁aDika	-10.2862
▁viparItam	-10.2865
▁yatiH	-10.2868
▁vivAha	-10.2872
▁kuRqale	-10.2874
▁Arjav	-10.2874
vezw	-10.2881
▁meDAv	-10.2884
▁gfhAn	-10.2886
▁tEl	-10.289
▁pakze	-10.2893
▁kapAla	-10.2908
▁Bakzy	-10.2909
tarasA	-10.2911
▁kUwa	-10.2918
▁nandi	-10.2919
▁samanvit	-10.2924
▁vijYeyAH	-10.2927
parva	-10.2933
▁maraR	-10.2935
Palam	-10.2936
▁SOca	-10.2938
▁Samam	-10.2947
▁lalAwa	-10.2956
▁kozWa	-10.2965
vIry	-10.2976
AkzaH	-10.298
▁durgam	-10.2982
▁yamO	-10.2989
▁hutam	-10.2991
kUle	-10.2991
▁praBaH	-10.2999
▁kartAra	-10.3007
SADi	-10.3008
▁japaH	-10.3012
▁he	-10.3012
pur	-10.3013
▁upalabD	-10.3015
▁jagannATa	-10.3018
▁muhy	-10.3018
▁nArAc	-10.3018
▁ojasA	-10.3018
▁pfTivyAH	-10.3018
▁uccAvac	-10.3018
▁SArIr	-10.3018
▁vimfS	-10.3018
▁cihn	-10.3018
▁reKA	-10.3018
▁Ahut	-10.3018
▁mArIca	-10.3018
▁prAsAda	-10.3018
▁upasTa	-10.3018
▁vAruR	-10.3018
▁sOBadra	-10.3018
▁mAheSvar	-10.3018
▁siMhanAd	-10.3018
▁sammataH	-10.3019
▁vyavasy	-10.3019
▁prARAyAm	-10.3021
▁tatparaH	-10.3022
▁kzema	-10.3023
▁vadet	-10.3023
▁praBUta	-10.3023
▁jagfh	-10.3024
daRq	-10.3026
▁kramaSaH	-10.3026
▁vatsalaH	-10.3026
▁akAry	-10.3027
▁kalka	-10.3027
▁buDyate	-10.3027
▁tIra	-10.3028
▁gfhe	-10.3029
▁BAnu	-10.303
▁nipAt	-10.3035
▁pUjyate	-10.3036
▁sanAtan	-10.3036
▁SArdUl	-10.3036
▁rakzitA	-10.3039
▁avyay	-10.3049
▁santaH	-10.305
▁Kaqg	-10.3052
▁kaP	-10.3054
▁vapuzA	-10.3061
▁paYcaDA	-10.3066
▁dAruRaH	-10.307
▁anvez	-10.3072
▁mAmak	-10.3076
▁sAyujyam	-10.3078
▁vitt	-10.3078
▁samBava	-10.31
▁pratIkz	-10.3101
▁vaDAya	-10.3103
▁vaDU	-10.3104
▁apAna	-10.3108
▁sTAnAni	-10.3114
▁pfTivIpati	-10.3116
▁dUzaRam	-10.3118
▁vyavasAya	-10.3119
▁anugam	-10.312
tavyaH	-10.3124
▁savit	-10.3128
▁anyasya	-10.3133
▁Catra	-10.3135
▁dyUt	-10.3135
▁suparRa	-10.3136
▁viparIta	-10.3137
▁izwA	-10.3138
▁SiKara	-10.3141
DaraH	-10.3146
▁kfpaRa	-10.3147
▁AryA	-10.3149
▁Bftya	-10.3151
▁uzRA	-10.3153
hanyate	-10.3163
▁saram	-10.3165
▁budDa	-10.3167
▁ADi	-10.3176
▁aByadrava	-10.3179
▁kumB	-10.3182
▁hayAH	-10.3187
▁AramBa	-10.3189
▁aDyAy	-10.319
▁daSama	-10.3209
▁anurUpam	-10.3209
▁narendra	-10.321
▁mahiza	-10.321
▁hiNgu	-10.3215
▁aruR	-10.3218
▁sAmAnya	-10.3222
▁divAkaraH	-10.3229
▁sevA	-10.3231
▁somasya	-10.3239
▁rUpAH	-10.324
▁mUrt	-10.3243
▁vidur	-10.3245
▁nAgara	-10.3252
▁veD	-10.3256
▁anvitA	-10.3268
▁saMsarg	-10.3274
▁acintya	-10.3311
▁vikrAnta	-10.3324
vartante	-10.3326
▁Bavya	-10.3327
▁dvijaSrezWa	-10.333
▁jihva	-10.333
▁kaTyatAm	-10.333
▁kanyakA	-10.333
▁lIlayA	-10.333
▁lOkik	-10.333
▁leKanam	-10.333
▁mUrK	-10.333
▁picCil	-10.333
▁pitfpEtAmah	-10.333
▁prayojy	-10.333
▁sADUn	-10.333
▁sIdati	-10.333
▁sPawika	-10.333
▁vijYAta	-10.333
▁nipuR	-10.333
▁nivizw	-10.333
▁akasmAt	-10.333
▁prasupt	-10.333
▁kftrima	-10.333
▁avyagr	-10.333
▁praSastA	-10.333
▁vAnarARAm	-10.333
▁Adatte	-10.333
▁asfk	-10.333
▁rUpiRam	-10.333
▁pawu	-10.333
▁nAyak	-10.333
▁vistaraH	-10.3331
▁nandI	-10.3331
▁kukz	-10.3331
barh	-10.3333
▁yajamAna	-10.3333
▁sammatA	-10.3334
▁avabuDya	-10.3334
▁sAraT	-10.3335
▁vfzaDvaja	-10.3336
▁caturTe	-10.3336
▁Atmajam	-10.3336
▁mfttikA	-10.3339
▁vidura	-10.334
▁yoge	-10.3341
▁pUrveRa	-10.3342
▁maya	-10.3344
▁kzara	-10.3344
▁pravara	-10.3344
▁paryAya	-10.3345
▁drazwA	-10.3347
▁pibanti	-10.3349
▁anal	-10.3349
▁zazWe	-10.335
gatam	-10.3353
▁paryanta	-10.3355
▁vratAH	-10.3356
▁huta	-10.3357
▁aDyAtma	-10.3357
▁vAyas	-10.3361
▁prakASate	-10.3364
▁mad	-10.3365
▁vaDyaH	-10.3366
▁virAw	-10.3368
▁bilva	-10.3369
▁DarmizW	-10.3371
▁viqa	-10.3377
▁gopa	-10.3379
▁veza	-10.338
▁vartante	-10.3381
▁saPal	-10.3383
trayam	-10.3386
▁Bajet	-10.3388
▁pattr	-10.3389
▁kAvya	-10.3394
▁tyajat	-10.3395
▁saMyogAt	-10.3412
▁lAGavam	-10.3421
▁prasava	-10.3426
▁sAmya	-10.3427
▁SmaSAna	-10.3431
▁maheSvara	-10.3435
▁plava	-10.3442
▁samAsa	-10.3442
▁maRqala	-10.3457
▁vIkzya	-10.3465
▁drupada	-10.3469
▁sTe	-10.3477
▁oGa	-10.348
▁pareRa	-10.3493
▁apriyam	-10.3493
▁varAh	-10.3496
▁antA	-10.3498
▁dviguRaH	-10.3507
▁vanezu	-10.3509
▁uzwra	-10.3511
▁upavan	-10.3515
▁ASrayAH	-10.3516
▁amarz	-10.3517
▁rajas	-10.3524
▁haste	-10.3527
▁hrasva	-10.3529
▁aBimuKaH	-10.3541
▁kftsn	-10.3543
▁kusum	-10.355
▁sved	-10.3551
▁kilbizam	-10.3556
▁Bakz	-10.3572
▁DUm	-10.3575
▁vyavahAra	-10.3579
▁yoDin	-10.3581
▁niGn	-10.3584
▁gfDr	-10.3585
▁viSezAH	-10.3585
▁aDvA	-10.3595
▁svarge	-10.3596
▁SAk	-10.3597
▁udake	-10.3597
▁guhy	-10.36
▁fkz	-10.3614
▁vipAke	-10.3617
▁kop	-10.3646
▁stuti	-10.365
▁avajYA	-10.3653
▁vicezw	-10.3653
▁Canna	-10.3653
▁SatakratuH	-10.3653
▁SfRvant	-10.3653
▁UcatuH	-10.3653
▁aBidudr	-10.3653
▁aNguli	-10.3653
▁alAB	-10.3653
▁drAkzA	-10.3653
▁kadalI	-10.3653
▁krOYc	-10.3653
▁sTEry	-10.3653
▁tArkzya	-10.3653
▁upAgamat	-10.3653
▁viSvAtmA	-10.3653
▁SilAjatu	-10.3653
▁acetan	-10.3653
▁akroDa	-10.3653
▁mahAbal	-10.3653
▁vidvAMsa	-10.3653
▁tridiv	-10.3653
▁dIyatAm	-10.3653
▁tomar	-10.3653
▁aSvatTa	-10.3653
▁jAnapad	-10.3653
▁ambarIz	-10.3653
▁svinn	-10.3653
▁grAsa	-10.3653
▁kapard	-10.3653
▁mAraRam	-10.3653
▁vyAkul	-10.3653
▁uttamEH	-10.3653
▁gireH	-10.3653
▁upakaraR	-10.3653
▁anukamp	-10.3653
▁naSyanti	-10.3653
▁Amiza	-10.3653
▁antikam	-10.3654
▁nityadA	-10.3654
▁vyApta	-10.3654
▁kanIy	-10.3654
▁pradAsyAm	-10.3655
▁kAmAH	-10.3656
Pal	-10.3657
▁yutA	-10.3657
▁manas	-10.3658
▁nirRay	-10.3659
▁nAmAni	-10.366
▁yOvane	-10.366
▁udare	-10.3661
▁vyAyAma	-10.3661
▁kAriRaH	-10.3664
▁paryay	-10.3668
▁viSAl	-10.3668
▁dikzu	-10.3671
▁Cid	-10.3672
▁harzaRam	-10.3673
▁baBO	-10.3674
▁aNgadaH	-10.3675
▁bAly	-10.3675
▁manoH	-10.3679
▁patana	-10.368
▁BAvitA	-10.3682
▁rAjY	-10.3685
▁niDAya	-10.3688
▁rogARAm	-10.3691
▁puzw	-10.3699
▁kozW	-10.3709
▁fzIn	-10.3718
apaSyAma	-10.3721
▁pASupatam	-10.3731
▁SvetA	-10.3738
▁BUyizWam	-10.3741
▁Sram	-10.3743
▁virecanam	-10.3746
▁vyAna	-10.3747
▁pratigrah	-10.3754
▁divas	-10.3755
▁niScitya	-10.3761
▁BasmanA	-10.3778
▁pradAnena	-10.3779
▁vEvasvat	-10.3782
▁pravizwAH	-10.3784
▁prAptav	-10.3784
▁jAgar	-10.3785
▁vaMSe	-10.379
▁dIpana	-10.38
▁Arz	-10.3816
▁triguRam	-10.3823
▁varA	-10.3823
▁boDa	-10.3844
▁prasT	-10.3847
▁nirvftt	-10.3857
▁labDA	-10.3866
▁avasT	-10.3883
▁svAmi	-10.3884
▁miSra	-10.3885
▁prapadya	-10.3903
▁aBimanyu	-10.3903
▁labD	-10.3906
▁Cidra	-10.3907
▁piNga	-10.3924
▁Sarat	-10.3925
▁prAkft	-10.393
▁samAyuktam	-10.3935
▁marutt	-10.3937
gacCanti	-10.3941
▁mAly	-10.3945
▁kriya	-10.3951
▁miTuna	-10.396
▁vimuktaH	-10.397
gram	-10.3977
▁varRena	-10.3984
ucy	-10.3985
▁jijYAs	-10.3986
▁AnfSaMsy	-10.3986
▁Cardi	-10.3986
▁SuSrUza	-10.3986
▁agnihotr	-10.3986
▁amBasA	-10.3986
▁ambikA	-10.3986
▁avagAh	-10.3986
▁bAnDavEH	-10.3986
▁niScal	-10.3986
▁pratiSrut	-10.3986
▁ranDr	-10.3986
▁ropaRa	-10.3986
▁ukzit	-10.3986
▁vijAnAti	-10.3986
▁aRu	-10.3986
▁jawil	-10.3986
▁kftaGn	-10.3986
UzR	-10.3986
▁sADavaH	-10.3986
▁ijyA	-10.3986
▁upEti	-10.3986
▁aSuc	-10.3986
▁mfzA	-10.3986
▁upaniza	-10.3986
▁aDizWAn	-10.3986
▁akAle	-10.3986
▁viBAzA	-10.3986
▁BAsvar	-10.3986
▁spand	-10.3986
▁nirved	-10.3987
▁vyApya	-10.3987
▁nirmitA	-10.3988
▁gava	-10.3988
▁vikarRa	-10.3988
▁zoqaSIm	-10.3988
▁agnayaH	-10.3988
▁janADipa	-10.3988
▁niDiH	-10.3989
▁nigfhya	-10.3989
▁kAnt	-10.3992
▁DAtUn	-10.3993
▁Sizwa	-10.3993
▁cintayet	-10.3994
▁praSna	-10.3995
▁SoBanA	-10.3996
▁prayuYjIta	-10.3997
▁KaRqe	-10.4
▁KaRqa	-10.4006
▁aBAv	-10.4008
▁gamyate	-10.4009
▁anuttamAm	-10.4011
▁yaTAgatam	-10.4014
▁samAgame	-10.4015
▁kfSa	-10.4017
▁pUjya	-10.4018
▁pAvaka	-10.4021
lip	-10.4026
▁svAmI	-10.4031
▁Boja	-10.4034
▁jayadraTaH	-10.4047
▁tvara	-10.4055
▁apramattaH	-10.4057
▁pOtra	-10.4057
▁prakftyA	-10.4058
▁jAtI	-10.4058
▁mAnuzAH	-10.4066
▁mahAntam	-10.4074
noti	-10.4074
rIRAm	-10.4074
▁dAsy	-10.4081
▁vAsAH	-10.409
▁mil	-10.4094
▁stoka	-10.4096
▁pAtakEH	-10.4098
▁maDunA	-10.4101
▁kzip	-10.4104
▁ketu	-10.4106
▁Sivena	-10.4109
▁udAra	-10.411
▁tulA	-10.4121
gacCati	-10.4125
▁puMsaH	-10.4129
▁puzpEH	-10.413
▁BedAH	-10.4133
▁dvitIya	-10.4136
▁paYcame	-10.4138
▁snAn	-10.4147
▁Ikz	-10.4156
▁avekzya	-10.4166
▁kevala	-10.4166
▁kfty	-10.4171
▁sAhasam	-10.4173
▁samAgam	-10.4174
puwam	-10.4189
▁apas	-10.4196
▁aDikft	-10.42
▁adfSy	-10.4203
▁durlaBA	-10.4206
▁vAsudevasya	-10.4225
▁laG	-10.4235
▁pipAs	-10.4236
▁vigrahaH	-10.425
▁Bar	-10.4261
▁haraRa	-10.427
▁raTAH	-10.4271
kurute	-10.428
Bavizya	-10.4282
▁pratigraha	-10.4286
▁mayUra	-10.4288
▁parivarta	-10.4298
jagAma	-10.4302
KaRq	-10.4303
▁yuyuD	-10.4312
▁utpannam	-10.4315
izye	-10.4316
▁paryAy	-10.4319
▁SlAG	-10.4331
▁Ananty	-10.4331
▁SAmyati	-10.4331
▁SfRoti	-10.4331
▁SuSrAva	-10.4331
▁aviSez	-10.4331
▁dunduB	-10.4331
▁kavi	-10.4331
▁prAhiRot	-10.4331
▁pracCanna	-10.4331
▁sTavir	-10.4331
▁sindUra	-10.4331
▁tuzwuvuH	-10.4331
▁vESvAnara	-10.4331
▁viBUzaR	-10.4331
▁vinDya	-10.4331
▁viniScit	-10.4331
▁durmatiH	-10.4331
▁grasate	-10.4331
▁mArdav	-10.4331
▁parityAg	-10.4331
▁apaSyan	-10.4331
▁dahet	-10.4331
▁balIyasA	-10.4331
▁sAkzI	-10.4331
▁syandan	-10.4331
▁srotasA	-10.4331
▁SaSva	-10.4331
▁pulin	-10.4331
▁AlAp	-10.4331
▁durmate	-10.4331
▁fc	-10.4331
▁amBaH	-10.4331
▁avApa	-10.4331
▁ananya	-10.4332
▁praSAs	-10.4332
▁koR	-10.4332
▁aSok	-10.4332
▁avimukt	-10.4332
▁nirBay	-10.4332
▁hantavy	-10.4333
▁nirAhAr	-10.4334
▁sAntv	-10.4336
▁Kalve	-10.4336
viveSa	-10.4338
▁kardama	-10.4338
▁tritaya	-10.4339
▁yUz	-10.434
▁apaSyam	-10.434
▁Cinn	-10.4342
▁kalaha	-10.4345
▁pfcCati	-10.4351
▁Danvantari	-10.4353
▁SoDana	-10.4357
▁tApasa	-10.436
▁mantrAH	-10.4364
▁dravyARAm	-10.4368
▁vfttayaH	-10.4369
▁sEnikAH	-10.437
▁kazAyA	-10.4371
▁grAhyaH	-10.4374
▁tantu	-10.4376
▁SarmizWA	-10.4377
▁kAray	-10.4378
Bram	-10.4382
▁Bavantu	-10.4383
▁skanDa	-10.439
▁jayadraTam	-10.4391
▁Cidr	-10.4392
▁jah	-10.4393
▁arcana	-10.4393
▁niyatA	-10.4395
▁dfk	-10.4404
▁catas	-10.4409
▁Una	-10.441
▁rakzasA	-10.4411
▁hanta	-10.4413
Bavam	-10.4414
AsaH	-10.4423
▁gAnDarva	-10.4428
▁SvaSura	-10.4429
▁kUrma	-10.4434
▁rAkzasEH	-10.4435
▁miSr	-10.4436
▁jyotizA	-10.4443
▁AdeS	-10.4449
▁gAyan	-10.4455
▁mahiz	-10.4466
▁narendr	-10.4466
▁tAl	-10.4467
▁kAntA	-10.4468
▁vitat	-10.4473
▁sevyam	-10.4477
▁cyavan	-10.4479
▁dEvata	-10.448
▁prakAra	-10.4484
▁nakzatr	-10.4487
▁kuRqala	-10.4513
▁jvalant	-10.4514
▁puMs	-10.4517
▁vyaT	-10.452
▁lajjA	-10.4521
astAt	-10.4521
▁jAnA	-10.4522
▁gotra	-10.4532
▁indriyAR	-10.454
▁manAH	-10.4541
▁roza	-10.4543
BavaH	-10.4551
▁pralay	-10.4552
hAsa	-10.4555
▁utsava	-10.4558
▁vAlin	-10.4568
▁ikzvAk	-10.4571
▁muRq	-10.4571
vfkzaH	-10.458
▁anty	-10.46
▁vikramAH	-10.4601
▁vijYAn	-10.4602
▁purIzam	-10.4611
▁kAmAnAm	-10.4616
▁pfcCAm	-10.462
▁rata	-10.4625
▁BUmipa	-10.4635
▁ayaH	-10.4645
▁sTir	-10.4645
zwum	-10.4659
▁DyAn	-10.4682
▁ErAvata	-10.4688
▁SaraRya	-10.4688
▁Sulva	-10.4688
▁aSrOzam	-10.4688
▁avatizWate	-10.4688
▁biBarti	-10.4688
▁gacCAmi	-10.4688
▁gadgada	-10.4688
▁grIzme	-10.4688
▁nAhuza	-10.4688
▁tarasvin	-10.4688
▁uvAsa	-10.4688
▁viDO	-10.4688
▁yodDu	-10.4688
▁GAtin	-10.4688
▁bodDavy	-10.4688
▁ekArRav	-10.4688
▁jANgal	-10.4688
▁vaktA	-10.4688
▁vyavasTA	-10.4688
▁kurUn	-10.4688
▁lipyate	-10.4688
▁Brazwa	-10.4688
▁amlavarg	-10.4688
▁kuryuH	-10.4688
▁prasakt	-10.4688
▁upapatt	-10.4688
▁aBiyukt	-10.4688
▁taTy	-10.4688
▁gfhARa	-10.4688
cirAt	-10.4688
▁viSiK	-10.4688
▁anuSoc	-10.4688
▁apoh	-10.4688
▁anAry	-10.4688
▁pallav	-10.4689
▁lamb	-10.4689
▁upadiSyate	-10.4689
▁pavitrA	-10.469
▁gOravam	-10.469
▁yuDyamAna	-10.469
▁vinyaset	-10.4691
▁juhuyA	-10.4692
▁parvaRi	-10.4692
▁prakftayaH	-10.4694
▁rakzasaH	-10.4696
▁vfttAnt	-10.4698
▁parvasu	-10.4699
▁pratihat	-10.47
▁viSada	-10.47
▁pravartante	-10.4701
▁nO	-10.4702
▁karmARam	-10.4704
▁viBram	-10.4704
▁kasmin	-10.4705
▁apeta	-10.4708
▁svakam	-10.4709
▁yAcit	-10.4713
▁yAsyAm	-10.4714
▁cAraRa	-10.4715
▁gfhyate	-10.4715
▁hemn	-10.472
▁prAyAt	-10.4723
▁azwaDA	-10.4723
▁udaye	-10.4726
▁jAnanti	-10.4726
▁DUpa	-10.4741
▁pratyay	-10.4741
▁janeSvara	-10.4742
▁kopan	-10.4742
▁pradeS	-10.4746
▁parjanyaH	-10.4747
▁vijAnIy	-10.4748
▁satkAra	-10.4751
▁snigDA	-10.4752
▁SarIreRa	-10.4753
▁nirgat	-10.4754
▁piNgala	-10.4754
▁grIvA	-10.4754
▁vftA	-10.4757
▁hAra	-10.4762
▁svarg	-10.4763
▁AScarya	-10.4764
▁sambanDi	-10.4772
▁Iz	-10.4795
▁aBimany	-10.4802
▁vayasA	-10.4805
▁piSAca	-10.4805
▁divAkara	-10.4805
▁locana	-10.4807
▁niyant	-10.4813
▁nandan	-10.4814
▁jara	-10.4818
▁Bikzu	-10.482
▁AsAm	-10.4821
▁gatAn	-10.4826
▁mAnin	-10.4827
▁pUti	-10.4827
▁dAya	-10.4828
▁kfp	-10.4843
▁antya	-10.4844
▁roz	-10.4846
▁akzaraH	-10.4853
▁pAlana	-10.486
▁akzayA	-10.4863
▁vany	-10.4864
▁yaSasA	-10.4866
▁gotr	-10.4891
▁naBas	-10.4907
▁ekEka	-10.4911
▁prasTa	-10.4914
▁tftIy	-10.4915
▁vavr	-10.4922
waka	-10.4922
▁AvaraRa	-10.4923
▁azwame	-10.4925
▁samudrAH	-10.4929
▁sevitA	-10.4934
▁dAru	-10.4941
▁uBaya	-10.4957
▁kapot	-10.4959
▁pfT	-10.4971
▁duzwA	-10.4983
kurvan	-10.5008
▁dugDa	-10.5011
▁apsara	-10.503
▁BUriSrav	-10.5035
▁ambar	-10.5036
yuYjIta	-10.5047
▁marday	-10.5054
▁varjay	-10.5056
▁SuBAn	-10.5056
dudruvuH	-10.5058
▁SreyAn	-10.5058
▁aDidEvatam	-10.5058
▁anvicC	-10.5058
▁avasId	-10.5058
▁dAnavEH	-10.5058
▁drOpadyA	-10.5058
▁hiraRmay	-10.5058
▁jajYire	-10.5058
▁kukkuwa	-10.5058
▁laNGana	-10.5058
▁napuMsak	-10.5058
▁prajApatim	-10.5058
▁sTARu	-10.5058
▁svAyamBuva	-10.5058
▁viDIyatAm	-10.5058
▁anirudD	-10.5058
▁asADu	-10.5058
▁harItakI	-10.5058
▁meGA	-10.5058
▁saMhitA	-10.5058
▁vivikt	-10.5058
▁upaspfSya	-10.5058
▁prasahya	-10.5058
▁pratIkAS	-10.5058
▁pravekzy	-10.5058
▁upatizWa	-10.5058
▁AtmikA	-10.5058
▁SlokO	-10.5058
▁darB	-10.5058
▁pratyapadya	-10.5058
▁utpala	-10.5058
▁vicaran	-10.5058
▁AvayoH	-10.5059
▁cEtr	-10.5059
▁vakzyAmaH	-10.5059
▁ambA	-10.5059
▁antike	-10.5059
▁sagara	-10.5059
▁nimba	-10.5059
▁viDAya	-10.5059
▁vyatIt	-10.5059
▁samfdDa	-10.5059
▁sureSvara	-10.5059
▁dAyin	-10.506
▁kulatT	-10.506
▁ADAra	-10.506
▁siDyanti	-10.506
▁atiTiH	-10.5062
▁pravartak	-10.5062
▁azwaguR	-10.5063
▁rUpiRI	-10.5064
▁makara	-10.5064
▁dfzwavAn	-10.5064
▁plavaga	-10.5065
▁vikrAnt	-10.5065
▁dAsyati	-10.5066
▁Oras	-10.5066
▁prIyat	-10.5068
▁avamanya	-10.5068
▁Sarma	-10.507
▁pakziRAm	-10.507
▁udBUt	-10.507
▁vandit	-10.5073
▁BaNga	-10.5073
▁parityajet	-10.5074
▁Adidev	-10.5074
▁uSanas	-10.5077
▁sAmAny	-10.5079
▁tanU	-10.5081
▁vartin	-10.5086
▁hrad	-10.509
vantaH	-10.5091
▁arTinaH	-10.5091
▁ASi	-10.5097
▁capala	-10.5097
▁CAy	-10.5104
▁budDvA	-10.5105
▁saritA	-10.5107
▁carant	-10.5114
▁arjan	-10.5118
▁SitA	-10.5118
▁mUQ	-10.512
▁arizw	-10.5121
▁gAruqe	-10.5122
▁kaTayanti	-10.5126
▁AgacCat	-10.5127
▁tElena	-10.5128
▁vyajan	-10.513
▁rajasA	-10.513
▁amarzaR	-10.5132
▁tarpaRam	-10.5144
▁viDAna	-10.5149
▁BUzaRa	-10.5151
▁kaliNg	-10.5151
▁SItA	-10.5152
▁sukft	-10.5158
▁sutO	-10.5166
▁kOravAH	-10.5166
ketuH	-10.5172
▁ambare	-10.5181
▁nandin	-10.5182
▁pannagAH	-10.5193
▁paYcakam	-10.5194
▁mAnada	-10.5196
▁kartavy	-10.5197
▁udumbara	-10.5201
▁AdyA	-10.5202
▁BAzit	-10.5208
▁Srotriy	-10.5211
▁sEnyasya	-10.5212
▁daDA	-10.5213
▁BAvAnAm	-10.5213
▁kapAl	-10.5214
yantr	-10.5218
▁Kaga	-10.5218
▁kArI	-10.522
▁viniScaya	-10.5221
▁nAradasya	-10.5226
▁AramB	-10.5229
▁dAntA	-10.5233
▁kftajY	-10.5235
▁pAyu	-10.5235
▁etasm	-10.5238
▁ajita	-10.5252
▁nAmA	-10.526
▁ASaya	-10.526
ande	-10.5263
▁hiraRyakaSipu	-10.5271
▁anuttam	-10.5272
▁saMskAr	-10.5274
▁mADav	-10.5275
▁SrAdD	-10.5275
▁vakra	-10.5281
▁upamAn	-10.5284
▁peya	-10.5286
▁mfgayA	-10.5287
▁viSvAmitr	-10.5292
▁tizWant	-10.5292
▁varzati	-10.5296
▁pUjan	-10.5296
▁mahArhAR	-10.5296
▁vaktavy	-10.5299
▁praBft	-10.5301
▁prayok	-10.5315
▁prasannA	-10.5321
yU	-10.5324
▁nakzatrAR	-10.5341
▁mandA	-10.5345
▁haray	-10.5357
▁sADyA	-10.5359
▁prasann	-10.5361
▁rakzy	-10.5365
vAlI	-10.5368
▁DArayat	-10.5389
▁kand	-10.5391
▁aha	-10.5391
garBa	-10.5391
▁pARqUn	-10.5394
▁varcasA	-10.5402
▁abda	-10.5404
▁hIne	-10.5412
▁BuYj	-10.5414
▁vraj	-10.542
▁mady	-10.5442
▁SArad	-10.5443
▁catvAriMSat	-10.5443
▁dAqima	-10.5443
▁hutvA	-10.5443
▁kEvalya	-10.5443
▁krimi	-10.5443
▁lokapitAmaha	-10.5443
▁nyagroDa	-10.5443
▁pradyumn	-10.5443
▁snuzA	-10.5443
▁sukumAr	-10.5443
▁Sulka	-10.5443
▁amBasi	-10.5443
▁balAhak	-10.5443
▁mukuw	-10.5443
▁viBajya	-10.5443
▁vivakz	-10.5443
▁vizRave	-10.5443
▁nAwya	-10.5443
▁praSasta	-10.5443
▁sAgare	-10.5443
▁ahorAtr	-10.5443
▁aSudD	-10.5443
▁kumuda	-10.5443
▁Uzma	-10.5443
▁Sukt	-10.5443
▁vfnd	-10.5443
▁nyasya	-10.5443
▁upapannA	-10.5443
▁veditum	-10.5443
▁AvahA	-10.5443
▁smaret	-10.5443
▁aSIti	-10.5443
▁viSvakarmaR	-10.5443
▁ASOc	-10.5443
▁Pena	-10.5444
▁viSvakarmA	-10.5444
▁BUmeH	-10.5444
▁trARa	-10.5444
▁BAjanam	-10.5444
▁ASIviz	-10.5444
▁ajYAnam	-10.5445
▁sakalA	-10.5445
DvaMs	-10.5445
▁bAhU	-10.5446
▁karuRa	-10.5446
▁nirAmay	-10.5446
▁imAH	-10.5447
▁prARaBft	-10.5448
▁pAyas	-10.5448
▁daSaguR	-10.5448
▁aDiBUt	-10.5449
▁samavet	-10.5449
▁nirAS	-10.5449
▁vrAt	-10.545
▁Bidyate	-10.5451
▁pravadant	-10.5452
▁aDipatay	-10.5452
▁vfzaBa	-10.5452
▁BOm	-10.5454
▁jAnIyAt	-10.5455
▁AnanA	-10.5457
▁viSvarUp	-10.5459
▁Bujaga	-10.546
▁Uh	-10.5461
▁Sakft	-10.5462
▁SarIriRAm	-10.5464
▁yozitAm	-10.5469
▁puraH	-10.5471
▁praRay	-10.5475
▁japya	-10.5476
▁asurEH	-10.5484
▁Sukr	-10.5484
▁anyatara	-10.5486
▁gurO	-10.5489
▁dravati	-10.549
▁akzat	-10.5491
▁kzayAt	-10.5492
▁paryupAsat	-10.5495
▁paruz	-10.5507
▁lalAw	-10.5522
▁udyat	-10.553
▁SuklatIrT	-10.5532
▁OzaDEH	-10.5541
▁rAw	-10.5544
▁nigraha	-10.5552
▁Bedena	-10.5559
▁Bavit	-10.556
▁pitAmahAH	-10.5563
▁upakram	-10.5565
▁SakyA	-10.5569
▁rogiR	-10.5579
▁pAdapa	-10.5587
▁vakzy	-10.5602
▁drupad	-10.5604
▁rAmAya	-10.5615
▁Cin	-10.5617
▁Ardraka	-10.5617
▁sudarSana	-10.5624
▁amAtya	-10.5637
▁raktA	-10.564
▁vAmana	-10.5642
▁meKalA	-10.5648
▁paYcaviMSat	-10.5651
▁prAdrava	-10.5654
▁kawukA	-10.5654
▁devarz	-10.5662
▁viraj	-10.5668
▁rama	-10.5671
▁tizWan	-10.5672
▁pAvak	-10.5673
▁viBA	-10.5677
AyuDaH	-10.568
▁gavy	-10.5684
▁pradAya	-10.5689
▁duzkft	-10.5699
▁mAhAtmy	-10.57
▁Bezaja	-10.571
▁sItAyA	-10.5722
▁kzipan	-10.5776
▁niSAcara	-10.5782
▁AraRy	-10.5786
▁gagan	-10.5788
dvIp	-10.5799
▁vfk	-10.5801
pfzW	-10.5812
▁paSUn	-10.5814
▁avan	-10.5815
▁svADyAy	-10.5823
▁ucca	-10.5826
▁prARin	-10.5831
▁moda	-10.5839
▁juh	-10.5839
▁vipat	-10.584
bind	-10.5842
IBavati	-10.5843
aviDyat	-10.5843
▁jaNG	-10.5843
▁kuNkuma	-10.5843
▁nEmiz	-10.5843
▁nEvedy	-10.5843
▁pravfdDa	-10.5843
▁sObalaH	-10.5843
▁veRu	-10.5843
▁vihvala	-10.5843
▁Ball	-10.5843
▁brahmacAriRaH	-10.5843
▁mudrA	-10.5843
▁nEzWik	-10.5843
▁cedi	-10.5843
▁samIraRa	-10.5843
▁aSnIyAt	-10.5843
▁valkala	-10.5843
▁lIlA	-10.5843
▁upAdAna	-10.5843
▁yuDA	-10.5843
▁apavarga	-10.5843
▁srut	-10.5843
▁prezy	-10.5843
▁kuryAm	-10.5843
▁nirarT	-10.5843
▁palASa	-10.5843
▁Ajag	-10.5843
▁menire	-10.5843
▁svalpa	-10.5843
▁pibat	-10.5843
▁dvitIyA	-10.5844
▁avidyA	-10.5844
▁ruj	-10.5844
▁vidrut	-10.5845
▁pUrRA	-10.5845
▁veditavy	-10.5846
▁samAsTit	-10.5846
▁sAraTim	-10.5846
▁antarAtmA	-10.5846
▁apakarza	-10.5846
▁BAgavat	-10.5847
▁stav	-10.5847
▁anir	-10.5847
▁nikzipet	-10.5849
▁vinASinI	-10.585
▁vAjinAm	-10.585
▁stotr	-10.5851
▁lakzmyA	-10.5851
▁niyacCati	-10.5851
▁parvatAH	-10.5852
▁pfTivIpate	-10.5853
▁svaras	-10.5853
▁mahAmanAH	-10.5854
▁uddeSa	-10.5856
jahAra	-10.5857
▁jYAtayaH	-10.5859
raRO	-10.5863
▁brahmacaryeRa	-10.5867
▁tAlu	-10.5869
▁gATA	-10.5874
▁gOrI	-10.5875
▁pUya	-10.5877
▁janmanA	-10.5879
▁daSan	-10.5883
▁aDyakz	-10.5885
▁BaraR	-10.5885
▁vidyAnAm	-10.5887
avas	-10.5891
▁pUjayant	-10.5894
▁vasti	-10.5896
▁puRyatam	-10.5898
▁vedya	-10.5901
▁nASAya	-10.5901
▁rakzet	-10.5903
▁kopAt	-10.5907
▁sadana	-10.5908
▁Danad	-10.5917
▁yantre	-10.5917
▁AvAsa	-10.5922
▁du	-10.5924
▁dvijAnAm	-10.5924
▁BAvyam	-10.5929
▁akAra	-10.5931
▁gatO	-10.5935
▁sUtakam	-10.5938
gfhRan	-10.594
▁snehAt	-10.5944
▁vESyA	-10.5945
▁ambuja	-10.5954
▁gurUR	-10.5971
▁vipula	-10.5977
▁akzar	-10.5989
smAt	-10.5998
▁pAra	-10.6002
▁prakop	-10.6014
▁kovidAH	-10.6018
▁kalaS	-10.6022
▁sakta	-10.6023
▁guhyak	-10.6036
▁vAsin	-10.6037
▁pratipatti	-10.604
▁bruvan	-10.6045
▁kadamba	-10.6047
▁prajYa	-10.6047
▁nimeza	-10.6052
▁virudD	-10.6057
▁aDyayan	-10.6058
▁brahmaRy	-10.607
▁vijan	-10.6075
▁vimalA	-10.6082
▁yAjana	-10.6091
▁brahmacary	-10.6092
▁vfkodar	-10.6107
▁aparAjit	-10.611
▁ayut	-10.6116
▁prayojan	-10.6116
▁ark	-10.612
▁palita	-10.6128
▁kzay	-10.6132
▁sTirA	-10.6151
▁SaNK	-10.6156
▁rAzwra	-10.616
▁AdIn	-10.6161
▁madr	-10.6167
▁ambud	-10.6174
▁vilAs	-10.6202
SfNga	-10.6209
▁nAB	-10.6211
▁vadata	-10.625
▁SrUy	-10.6253
drumaH	-10.6255
▁bravI	-10.6255
pedire	-10.6257
▁dyut	-10.6257
▁kUpa	-10.6258
▁SakuntalA	-10.626
▁atandritaH	-10.626
▁atikrAnt	-10.626
▁aviroD	-10.626
▁cAturvarRya	-10.626
▁dvijasattamA	-10.626
▁dviviDA	-10.626
▁jAmadagny	-10.626
▁nirdagD	-10.626
▁paWan	-10.626
▁parityakta	-10.626
▁puzkal	-10.626
▁rAjIva	-10.626
▁smArta	-10.626
▁spazwam	-10.626
▁sumantra	-10.626
▁vAYCa	-10.626
▁vArARasyA	-10.626
▁vaRik	-10.626
▁amAnuz	-10.626
▁ekAdaSa	-10.626
▁kIcak	-10.626
▁mAtali	-10.626
▁gardaB	-10.626
▁majjA	-10.626
▁jantavaH	-10.626
pratizeDaH	-10.626
▁ramBA	-10.626
▁jantoH	-10.626
▁devAsure	-10.626
▁brahmarzi	-10.626
▁kirAt	-10.626
▁vAnarAn	-10.626
▁ojaH	-10.626
▁paricArak	-10.626
▁viyog	-10.626
▁prakAreRa	-10.626
▁grasta	-10.626
▁trivarg	-10.626
▁trastA	-10.626
▁sampadA	-10.626
▁DyAyant	-10.6261
▁bfhaspateH	-10.6261
▁Bagadatt	-10.6262
▁ajIrR	-10.6262
▁sAraTiH	-10.6262
▁AtTa	-10.6262
▁utkarza	-10.6263
▁mOna	-10.6263
▁nivarta	-10.6263
▁ajire	-10.6264
▁baBA	-10.6264
▁spfSet	-10.6267
▁talpa	-10.6268
▁amanyata	-10.6269
▁kavay	-10.6271
▁draviRa	-10.6271
▁durAtmA	-10.6274
▁pariplut	-10.6275
▁vinAyak	-10.6275
▁sevate	-10.6277
▁nilay	-10.6278
▁nAla	-10.6279
▁kartr	-10.6281
▁asurAn	-10.6288
▁nayet	-10.6289
▁BuYjAna	-10.629
▁tapati	-10.6291
▁anuBUt	-10.6292
▁atisAr	-10.6296
▁sAtvat	-10.63
▁Palgun	-10.6304
▁vahninA	-10.631
▁arjunena	-10.6315
▁dAhe	-10.6316
▁rocana	-10.632
▁yAsyant	-10.6328
▁pUjyamAn	-10.633
▁arjun	-10.6339
▁jAnu	-10.6343
▁mAtrayA	-10.6356
▁aByaNga	-10.6361
mard	-10.6378
▁vismitAH	-10.6378
▁jalada	-10.6378
▁sOra	-10.6381
▁darp	-10.6384
▁piSAc	-10.6386
▁mAnDAt	-10.6388
▁utsAha	-10.6398
▁vyAla	-10.6404
▁vfkzAn	-10.6406
▁praBAvAt	-10.6413
▁AvaraR	-10.6416
SatroH	-10.6416
▁piSAcA	-10.6425
▁yatamAn	-10.6439
fzwaH	-10.6441
priyaH	-10.6442
▁Sloka	-10.6445
▁praBAt	-10.6446
▁sAhasra	-10.6453
▁lajj	-10.6459
ArTa	-10.6468
ottar	-10.6469
caret	-10.6474
▁AdityA	-10.6485
asyE	-10.6487
▁Sakno	-10.6495
sTit	-10.6507
▁yozit	-10.6513
▁udar	-10.6528
▁harita	-10.6529
▁Bavizyat	-10.654
pAd	-10.6548
▁nikzipta	-10.655
▁dUzaR	-10.655
▁DftarAzwr	-10.6552
▁upatasT	-10.6564
▁vinaya	-10.6577
▁yuj	-10.6586
▁krudDA	-10.6621
izyaTa	-10.6628
▁parokza	-10.6632
▁gaNgAyA	-10.6643
▁cetan	-10.6647
▁sAtvata	-10.6653
▁vimucya	-10.6683
▁prakzip	-10.669
▁anuSAs	-10.6691
▁saMy	-10.6691
▁zaq	-10.6694
▁SArNga	-10.6694
viviSuH	-10.6694
▁BraMSa	-10.6694
▁ESvaram	-10.6694
▁SfRvatAm	-10.6694
▁SvayaTu	-10.6694
▁aGa	-10.6694
▁anasUy	-10.6694
▁dakziREH	-10.6694
▁dvED	-10.6694
▁jYAyate	-10.6694
▁jagAda	-10.6694
▁kaRvaH	-10.6694
▁krIqant	-10.6694
▁mucyante	-10.6694
▁narADipA	-10.6694
▁pravrajit	-10.6694
▁sAgarAH	-10.6694
▁saMvartaH	-10.6694
▁taptaKalve	-10.6694
▁taskar	-10.6694
▁viGAt	-10.6694
▁visfjan	-10.6694
▁vrIhi	-10.6694
▁vyUQ	-10.6694
▁apUjayan	-10.6694
▁avaSez	-10.6694
▁vinirmit	-10.6694
▁Sucay	-10.6694
▁aNkur	-10.6694
▁bimb	-10.6694
▁manmaTa	-10.6694
▁toraR	-10.6694
▁triSUl	-10.6694
▁jvalat	-10.6694
▁vAnaprasT	-10.6694
▁anuloma	-10.6694
▁daDIca	-10.6694
▁sikta	-10.6694
▁tAvakAn	-10.6694
▁pratilom	-10.6694
▁Kecara	-10.6695
▁guha	-10.6695
▁avaDIt	-10.6695
▁SEva	-10.6695
▁sArasvat	-10.6695
▁kartf	-10.6695
▁aBirakzit	-10.6695
▁Bavitavyam	-10.6695
▁DOmy	-10.6695
▁hiraRyagarB	-10.6696
▁samAcara	-10.6696
▁lips	-10.6697
▁nASinI	-10.6697
▁AvahaH	-10.6697
▁pAnIyam	-10.6697
▁anuvftt	-10.6698
▁upasev	-10.6698
▁karpUra	-10.6698
▁sItayA	-10.6698
▁samudBUt	-10.6698
▁prasft	-10.67
▁cakravAk	-10.6701
▁kaNka	-10.6702
▁niSAkar	-10.6703
▁vidviz	-10.6703
▁rUpiRaH	-10.6704
▁ADAr	-10.6705
▁vAjinaH	-10.6706
▁kzamaH	-10.671
▁samAcAr	-10.6711
▁udyatA	-10.6712
▁uttamAn	-10.6713
▁nemi	-10.6714
▁kzAtr	-10.6719
▁uttame	-10.6721
▁hayEH	-10.673
▁vAsinAm	-10.6737
▁hartA	-10.674
▁kfpaRA	-10.674
▁anayoH	-10.674
▁saptamaH	-10.6742
▁antargat	-10.6744
▁paNkti	-10.6751
▁virUpa	-10.6753
▁Socant	-10.6758
▁sinDu	-10.677
▁Amra	-10.6772
▁SAlva	-10.6793
▁kvATa	-10.68
▁praSAnta	-10.6811
▁dvizatA	-10.6814
▁manyamAna	-10.6821
▁BAsa	-10.6823
▁narmadAyA	-10.6839
▁aDara	-10.684
▁pAYcAla	-10.6876
▁viSAla	-10.689
▁sTAvarAR	-10.6891
▁iz	-10.6894
▁yazw	-10.69
▁vyADit	-10.6903
ivAn	-10.6907
▁bruvant	-10.6923
▁yaSas	-10.6926
vfkz	-10.6946
▁svasT	-10.6951
▁arTinA	-10.6963
▁pradAyaka	-10.6968
▁pitry	-10.6991
rURAm	-10.6993
▁vicakzaR	-10.6997
▁anek	-10.7004
▁prAYjal	-10.7016
▁ez	-10.7017
raRAya	-10.7026
▁bahulA	-10.7048
▁biB	-10.7052
▁avoca	-10.7063
▁vaSya	-10.7075
▁Bajat	-10.709
▁BAziR	-10.709
lakzaRam	-10.71
mUrtaye	-10.7102
▁nipat	-10.7109
▁pet	-10.7117
▁DIra	-10.7118
▁kfpA	-10.7124
▁upayujya	-10.7132
▁sTAsy	-10.7138
▁cikIrza	-10.7149
▁avijYAt	-10.7149
iYcA	-10.7149
▁AByantara	-10.7149
▁AnupUrvy	-10.7149
▁SibiH	-10.7149
▁Sigru	-10.7149
▁SmaSru	-10.7149
▁SrotA	-10.7149
▁aBizecan	-10.7149
▁ayuDy	-10.7149
▁brUyuH	-10.7149
▁cakzuzI	-10.7149
▁ekaviMS	-10.7149
▁gamizyasi	-10.7149
▁maRqUka	-10.7149
▁nAstik	-10.7149
▁niruDya	-10.7149
▁nyavasa	-10.7149
▁prAviSat	-10.7149
▁prahlAda	-10.7149
▁raktapitt	-10.7149
▁samutpat	-10.7149
▁srazwA	-10.7149
▁taqAg	-10.7149
▁trElokye	-10.7149
▁ucCvAsa	-10.7149
▁upadrava	-10.7149
▁utPulla	-10.7149
▁utsarg	-10.7149
▁vareRy	-10.7149
▁vinirdiSet	-10.7149
▁eraRqa	-10.7149
▁hetave	-10.7149
▁vfzRayaH	-10.7149
▁kuntyA	-10.7149
▁vArzik	-10.7149
▁viKyAtA	-10.7149
▁prAptO	-10.7149
▁pradIyate	-10.7149
▁sPIt	-10.7149
▁avalamb	-10.7149
▁diSA	-10.7149
▁vArttA	-10.7149
▁aBiBUya	-10.7149
▁udyog	-10.7149
▁upetya	-10.7149
▁darSanIy	-10.7149
▁kimarTam	-10.7149
▁hriyamAR	-10.7149
▁sarpizA	-10.7149
▁zaqguR	-10.7149
▁vinyas	-10.7149
▁divA	-10.715
▁kubj	-10.715
▁stuvant	-10.715
▁anizw	-10.715
▁paripAlan	-10.715
▁cikitsitam	-10.715
▁avApsyasi	-10.7151
▁viSrAnt	-10.7151
▁sADane	-10.7152
hrAd	-10.7152
▁kUp	-10.7152
▁odana	-10.7153
▁procyate	-10.7153
▁niDim	-10.7154
▁akzayy	-10.7154
▁vyaTitA	-10.7154
▁avaSizw	-10.7155
▁nivAsinaH	-10.7155
▁madIy	-10.7156
▁Bej	-10.7157
▁tarhi	-10.7157
▁nivartante	-10.7159
▁samakzam	-10.716
▁BAratI	-10.716
▁dvijAtiBiH	-10.7162
▁bADate	-10.7163
▁tfzA	-10.7164
▁lIna	-10.7167
▁nirft	-10.7168
janma	-10.7168
▁supta	-10.7171
AhAr	-10.7174
▁nadInAm	-10.7175
▁SiSuH	-10.7178
▁tapasvinAm	-10.7178
▁klama	-10.7178
▁smarati	-10.7179
▁izuBiH	-10.7182
▁arjunO	-10.7184
▁pratikUl	-10.719
▁fziRA	-10.7193
▁prasIdati	-10.7197
SirAH	-10.7198
▁tizWataH	-10.7199
▁gfhARi	-10.7202
▁SaraBa	-10.7209
▁vikalp	-10.7219
▁kavya	-10.722
▁ftO	-10.7222
▁AdyaH	-10.7228
▁praRAma	-10.7231
▁udBavA	-10.7233
▁jAtayaH	-10.7242
▁SamBunA	-10.7248
▁paTya	-10.7254
▁SAlA	-10.7293
▁ekEk	-10.7294
▁din	-10.7321
▁mudgara	-10.7341
▁kOntey	-10.7362
▁utsav	-10.7382
▁ESvary	-10.7401
▁sArasa	-10.7404
▁vfzw	-10.7412
▁aBav	-10.7447
▁sattr	-10.7449
▁Bavizy	-10.7461
▁nityA	-10.7469
▁viSudDA	-10.7469
▁milit	-10.7474
▁marIc	-10.7479
▁mUrDa	-10.7493
▁saptame	-10.7497
▁praSAnt	-10.7499
▁AgAra	-10.7499
▁pAlak	-10.7501
▁Darmy	-10.7519
▁adBut	-10.7519
▁stan	-10.752
▁apahAr	-10.7524
▁DAraya	-10.7529
▁SoDan	-10.7531
tArakam	-10.7552
▁roc	-10.756
▁cintayat	-10.7561
karmaRi	-10.7575
Dyakza	-10.7575
▁prAjYa	-10.7577
▁brUyA	-10.7597
▁Bikzuk	-10.7599
▁bfhad	-10.7609
▁dvijAti	-10.762
fRomi	-10.7625
▁Boktu	-10.7625
▁Endr	-10.7625
▁Srotavya	-10.7625
▁amoGa	-10.7625
▁aprApt	-10.7625
▁bAnDava	-10.7625
▁baDyate	-10.7625
▁cEtany	-10.7625
▁kArtavIrya	-10.7625
▁kaYcuk	-10.7625
▁mlecCa	-10.7625
▁prepsu	-10.7625
▁sAmarTya	-10.7625
▁saMSoDan	-10.7625
▁saMvit	-10.7625
▁samanuprApt	-10.7625
▁sambadD	-10.7625
▁suSroR	-10.7625
▁udgITaH	-10.7625
▁udvigna	-10.7625
▁urvaSI	-10.7625
▁vepaT	-10.7625
▁zazwyA	-10.7625
▁Kadira	-10.7625
▁vicinv	-10.7625
▁vyavasit	-10.7625
▁ayog	-10.7625
▁maRqapa	-10.7625
▁tAvakAH	-10.7625
▁mUlamantr	-10.7625
▁kaluza	-10.7625
▁samBrAnta	-10.7625
▁prasaNgAt	-10.7625
▁niraYjan	-10.7625
▁rakzitum	-10.7625
▁sammatam	-10.7625
▁pArSve	-10.7625
▁apramAd	-10.7625
▁drute	-10.7625
▁DAraRe	-10.7625
▁udvega	-10.7625
▁SrOta	-10.7625
▁SiKaRqinam	-10.7625
▁hayameD	-10.7625
▁havizA	-10.7625
▁SaSI	-10.7625
▁sugamam	-10.7626
▁tApasAH	-10.7626
▁prekzamAR	-10.7626
▁damanaka	-10.7626
▁hanyamAn	-10.7626
▁aByuday	-10.7626
▁smite	-10.7627
▁pramaT	-10.7627
▁bravIhi	-10.7627
▁sAtyakim	-10.7627
▁Bartr	-10.7628
▁gomaya	-10.7628
▁Candasi	-10.7629
▁upaSama	-10.763
▁vyast	-10.7631
▁geh	-10.7632
▁gamyatAm	-10.7633
▁vidaDyAt	-10.7634
▁varzAsu	-10.7636
▁mayEH	-10.7636
▁tvadIy	-10.7637
▁hftA	-10.7637
▁vApI	-10.7639
vahaH	-10.7639
▁duhitara	-10.7641
▁viSoDan	-10.7641
▁haritAl	-10.7648
▁budDayaH	-10.7649
▁gAtrARi	-10.7649
naKa	-10.7649
▁viSizwA	-10.7651
▁pitfBy	-10.7653
▁evaMviDa	-10.7656
▁ArAma	-10.7656
▁carAmi	-10.766
▁pratijYAtam	-10.7662
▁sAmnA	-10.7663
▁arS	-10.7665
▁ambunA	-10.7682
Bidya	-10.7683
▁dugD	-10.7686
▁satata	-10.7694
▁stamBana	-10.7706
▁sahasrAkz	-10.7712
▁avocat	-10.7716
▁timira	-10.7724
▁vyarT	-10.7724
▁valla	-10.7724
toza	-10.7753
▁kapota	-10.7754
▁vyaTita	-10.7758
▁kabanDa	-10.7758
▁anukram	-10.777
▁anyatama	-10.7771
▁Gnant	-10.7774
▁aNgArak	-10.7781
▁lohit	-10.7812
patay	-10.7812
▁niraya	-10.7814
▁paSupati	-10.784
▁BArate	-10.7841
hast	-10.7847
▁vastrAR	-10.7856
▁samudyat	-10.7861
▁BEkza	-10.7865
▁tArakA	-10.7866
▁paRqita	-10.7872
▁patnyA	-10.7879
▁viduz	-10.7894
▁dadat	-10.7897
▁mudita	-10.7899
▁Bavizya	-10.79
▁vihitA	-10.7907
▁prayujya	-10.7915
▁jYey	-10.792
▁japan	-10.7921
nandana	-10.7937
▁rAS	-10.7939
▁dASArha	-10.7962
▁pradakziR	-10.7967
▁udAr	-10.7971
▁puRqarIka	-10.7974
▁asidD	-10.7974
▁viBava	-10.7976
▁virecan	-10.7981
▁duzkar	-10.7982
poza	-10.7988
▁prayacC	-10.7994
▁aByaNg	-10.8004
▁prokt	-10.8005
▁vrajant	-10.8014
▁viparyaya	-10.8032
▁pramatta	-10.804
▁jyot	-10.804
▁kAvy	-10.8041
brahma	-10.8075
paYcakam	-10.8079
▁tapasvin	-10.808
▁aBizek	-10.8092
▁sIt	-10.8095
BaNg	-10.8106
▁sAtyak	-10.8121
dravat	-10.8123
▁Gna	-10.8124
▁GaRwA	-10.8125
▁parijYA	-10.8125
Acandra	-10.8125
▁Bokzy	-10.8125
▁GfR	-10.8125
▁KARqava	-10.8125
▁SfRvataH	-10.8125
▁SrAvaR	-10.8125
▁brUta	-10.8125
▁cakzuzaH	-10.8125
▁gavAkz	-10.8125
▁kzuDit	-10.8125
▁nandikeSvaraH	-10.8125
▁nyUna	-10.8125
▁pUruz	-10.8125
▁paWat	-10.8125
▁priyaMvad	-10.8125
▁raNga	-10.8125
▁sPow	-10.8125
▁saMvartaka	-10.8125
▁udDUta	-10.8125
▁upADyAya	-10.8125
▁Gfzw	-10.8125
▁plakza	-10.8125
▁rUQ	-10.8125
▁trigart	-10.8125
▁arRave	-10.8125
▁cEty	-10.8125
▁jAnakI	-10.8125
▁kftAstr	-10.8125
▁nIlalohita	-10.8125
▁ativartate	-10.8125
▁bandi	-10.8125
▁nizAd	-10.8125
▁saMsAre	-10.8125
▁virAjit	-10.8125
▁viprarze	-10.8125
▁nigfhIt	-10.8125
▁tvaritA	-10.8125
▁avartata	-10.8125
▁galit	-10.8125
▁dArQya	-10.8125
▁dasyu	-10.8125
▁kleda	-10.8125
▁pradoz	-10.8125
▁mandiram	-10.8125
▁vAraRAvat	-10.8125
▁viDAtA	-10.8125
▁upasarp	-10.8125
▁lAlas	-10.8125
▁arcane	-10.8125
▁kanizW	-10.8125
▁aBidrut	-10.8125
▁kOmAr	-10.8126
▁kOSal	-10.8126
▁aho	-10.8126
▁srak	-10.8126
▁Svasan	-10.8126
▁yAdava	-10.8126
▁prAS	-10.8126
▁vipriyam	-10.8126
▁karRikAr	-10.8126
▁nirantar	-10.8127
▁bata	-10.8127
▁hikkA	-10.8127
▁pOz	-10.8127
▁vizAR	-10.8128
▁itaretara	-10.8128
▁vilIy	-10.8128
▁Alasya	-10.8129
▁vfzaBaDvaja	-10.8129
▁anuSAsanam	-10.813
badar	-10.813
▁matsar	-10.813
▁prakurvIta	-10.8131
▁durjan	-10.8132
▁prahasta	-10.8133
▁ekadA	-10.8133
▁jaqa	-10.8134
▁cintitam	-10.8136
▁parIta	-10.8137
▁agrajaH	-10.8137
▁aByavartata	-10.8138
▁vAdiBiH	-10.814
▁aDikaraR	-10.8141
▁aDIna	-10.8141
▁ABAsa	-10.8142
▁AstAm	-10.8143
aSAsa	-10.8144
▁anekaDA	-10.8145
▁praviSet	-10.8151
▁samBavati	-10.8154
▁jambIr	-10.8155
▁damBa	-10.8159
▁anAT	-10.8163
▁vidyADar	-10.8164
▁adfzw	-10.8165
▁vAcak	-10.8173
▁saptamam	-10.8178
▁gaReSvar	-10.8186
▁aBirat	-10.8191
▁suvarR	-10.8192
AsAm	-10.8194
▁ayana	-10.8194
▁kAkutsT	-10.8202
▁yuDizWir	-10.8226
▁vaDizy	-10.824
▁paYcatva	-10.8247
▁praBavA	-10.8275
▁koS	-10.8282
▁smaraRa	-10.8282
▁Bezaj	-10.8297
▁praBAsa	-10.8302
▁anukt	-10.8338
▁hIn	-10.834
▁maDuka	-10.834
▁pratyagfhR	-10.8346
▁vAli	-10.8346
▁SarIrAR	-10.8349
▁pApmA	-10.8371
▁Buvan	-10.838
▁sAraRa	-10.8385
▁parASara	-10.8399
▁suraBi	-10.8399
▁kamal	-10.8417
▁vyavasAy	-10.8475
▁avagacC	-10.8485
rTam	-10.8498
▁BUyizW	-10.8508
▁acyut	-10.8518
▁vAsara	-10.852
▁kaliNga	-10.8526
▁paScim	-10.8532
▁mantriR	-10.8555
▁BUy	-10.8582
▁vind	-10.8597
kuryAt	-10.8601
▁praviSant	-10.8604
▁hrada	-10.8606
▁devarAj	-10.8612
▁viSoDana	-10.8634
▁aByavarta	-10.8641
▁jagad	-10.8651
▁pIqan	-10.8651
yuYjyAt	-10.8651
▁AcCAdan	-10.8651
▁DyAyet	-10.8651
▁Pull	-10.8651
▁aBIkzRa	-10.8651
▁aBivarDate	-10.8651
▁aByaDAvat	-10.8651
▁acintayat	-10.8651
▁acireRa	-10.8651
▁akzOhiRI	-10.8651
▁catuzpaT	-10.8651
▁dAridrya	-10.8651
▁dIkzit	-10.8651
▁dvijarzaBa	-10.8651
▁gARapatya	-10.8651
▁jaratkAru	-10.8651
▁jizRu	-10.8651
▁nisarg	-10.8651
▁rUpiRe	-10.8651
▁raSmayaH	-10.8651
▁saBAsadaH	-10.8651
▁stUyamAn	-10.8651
▁umApatim	-10.8651
▁viSuDyati	-10.8651
▁AtiTya	-10.8651
▁Sibir	-10.8651
▁daMzwri	-10.8651
▁diSi	-10.8651
▁namaskAr	-10.8651
▁pAkaSAsana	-10.8651
▁prastAvaH	-10.8651
▁svABAvik	-10.8651
▁vEkartana	-10.8651
▁trilocana	-10.8651
▁vAjapey	-10.8651
▁mARqavy	-10.8651
▁sammoh	-10.8651
▁valmIka	-10.8651
▁dustar	-10.8651
▁kaTyamAn	-10.8651
▁tiTi	-10.8651
▁praRiD	-10.8651
▁yantA	-10.8651
▁prabal	-10.8651
▁rAji	-10.8652
nirUpaRam	-10.8652
▁gOravAt	-10.8652
▁haridrA	-10.8652
▁janasTAn	-10.8652
▁avasat	-10.8652
▁sTAlI	-10.8652
▁nidAna	-10.8652
▁ajayat	-10.8652
praveSam	-10.8652
▁hanyAm	-10.8652
▁prasUtA	-10.8652
▁patag	-10.8653
▁samUh	-10.8653
▁anurAg	-10.8653
▁durgatim	-10.8653
▁parigfhya	-10.8653
▁virAg	-10.8653
▁aBed	-10.8654
▁pfTvI	-10.8655
▁kraya	-10.8655
▁pUjanIy	-10.8656
▁upavIt	-10.8656
▁drakzyasi	-10.8656
▁BakzaRAt	-10.8657
▁kUj	-10.8658
▁virAjat	-10.8658
▁suganDa	-10.8661
▁ucitA	-10.8662
▁prasaNga	-10.8662
▁BUpate	-10.8664
▁DriyamAR	-10.8666
▁samBrama	-10.8667
▁veSmani	-10.8667
▁pAdapAH	-10.8668
▁SoBate	-10.8668
▁sAhya	-10.8671
▁Socati	-10.8671
▁upAsate	-10.8674
▁kAnan	-10.8674
▁Suzy	-10.8675
▁aByayAt	-10.868
▁BAginaH	-10.8684
▁Urmi	-10.8694
▁tvaramARa	-10.8694
▁acCa	-10.8702
▁valaya	-10.8702
▁upagat	-10.8705
▁sArTa	-10.8705
▁araRy	-10.8707
▁pradadyA	-10.8715
▁mayUr	-10.8717
▁anuvrat	-10.8719
▁sampuwa	-10.8727
narta	-10.8742
▁pramatt	-10.8742
▁saMsarga	-10.8747
▁viBIzaR	-10.8761
▁uparat	-10.8761
marizyasi	-10.8764
▁dAyak	-10.8769
▁kimpuruz	-10.8782
DvajaH	-10.8782
▁nirjan	-10.8796
▁calita	-10.88
▁SarIriR	-10.8853
▁zoqaS	-10.8858
▁hrasv	-10.8858
▁lubDak	-10.8882
▁tilak	-10.8919
▁agn	-10.894
▁mUQA	-10.8945
kramya	-10.8964
▁suparR	-10.899
▁nAq	-10.9013
▁utsAh	-10.9024
▁paratar	-10.903
▁udyant	-10.9036
▁rahasy	-10.9064
▁nyAy	-10.9082
tsn	-10.9086
▁gamizyant	-10.9105
▁parameS	-10.9105
DAtrA	-10.9113
eSam	-10.9119
ruz	-10.9139
▁kAmin	-10.9143
▁ruDir	-10.9144
▁Badr	-10.9156
▁vidma	-10.9176
▁vizAd	-10.9194
▁uccAr	-10.9202
▁niveS	-10.9204
▁yUT	-10.9207
▁pratyadfSya	-10.9207
sPurat	-10.9207
▁AkANkz	-10.9207
▁Bartari	-10.9207
▁Boktavya	-10.9207
▁Satakrato	-10.9207
▁SriyaH	-10.9207
▁apsaroBiH	-10.9207
▁avAptavAn	-10.9207
▁bAnDavAn	-10.9207
▁dilIp	-10.9207
▁dolAyantr	-10.9207
▁iNgita	-10.9207
▁kAmboj	-10.9207
▁mUrCan	-10.9207
▁manIziBiH	-10.9207
▁ojasam	-10.9207
▁paryuzita	-10.9207
▁rudatI	-10.9207
▁sAhAyya	-10.9207
▁vfzaparvaRaH	-10.9207
▁vyADIn	-10.9207
▁vyaYjan	-10.9207
▁yAtuDAn	-10.9207
▁yojyA	-10.9207
▁atIndriy	-10.9207
▁ayonij	-10.9207
▁marakata	-10.9207
▁nizevaR	-10.9207
▁rohit	-10.9207
▁samuddizw	-10.9207
▁svasrIy	-10.9207
▁vAyuBakz	-10.9207
▁vinaSyant	-10.9207
▁DUrt	-10.9207
▁jantUnAm	-10.9207
▁prayAge	-10.9207
▁vepamAn	-10.9207
▁rudant	-10.9207
▁tandrA	-10.9207
▁apasmAra	-10.9207
▁sAyAhn	-10.9207
▁BAjane	-10.9207
▁divAkare	-10.9207
▁sarzapa	-10.9207
▁mUzak	-10.9207
▁pARayaH	-10.9207
▁mizat	-10.9207
▁ftuparR	-10.9207
▁Datte	-10.9207
▁lagna	-10.9207
▁girO	-10.9207
▁upaSAnt	-10.9207
▁upozya	-10.9207
▁upasfzw	-10.9207
▁jaguH	-10.9207
▁asakt	-10.9207
▁tanmAtr	-10.9207
▁lIyate	-10.9207
▁BrU	-10.9207
▁kesara	-10.9207
▁satkftaH	-10.9207
▁uttAna	-10.9208
▁yAcyamAn	-10.9208
▁SoRa	-10.9208
▁paYcagavy	-10.9208
▁padArT	-10.9208
▁yacCa	-10.9208
▁vakzasi	-10.9208
▁vivAde	-10.9208
▁niDAnam	-10.9209
▁aBiDAsy	-10.9209
▁jetA	-10.9209
▁kiraR	-10.921
▁vihasya	-10.921
▁vAsizW	-10.9211
▁upalabDiH	-10.9211
▁mahendr	-10.9211
▁alas	-10.9212
▁karavIr	-10.9212
▁vindate	-10.9212
▁gomAy	-10.9212
▁leh	-10.9212
▁naktam	-10.9214
▁vallaBA	-10.9214
▁aDipAH	-10.9214
▁ucitam	-10.9214
▁nirguRq	-10.9216
▁parItA	-10.9216
▁nivasanti	-10.9218
▁gAminaH	-10.9219
▁digDa	-10.9224
candanam	-10.9238
▁aSiv	-10.9239
▁vicAra	-10.9241
▁mahimA	-10.9243
▁vAhin	-10.9245
▁kaTayant	-10.925
▁paYcaviMSaka	-10.925
▁smita	-10.9252
mAlI	-10.9252
▁sTala	-10.9299
▁pratIpa	-10.9321
▁prAkfta	-10.9326
▁buDyas	-10.9335
▁anugacCa	-10.9355
▁pariBav	-10.937
▁nagna	-10.9395
▁puru	-10.9403
▁aBijAnA	-10.9418
▁pApmAna	-10.9441
▁pratigfhRa	-10.9454
▁upAdrava	-10.9478
▁pavitra	-10.9501
▁mUly	-10.9527
▁guq	-10.9527
uktam	-10.9533
▁Catr	-10.9568
▁dagDA	-10.9572
▁prahfzwA	-10.9574
▁paryant	-10.9577
▁anekAn	-10.9587
▁Svet	-10.9593
▁kArak	-10.9601
▁samutpannA	-10.9633
▁mArkaRqey	-10.9645
▁pASupat	-10.9651
▁caratA	-10.9663
▁samatA	-10.9678
▁sinD	-10.9693
▁yajat	-10.9693
▁nAmn	-10.9703
▁purogam	-10.9713
▁kroSa	-10.9731
hfday	-10.9743
spfS	-10.9744
dfSyate	-10.9745
SEla	-10.9745
Denu	-10.9746
SAli	-10.9747
▁pravad	-10.9784
▁hotr	-10.9795
▁vyapohan	-10.9795
▁SAWy	-10.9795
▁AzAQ	-10.9795
▁CAga	-10.9795
▁Cattra	-10.9795
▁Cett	-10.9795
▁Garme	-10.9795
▁KAde	-10.9795
▁SarAsan	-10.9795
▁aDyApanam	-10.9795
▁agacCat	-10.9795
▁balAbalam	-10.9795
▁jaWara	-10.9795
▁kArpAsa	-10.9795
▁kacCapa	-10.9795
▁kamaRqalu	-10.9795
▁klinn	-10.9795
▁mADury	-10.9795
▁moGa	-10.9795
▁mumuc	-10.9795
▁nyapata	-10.9795
▁pEtAmah	-10.9795
▁pramudit	-10.9795
▁pratisarga	-10.9795
▁rakzaRe	-10.9795
▁sAmudr	-10.9795
▁sambaBUva	-10.9795
▁tAmbUla	-10.9795
▁ucCed	-10.9795
▁udvijat	-10.9795
▁vAtsyAyanaH	-10.9795
▁viSvAvasuH	-10.9795
▁viniyoga	-10.9795
▁KAdan	-10.9795
▁Kura	-10.9795
▁Sambar	-10.9795
▁citrakUw	-10.9795
▁jihma	-10.9795
▁pradIyatAm	-10.9795
▁tfpyanti	-10.9795
▁zaRmuK	-10.9795
▁dvApara	-10.9795
▁kfttivAs	-10.9795
▁komal	-10.9795
▁aByagacCa	-10.9795
▁atibala	-10.9795
▁lozwa	-10.9795
▁pacyate	-10.9795
▁jAgrat	-10.9795
▁ruro	-10.9795
▁marditam	-10.9795
mUrDA	-10.9795
▁SalaB	-10.9795
▁kOSeya	-10.9795
▁sAndra	-10.9795
▁DArayizy	-10.9795
▁yonayaH	-10.9795
▁AQaka	-10.9795
▁samAramB	-10.9795
▁nizaDa	-10.9795
▁sadBAva	-10.9795
▁dvAtriMS	-10.9795
▁sTApanam	-10.9795
▁ozWa	-10.9795
▁uttamO	-10.9795
▁Betavyam	-10.9795
▁varDamAna	-10.9795
▁gIyate	-10.9796
▁Apadi	-10.9796
▁kUwasT	-10.9796
▁vAcik	-10.9796
▁nibanDan	-10.9796
▁umayA	-10.9796
▁aNguzWa	-10.9796
▁ilAvft	-10.9796
▁duzyati	-10.9796
▁AyAsa	-10.9796
▁roD	-10.9796
▁jaGanya	-10.9796
▁DyAyat	-10.9796
▁uzRIz	-10.9797
▁krIt	-10.9797
▁Astik	-10.9797
▁ezyati	-10.9797
▁kzapA	-10.9797
▁pAwa	-10.9797
▁viDAtavy	-10.9798
▁vIRA	-10.9798
uvanti	-10.9798
▁lol	-10.9798
▁jIrRa	-10.9798
▁ADiky	-10.9798
▁viBUti	-10.9798
▁praTamA	-10.9798
▁yUp	-10.9798
▁anfR	-10.9799
▁nihita	-10.98
▁upacit	-10.98
▁adroh	-10.9801
▁parAjitA	-10.9801
▁kaval	-10.9801
▁ucitaH	-10.9802
▁rasakarmaRi	-10.9803
▁somadatta	-10.9803
▁cUt	-10.9803
▁un	-10.9803
▁UzmA	-10.9804
▁jahyAt	-10.9805
▁pfcCasi	-10.9805
▁videh	-10.9805
▁vimarda	-10.9806
▁SUlinaH	-10.9807
▁pacat	-10.9809
▁yantrAR	-10.9812
▁anantaraH	-10.9812
▁aDyAs	-10.9819
▁veS	-10.9819
▁yazwavya	-10.9819
▁tApasAn	-10.9824
▁dvAdaSak	-10.9825
avattar	-10.9831
▁tvarA	-10.9836
▁gAyat	-10.9837
▁cikitsak	-10.9838
▁pAYcAlA	-10.9841
▁SOc	-10.9846
▁katama	-10.9851
▁Atapatr	-10.9881
▁vedin	-10.9887
▁cintayAna	-10.9899
▁jAyamAn	-10.9902
▁Bramat	-10.9907
grahaH	-10.9917
▁pravav	-10.9934
▁mUrDaj	-10.9954
▁paRa	-10.9966
▁upahat	-10.9972
▁jAgart	-10.9983
▁apaty	-10.9988
▁apanay	-10.9988
▁praharat	-10.999
saptatyA	-11.0008
▁hiNgula	-11.0017
▁viSrut	-11.0113
▁DAraRa	-11.0129
▁vIkz	-11.0146
▁Srotriya	-11.0173
▁aBay	-11.0175
maRiH	-11.0184
▁taTAgat	-11.0187
▁sto	-11.023
▁yuDyas	-11.0268
▁tarpaR	-11.0277
▁prayukta	-11.0279
▁timi	-11.0313
▁skand	-11.0318
uktaH	-11.0324
▁DUp	-11.0328
prasT	-11.033
▁suKin	-11.0354
▁viSvAs	-11.0354
▁iy	-11.0358
▁prapaSyant	-11.0362
▁bak	-11.0366
▁drAv	-11.0369
cacAra	-11.037
patnI	-11.037
▁samAjag	-11.0374
▁nivAsa	-11.0379
▁paTy	-11.0384
▁uSan	-11.039
▁amanya	-11.0407
▁SIGr	-11.041
▁mumo	-11.0415
▁SuSrUzaRe	-11.042
▁anuvAsanam	-11.042
▁apavidD	-11.042
▁avaBfT	-11.042
▁cAkzuza	-11.042
▁dOrbalya	-11.042
▁dvEtavan	-11.042
▁ftvik	-11.042
▁gARqIvaDanvan	-11.042
▁hiqimba	-11.042
▁jAtavedas	-11.042
▁kalevaram	-11.042
▁kizkinDA	-11.042
▁lAkzA	-11.042
▁maDyAhne	-11.042
▁manIziRA	-11.042
▁nikfntan	-11.042
▁pIWa	-11.042
▁pUrRe	-11.042
▁pUrvAhRe	-11.042
▁paRqitAH	-11.042
▁paWyate	-11.042
▁parAkrAnt	-11.042
▁prAvfzi	-11.042
▁puroD	-11.042
▁rADik	-11.042
▁rEvat	-11.042
▁ripUn	-11.042
▁romaharzaRa	-11.042
▁sADo	-11.042
▁sADvI	-11.042
▁sAdfSy	-11.042
▁samprahAra	-11.042
▁sapiRq	-11.042
▁stanAntare	-11.042
▁tEjas	-11.042
▁titikz	-11.042
▁trEvidy	-11.042
▁utsfjet	-11.042
▁vESAK	-11.042
▁vfScik	-11.042
▁vihft	-11.042
▁vivarDate	-11.042
▁yogakzem	-11.042
▁AdadyAt	-11.042
▁SUlaBed	-11.042
▁SucaH	-11.042
▁haryaSv	-11.042
▁nyavarta	-11.042
▁prakupya	-11.042
▁ulkA	-11.042
▁vaRij	-11.042
▁viBaja	-11.042
▁anAmayam	-11.042
▁asamarT	-11.042
▁bindavaH	-11.042
▁gacCey	-11.042
▁mahodar	-11.042
▁pacyamAna	-11.042
▁vavfD	-11.042
▁vyapASray	-11.042
▁niKil	-11.042
▁sTIyatAm	-11.042
▁tvazwA	-11.042
▁tyAjy	-11.042
▁sOdAsa	-11.042
▁sravat	-11.042
▁BrAjamAn	-11.042
▁vilapan	-11.042
▁kIwa	-11.042
▁aduzw	-11.042
▁itarezAm	-11.042
▁gfhRanti	-11.042
▁akArayat	-11.042
▁niveSane	-11.042
▁Adade	-11.042
▁pAruzy	-11.042
▁anaSan	-11.042
▁tyakzy	-11.042
▁asuK	-11.042
▁snAyu	-11.042
cakrAma	-11.042
▁kAzAya	-11.0421
▁antarDAna	-11.0421
▁agad	-11.0421
▁ruru	-11.0421
▁ASizaH	-11.0421
▁svarUpiR	-11.0421
▁tvacaH	-11.0421
▁karuRA	-11.0421
krAman	-11.0421
▁aryamA	-11.0421
▁SUrasen	-11.0421
▁vArAha	-11.0421
▁BasmasAt	-11.0421
▁kandarpa	-11.0421
▁trasta	-11.0421
▁jahAti	-11.0421
▁parirakzit	-11.0421
▁virahit	-11.0422
▁cacAla	-11.0422
SAka	-11.0422
▁agnaye	-11.0422
jaGnatuH	-11.0422
▁pralIyate	-11.0423
▁pratipann	-11.0423
▁saMyamaH	-11.0423
▁ucyatAm	-11.0423
▁viveka	-11.0424
▁senayA	-11.0424
▁nanAda	-11.0424
▁aRim	-11.0425
▁prakzipet	-11.0426
▁agAt	-11.0427
▁hiraRyAkz	-11.0428
▁pinAkinaH	-11.0428
▁SaMsanti	-11.0428
▁unmuK	-11.0429
▁agamya	-11.0429
▁pratyeka	-11.043
▁jamBa	-11.0438
▁praharza	-11.0445
▁Silpa	-11.0457
▁vez	-11.046
▁tapyamAna	-11.0488
▁asur	-11.0502
▁samApya	-11.0506
▁vibanDa	-11.0509
▁prAkAra	-11.0511
▁nadat	-11.0516
▁SoRit	-11.0524
▁vidruma	-11.0525
▁Ardr	-11.0541
▁ajey	-11.0573
▁AgAr	-11.059
▁jYAtavy	-11.0597
▁puRqarIk	-11.0609
▁atiraT	-11.0614
▁yAga	-11.0635
▁vftr	-11.0665
▁uzwr	-11.0704
▁puwita	-11.0731
▁jarAyu	-11.0751
▁aRq	-11.0754
gacCet	-11.0759
▁dvijottam	-11.0787
jIvaH	-11.0822
▁AgacCa	-11.0828
▁SmaSAn	-11.0872
▁banDUn	-11.0878
▁gOr	-11.0884
▁vac	-11.0893
▁SvaSur	-11.0897
▁jaGana	-11.0897
kzaRaH	-11.0916
zwAva	-11.0927
tasTire	-11.0956
▁fk	-11.0972
▁bfhaspat	-11.0999
▁SlakzR	-11.1022
▁icCey	-11.1027
mArga	-11.1036
AtmajaH	-11.1037
▁durlaB	-11.1037
▁yajana	-11.1039
gfhRIyAt	-11.1048
▁vESravaR	-11.1056
▁sahasrak	-11.1079
▁prayuYj	-11.1086
▁anukroS	-11.1087
▁yuyutsa	-11.1087
▁AyuzA	-11.1087
▁SamBave	-11.1087
▁SuSrUzu	-11.1087
▁aByaDAvan	-11.1087
▁abruvam	-11.1087
▁amfzyamAR	-11.1087
▁avApnuhi	-11.1087
▁baBru	-11.1087
▁baDnIyAt	-11.1087
▁cikIrzitam	-11.1087
▁duratikrama	-11.1087
▁hotA	-11.1087
▁mucukund	-11.1087
▁murAr	-11.1087
▁nIlakaRW	-11.1087
▁pARO	-11.1087
▁pippal	-11.1087
▁prANmuK	-11.1087
▁praSaSaMs	-11.1087
▁pracakrire	-11.1087
▁rasAYjanam	-11.1087
▁sOmadatt	-11.1087
▁trivizwape	-11.1087
▁vyaBicAr	-11.1087
▁aBakzy	-11.1087
▁aByaYjan	-11.1087
▁biBfyAt	-11.1087
▁gaBast	-11.1087
▁hEhay	-11.1087
▁kanyayA	-11.1087
▁kosal	-11.1087
▁kuwil	-11.1087
▁paYcAkzar	-11.1087
▁parikleS	-11.1087
▁prARatyAg	-11.1087
▁prakupit	-11.1087
▁sUkt	-11.1087
▁stuvat	-11.1087
▁suBaga	-11.1087
▁tAqanam	-11.1087
▁voQ	-11.1087
▁paYcANg	-11.1087
▁upaBujya	-11.1087
▁aBijAyate	-11.1087
▁ayAcit	-11.1087
▁bawu	-11.1087
▁mudam	-11.1087
▁juhoti	-11.1087
▁niyut	-11.1087
▁salokatAm	-11.1087
▁pratinand	-11.1087
▁pAMsu	-11.1087
▁padmanABa	-11.1087
▁priyEH	-11.1087
▁SaSaMsa	-11.1087
▁viBIta	-11.1087
▁anuBUya	-11.1087
▁samBrAntA	-11.1087
▁devatAyatan	-11.1087
▁keyUr	-11.1087
▁jambU	-11.1087
▁sumanas	-11.1087
▁praSAmya	-11.1087
▁hanyuH	-11.1087
▁SvaSrU	-11.1087
▁samidDa	-11.1087
▁BUyasA	-11.1087
▁atiyog	-11.1087
▁prameh	-11.1087
▁udgAr	-11.1087
▁Duram	-11.1087
▁pariSram	-11.1087
▁avadat	-11.1087
▁rahaH	-11.1087
▁uttAnapAda	-11.1088
▁glAni	-11.1088
▁upagamya	-11.1088
▁prakaraRa	-11.1088
▁yamunay	-11.1088
▁druhy	-11.1088
▁paYcamUl	-11.1088
▁aBiDAvat	-11.1088
▁yAsyasi	-11.1088
▁zaRq	-11.1088
▁AKu	-11.1088
▁kuSika	-11.1088
▁kazwam	-11.1089
▁prakartavy	-11.1089
▁nirmitaH	-11.1089
▁panas	-11.1089
▁laBy	-11.1089
▁gAnDAr	-11.1089
▁paraSu	-11.109
▁mOl	-11.109
▁BAvayit	-11.109
▁karawaka	-11.1091
▁magna	-11.1091
▁AptavAn	-11.1091
▁samBave	-11.1092
▁darSiBiH	-11.1092
▁DiyA	-11.1093
▁garvit	-11.1093
▁asaty	-11.1093
▁arog	-11.1094
▁samASray	-11.1094
▁nAka	-11.1096
pEti	-11.1098
▁avaraj	-11.11
▁uktavat	-11.11
▁Bramant	-11.1103
▁uru	-11.1111
dravanti	-11.1111
▁sureS	-11.1111
▁smayamAn	-11.1112
▁pravAs	-11.1115
▁rAkzaseSvara	-11.113
▁aYjan	-11.1137
▁Ih	-11.1142
▁vacas	-11.1146
▁ind	-11.1175
▁kavy	-11.1178
jvAla	-11.1192
vallaBaH	-11.1193
▁paSyey	-11.1203
▁asAr	-11.125
izyan	-11.1255
▁AyAma	-11.1255
▁uparama	-11.1302
▁sajy	-11.135
▁mahArh	-11.1351
patsyate	-11.1388
▁hiraRyakaSip	-11.1396
▁vyUh	-11.1405
kopa	-11.146
tIrTe	-11.1495
mUrteH	-11.1504
▁sanaka	-11.151
▁vaNg	-11.1561
▁vakz	-11.1595
▁gAnDarv	-11.16
▁apramatt	-11.1649
▁gAruq	-11.1677
▁payas	-11.1686
▁jAyet	-11.1704
▁sEnik	-11.1718
▁patant	-11.1729
cakzuzA	-11.1751
citt	-11.1752
gfhRAti	-11.1754
ruk	-11.1765
▁viMSa	-11.1783
▁samapadya	-11.1788
steyam	-11.1793
▁hutA	-11.1801
▁raGu	-11.1801
▁prokz	-11.1801
▁agnIzom	-11.1801
▁kroq	-11.1801
▁prakzAlan	-11.1801
▁samAyog	-11.1801
▁utkzip	-11.1801
▁viparyAs	-11.1801
▁AdadIta	-11.1801
▁AyoDan	-11.1801
▁BruvoH	-11.1801
▁BuNkz	-11.1801
▁DaraRyA	-11.1801
▁SibikA	-11.1801
▁aNkola	-11.1801
▁ajIjanat	-11.1801
▁amlavetas	-11.1801
▁amoGA	-11.1801
▁animitt	-11.1801
▁anupUrvaSaH	-11.1801
▁anvapadya	-11.1801
▁asapiRq	-11.1801
▁avagAQ	-11.1801
▁cukro	-11.1801
▁gulP	-11.1801
▁hriyat	-11.1801
▁kaRqUti	-11.1801
▁kadrU	-11.1801
▁kambala	-11.1801
▁kiNkiR	-11.1801
▁klizwa	-11.1801
▁lapsyase	-11.1801
▁limpet	-11.1801
▁mEnAka	-11.1801
▁narottama	-11.1801
▁nirviSez	-11.1801
▁nirvikalp	-11.1801
▁paricaryA	-11.1801
▁prADAny	-11.1801
▁pratihAraH	-11.1801
▁sampradAya	-11.1801
▁suyoDanam	-11.1801
▁svAsTya	-11.1801
▁uddAlak	-11.1801
▁upasarg	-11.1801
▁vEkuRWa	-11.1801
▁viBinna	-11.1801
▁vyatirek	-11.1801
▁yavAgU	-11.1801
▁nirdahan	-11.1801
▁SAyin	-11.1801
▁dAkzy	-11.1801
▁hinasti	-11.1801
▁saMsidD	-11.1801
▁samBAzamAR	-11.1801
▁yAdavAH	-11.1801
▁vfzaparvA	-11.1801
▁mriyant	-11.1801
▁praBinn	-11.1801
▁rAtryA	-11.1801
▁pracur	-11.1801
▁vismft	-11.1801
▁sAlokyam	-11.1801
▁AranAl	-11.1801
▁SUlapARi	-11.1801
▁SapaT	-11.1801
▁caturTI	-11.1801
▁aByupet	-11.1801
▁prasaNgena	-11.1801
▁pravartanam	-11.1801
▁agaman	-11.1801
pIlu	-11.1801
▁SritA	-11.1801
eyivAn	-11.1801
▁kola	-11.1802
▁pradAsyati	-11.1802
▁BAginey	-11.1802
▁Betsy	-11.1802
▁kvaTit	-11.1802
▁SacIpate	-11.1802
▁pradAyin	-11.1802
▁Apadam	-11.1802
▁aSanAH	-11.1802
▁Bfgunandana	-11.1802
▁nizpattiH	-11.1802
▁vinadan	-11.1803
▁garjant	-11.1803
▁kfzRavartm	-11.1803
▁kUla	-11.1803
▁jina	-11.1804
▁mahimn	-11.1804
▁rAjamArg	-11.1804
▁vyApak	-11.1804
▁sAvitr	-11.1804
▁Ipsu	-11.1805
▁bAliS	-11.1805
▁samAhat	-11.1806
▁sOBa	-11.1806
▁nikaz	-11.1806
▁romAR	-11.1807
Avahe	-11.1808
▁vitaT	-11.181
▁vyApAra	-11.1811
▁pratAp	-11.1813
▁BerI	-11.1814
▁Darmasuta	-11.1814
▁SreR	-11.1815
▁bahv	-11.1816
▁vIraBadr	-11.1816
▁nindy	-11.1817
▁sajja	-11.1818
▁vIkzamAR	-11.1828
▁kApuruz	-11.1835
▁karmiR	-11.1835
▁durvftt	-11.1839
▁SacIpati	-11.184
▁upayAsy	-11.1846
▁brahmARq	-11.1849
▁anAd	-11.1854
▁utpady	-11.1864
▁jagatpati	-11.1876
▁rakzant	-11.1876
▁AraRyak	-11.1906
▁janArdan	-11.1977
▁kzudr	-11.198
acarat	-11.1985
SaNkitaH	-11.1989
▁savarRA	-11.1989
▁jAgaraR	-11.2021
▁kUw	-11.2043
▁prapadyant	-11.2044
▁gaya	-11.2052
▁vicit	-11.2056
▁Ikzit	-11.2092
▁susT	-11.2093
▁vakr	-11.2114
▁manvantarAR	-11.2187
▁kowitIrT	-11.22
▁SAsana	-11.2286
rpaRam	-11.2299
▁ekAnt	-11.2348
▁papracC	-11.2423
▁pratasT	-11.2441
▁pradad	-11.2447
▁SoP	-11.2457
SravAH	-11.2487
baBO	-11.2519
kaRwak	-11.252
▁samprayacC	-11.2523
▁SacI	-11.2529
▁sfjant	-11.2533
▁tatpuruz	-11.2544
▁gamizyA	-11.2568
prAmARy	-11.257
▁kadarT	-11.257
▁viliK	-11.257
▁Bizagjitam	-11.257
▁Cavi	-11.257
▁KAdit	-11.257
▁OSInara	-11.257
▁SalAka	-11.257
▁Satakratum	-11.257
▁SiTil	-11.257
▁Sikza	-11.257
▁anAdiniDana	-11.257
▁antardaD	-11.257
▁aruciH	-11.257
▁asadfS	-11.257
▁asamBrAnt	-11.257
▁atimAnuza	-11.257
▁dOhitr	-11.257
▁gacCAva	-11.257
▁godAvarI	-11.257
▁grIzma	-11.257
▁jYAsy	-11.257
▁lAvaRya	-11.257
▁mugDa	-11.257
▁mumUrz	-11.257
▁nirdiSet	-11.257
▁pESAc	-11.257
▁paWit	-11.257
▁prajvalan	-11.257
▁sUcI	-11.257
▁sahalakzmaRa	-11.257
▁siYc	-11.257
▁suvrate	-11.257
▁svANgaSIta	-11.257
▁udvignA	-11.257
▁varDinI	-11.257
▁vivfdDa	-11.257
▁vyavarData	-11.257
▁vyomn	-11.257
▁waNka	-11.257
▁yodDavya	-11.257
▁yuvanASva	-11.257
▁yuzma	-11.257
▁SucIn	-11.257
▁anukUla	-11.257
▁divAsvapn	-11.257
▁mARikya	-11.257
▁nArasiMh	-11.257
▁praRetAr	-11.257
▁sudakziR	-11.257
▁vAlaKily	-11.257
▁vfRu	-11.257
▁viSvedevA	-11.257
▁viqaNg	-11.257
▁vistarAt	-11.257
▁Sabal	-11.257
▁aBilazit	-11.257
▁aDruv	-11.257
▁ayajat	-11.257
▁vigAh	-11.257
▁Svapaca	-11.257
▁aSradD	-11.257
▁kzoBa	-11.257
▁nirudDa	-11.257
▁prApsyAm	-11.257
▁prasrut	-11.257
▁Acamana	-11.257
▁izwApUrt	-11.257
▁vinyAs	-11.257
▁lIQ	-11.257
▁viklav	-11.257
▁jAraRam	-11.257
▁vilocan	-11.257
▁yavIyas	-11.257
▁ceruH	-11.257
▁pratipadyas	-11.257
▁sOvIra	-11.257
▁duzyant	-11.2571
▁fzwi	-11.2571
▁viMSatyA	-11.2571
▁anirdeSy	-11.2571
▁anusara	-11.2571
▁upayukt	-11.2571
▁aNgulA	-11.2571
▁sIdant	-11.2571
▁rajju	-11.2571
▁viDats	-11.2571
▁jambUdvIp	-11.2571
▁kitava	-11.2571
▁vijAnan	-11.2571
▁anAvft	-11.2571
▁kzantavya	-11.2571
▁avalipt	-11.2571
▁avasAne	-11.2571
▁sAdinaH	-11.2571
▁atimAtra	-11.2571
▁vimanas	-11.2571
▁jAqya	-11.2571
▁abja	-11.2571
▁vfzasena	-11.2571
▁mahAkAl	-11.2572
▁BayAnak	-11.2572
▁nizek	-11.2572
▁vidvadB	-11.2572
▁anvizya	-11.2573
▁Karpara	-11.2573
▁dampat	-11.2573
▁samAcit	-11.2574
▁gaRqa	-11.2574
▁kftAtma	-11.2574
▁utsuk	-11.2575
▁Sakal	-11.2576
▁karaYja	-11.2576
▁upahita	-11.2577
▁prapata	-11.2577
▁sArUpya	-11.2578
▁Dfzwaketu	-11.2578
▁nEmittika	-11.2579
▁aByakt	-11.258
▁mahIpAlA	-11.2581
▁samAyAnt	-11.2582
▁srAv	-11.2583
▁udAtta	-11.259
▁pradakziRIkft	-11.2594
▁vAhinIpat	-11.2603
▁prajajv	-11.2604
▁kazwA	-11.2605
▁atiSay	-11.2606
▁prabudDa	-11.2612
▁sImA	-11.2613
romA	-11.2615
tapantam	-11.2624
▁ekAgr	-11.2634
▁vartas	-11.2639
▁kroSant	-11.2656
▁ekIkft	-11.2692
▁hfzw	-11.2714
▁yuDyant	-11.272
▁jezy	-11.2726
▁udgata	-11.2743
▁Goratar	-11.2757
▁saMyug	-11.2779
▁SvetavAhana	-11.2811
▁nirmARa	-11.2882
▁Anand	-11.2894
▁citraraT	-11.2924
▁priyatara	-11.2957
▁kadamb	-11.2982
SAlA	-11.2987
▁patny	-11.2991
rahasi	-11.3008
AyuDam	-11.3009
▁cyava	-11.3048
▁Atap	-11.3049
▁harmy	-11.3051
▁jayadraT	-11.3105
▁paSye	-11.3131
▁kOtUhal	-11.3157
▁gfdD	-11.3167
▁grIv	-11.3247
saptatiH	-11.3329
▁suraBI	-11.3337
Badra	-11.3353
viDiH	-11.3353
karoti	-11.3354
▁niyacCa	-11.3386
▁prajah	-11.3401
ricyate	-11.3401
▁aByayuYja	-11.3404
▁ajihmag	-11.3404
▁vijfmB	-11.3404
▁Garma	-11.3404
▁gARqIvaDanvA	-11.3404
▁laNGane	-11.3404
▁pawwa	-11.3404
▁pftanA	-11.3404
▁AhitAgn	-11.3404
▁Apnuhi	-11.3404
▁BfgoH	-11.3404
▁KecarAH	-11.3404
▁PAlgune	-11.3404
▁SalAkA	-11.3404
▁aNGri	-11.3404
▁adrAkzam	-11.3404
▁apAharat	-11.3404
▁avEkzata	-11.3404
▁avijYAn	-11.3404
▁avirudD	-11.3404
▁gamBIrA	-11.3404
▁garIyAn	-11.3404
▁iNgud	-11.3404
▁jatru	-11.3404
▁kAlAgni	-11.3404
▁kaSmala	-11.3404
▁kravyAd	-11.3404
▁mArgaSIrz	-11.3404
▁nirapekz	-11.3404
▁nirupadrav	-11.3404
▁nizkriya	-11.3404
▁pUrvokt	-11.3404
▁pariSuzyat	-11.3404
▁parityaktA	-11.3404
▁paryAkul	-11.3404
▁prIyamARaH	-11.3404
▁pracCannA	-11.3404
▁praduzw	-11.3404
▁puRqr	-11.3404
▁sUryAcandramas	-11.3404
▁saMvAsa	-11.3404
▁samprayukt	-11.3404
▁uSIra	-11.3404
▁udAharaRa	-11.3404
▁vAlukAyantr	-11.3404
▁vihvalA	-11.3404
▁yOvarAjy	-11.3404
▁SikzA	-11.3404
▁bandI	-11.3404
▁gahvar	-11.3404
▁kesarI	-11.3404
▁mezaSfNg	-11.3404
▁praRipAt	-11.3404
▁rudit	-11.3404
▁sulaBA	-11.3404
▁vARijya	-11.3404
▁vEDarmy	-11.3404
▁vfzRIn	-11.3404
▁Serate	-11.3404
▁aNgulI	-11.3404
▁akArzI	-11.3404
▁remire	-11.3404
▁sumitra	-11.3404
▁vAgyataH	-11.3404
▁vEKAnas	-11.3404
▁vyasfja	-11.3404
▁DArayit	-11.3404
▁prayut	-11.3404
▁mastaka	-11.3404
▁rOpya	-11.3404
▁ripav	-11.3404
▁sulaBa	-11.3404
▁SORq	-11.3404
▁paSoH	-11.3404
▁pradiSa	-11.3404
▁tawe	-11.3404
▁valgu	-11.3404
▁vinaSizy	-11.3404
▁pratyakze	-11.3404
▁avAcy	-11.3404
▁brahmAstr	-11.3404
▁pratiSyAy	-11.3404
▁darSanEH	-11.3404
▁akftAtma	-11.3404
▁aDvaryu	-11.3404
▁suganDI	-11.3404
▁ilA	-11.3404
▁vicarat	-11.3404
▁pAzaRq	-11.3404
▁DUta	-11.3404
▁Svitra	-11.3404
▁trinetr	-11.3404
▁pratyAhAra	-11.3404
▁virADa	-11.3404
▁pralIn	-11.3404
▁pAlAS	-11.3404
▁ruzA	-11.3404
▁aByagAt	-11.3404
▁SAradvata	-11.3404
▁bakul	-11.3404
▁prayateta	-11.3404
▁tvacam	-11.3404
▁puzparAga	-11.3404
▁padmarAg	-11.3404
▁jIvanmukt	-11.3405
▁pampA	-11.3405
▁amBoja	-11.3405
▁cAza	-11.3405
▁dvirad	-11.3405
▁aBivand	-11.3405
▁kzAnti	-11.3405
▁avivek	-11.3405
▁ApadaH	-11.3405
▁gUh	-11.3405
▁rADA	-11.3405
▁dahyant	-11.3405
▁anugfhya	-11.3406
▁laGimA	-11.3406
▁prAvarta	-11.3406
▁aBijAta	-11.3406
▁vilal	-11.3407
▁mUk	-11.3407
▁ruta	-11.3408
▁anumanyat	-11.3408
▁rUpiRA	-11.3408
▁rakzitavy	-11.3409
▁ADAn	-11.3411
cumb	-11.3411
▁SataguRa	-11.3412
▁garjat	-11.3412
▁upanIt	-11.3412
▁biByat	-11.3415
▁ekasT	-11.3415
▁anUp	-11.3416
▁campak	-11.342
▁gaReSa	-11.3421
▁kaMsa	-11.3421
▁uttarIy	-11.3424
▁avaSy	-11.3424
▁aBimata	-11.3426
▁satkftA	-11.343
▁udagr	-11.3431
▁bfhadraTa	-11.3432
▁kAmyak	-11.3432
▁pApIy	-11.3436
▁virek	-11.3436
▁BidyamAn	-11.344
▁samavAye	-11.3445
▁niDane	-11.3461
▁gadADara	-11.3477
▁cUrRIkft	-11.3477
▁yokzy	-11.348
▁vilAsin	-11.3522
▁BUriSravas	-11.3553
ASanaH	-11.3608
lepanam	-11.3634
▁jawAyu	-11.3636
▁pravAh	-11.3637
▁Bikz	-11.3665
▁vajraDar	-11.3683
▁dASArh	-11.3686
varDana	-11.3693
▁uBay	-11.3701
▁takz	-11.3734
kIrtanAt	-11.3737
▁vijAnI	-11.3743
▁aByanujYA	-11.3748
▁sudarSan	-11.3885
yacCet	-11.3897
▁SrutAyu	-11.3954
▁nagarAR	-11.3993
▁pratigfhRI	-11.4007
▁rADe	-11.4029
▁BAradvAj	-11.4071
▁nipatant	-11.4082
agacCan	-11.4151
▁parjany	-11.416
▁vallaBa	-11.4174
▁Danin	-11.4186
▁SarmizW	-11.4187
pratijY	-11.4245
nivartate	-11.4262
uddiSya	-11.4262
granTi	-11.4262
cakzuH	-11.4262
pibet	-11.4262
brUhi	-11.4262
suganD	-11.4291
▁anujagm	-11.431
▁aSraddaDAn	-11.4313
▁citrANgad	-11.4313
▁gARqIva	-11.4313
▁goDUm	-11.4313
▁mumud	-11.4313
▁nizUdan	-11.4313
▁sudyumn	-11.4313
▁ADyAtmik	-11.4313
▁Apastamba	-11.4313
▁Awop	-11.4313
▁DUsara	-11.4313
▁KarjUra	-11.4313
▁SARqily	-11.4313
▁SuRWI	-11.4313
▁aDyagacCa	-11.4313
▁aDyavasAy	-11.4313
▁akftavraRa	-11.4313
▁anukUlA	-11.4313
▁anuzWAna	-11.4313
▁arDacandr	-11.4313
▁atirikt	-11.4313
▁aviBakt	-11.4313
▁avyaBicAr	-11.4313
▁budbud	-11.4313
▁cikIrzu	-11.4313
▁dAkziRAty	-11.4313
▁dEnya	-11.4313
▁girIn	-11.4313
▁guqAkeSa	-11.4313
▁indIvara	-11.4313
▁kArpaRy	-11.4313
▁kAtyAyana	-11.4313
▁niSIT	-11.4313
▁nikumB	-11.4313
▁nirbiB	-11.4313
▁nizkAm	-11.4313
▁pArASary	-11.4313
▁piRyAka	-11.4313
▁pradarSan	-11.4313
▁samanujYAt	-11.4313
▁samopet	-11.4313
▁samupAviSa	-11.4313
▁susrAva	-11.4313
▁taptakfcCr	-11.4313
▁taqit	-11.4313
▁ujJitaH	-11.4313
▁upakrAnt	-11.4313
▁viSrabD	-11.4313
▁yojyaH	-11.4313
▁zaqviMS	-11.4313
▁gaNgadatt	-11.4313
▁kzuBit	-11.4313
▁paSc	-11.4313
▁turvasu	-11.4313
▁utsAdan	-11.4313
▁uttamANg	-11.4313
▁SOri	-11.4313
▁agrAhya	-11.4313
▁amarakaRwak	-11.4313
▁utsfja	-11.4313
▁vakti	-11.4313
▁SayIta	-11.4313
▁kadary	-11.4313
▁unmAd	-11.4313
▁jyotsnA	-11.4313
▁lAlA	-11.4313
▁urasA	-11.4313
▁anarh	-11.4313
▁aniket	-11.4313
▁nizeDa	-11.4313
▁durAcAr	-11.4313
▁agAD	-11.4313
▁Ekya	-11.4313
▁srajam	-11.4313
▁recana	-11.4313
▁sADanAt	-11.4313
▁utsanna	-11.4313
▁anASak	-11.4313
▁vyaroc	-11.4313
▁aByASa	-11.4313
▁AcaraR	-11.4313
▁prajAgar	-11.4313
▁tUry	-11.4313
▁kuhU	-11.4313
▁parimucya	-11.4313
▁pinAkinam	-11.4313
▁aByupAy	-11.4313
▁vaSavartin	-11.4313
▁garIyaH	-11.4313
▁doh	-11.4313
▁tvacA	-11.4313
▁samASvas	-11.4313
▁Orv	-11.4313
▁kuliSa	-11.4313
▁SvetASva	-11.4313
▁subAhu	-11.4313
▁apUrva	-11.4314
▁avasan	-11.4314
▁nABAga	-11.4314
▁avamanye	-11.4314
▁svakIy	-11.4314
▁vipanna	-11.4314
▁paYcadaS	-11.4315
▁agniveS	-11.4315
▁samBAra	-11.4315
▁pOrARik	-11.4315
▁aByasta	-11.4315
▁apUj	-11.4315
▁samADAna	-11.4315
▁hIy	-11.4315
▁fcIk	-11.4316
▁avahita	-11.4316
▁aBihitA	-11.4316
▁palAyana	-11.4316
▁niyAmak	-11.4316
▁vandana	-11.4316
▁vined	-11.4317
▁aSUny	-11.4317
▁pratiped	-11.4318
▁apaTy	-11.4318
▁krAnt	-11.4318
▁vyacara	-11.4318
▁upanAh	-11.4319
▁Sarkara	-11.432
▁apanIt	-11.4321
▁gaRADip	-11.4321
▁pfTivIpAla	-11.4323
▁SAmyant	-11.4324
▁pApizW	-11.4327
▁hiMsit	-11.4327
▁Bartavy	-11.4337
▁DaraRIDar	-11.4342
▁ramamAR	-11.4346
▁hiraRy	-11.4368
▁acinty	-11.4369
▁kowI	-11.4379
▁Dfzwa	-11.4455
▁sevin	-11.448
▁niGnant	-11.4514
▁gfdDin	-11.4578
vrajan	-11.4592
▁aDigacCant	-11.4685
▁paYcaviMS	-11.47
▁prApnu	-11.4772
▁meKal	-11.4782
▁nimez	-11.4793
▁viyujya	-11.4856
▁viniScay	-11.4872
puruzaH	-11.5
▁lAGava	-11.5017
smaraRAt	-11.5046
▁SOnaka	-11.5061
▁dvAdaS	-11.5068
▁vapuz	-11.5167
▁naravAhana	-11.5208
▁govind	-11.5224
kzetre	-11.5241
ISvaraH	-11.5243
agfhRAt	-11.5243
ASraya	-11.5244
kurvIta	-11.5251
gocar	-11.5262
vrajet	-11.5262
adButam	-11.5262
▁siDy	-11.5301
▁avApsya	-11.5309
▁gfDy	-11.5313
▁sahizR	-11.5313
SuDyate	-11.5313
acarite	-11.5313
▁ANgiras	-11.5313
▁DAtakI	-11.5313
▁OdAry	-11.5313
▁SuDyet	-11.5313
▁SuSruma	-11.5313
▁abrAhmaR	-11.5313
J	-12.8593
W	-12.8594
C	-12.8595
G	-12.8596
N	-12.8597
M	-12.8598
Y	-12.8599
D	-12.86
R	-12.8601
v	-12.8602
