<unk>	0
<s>	0
</s>	0
▁ca	-3.78304
m	-3.8122
H	-3.93422
a	-4.01656
M	-4.03573
▁	-4.045
aH	-4.20564
e	-4.26089
am	-4.33991
aM	-4.55328
o	-4.6312
A	-4.65156
▁na	-4.67319
i	-4.78738
AH	-4.96308
▁uvAca	-5.16264
▁tu	-5.23873
▁eva	-5.24864
ena	-5.31601
r	-5.32249
▁sa	-5.36331
sya	-5.3963
EH	-5.41566
An	-5.44477
▁iti	-5.44569
▁a	-5.45474
▁taTA	-5.5189
I	-5.54862
▁tat	-5.61284
At	-5.62275
▁vA	-5.69009
asya	-5.7097
▁hi	-5.73165
O	-5.74449
▁api	-5.75699
ya	-5.76899
▁te	-5.77659
▁'	-5.81517
▁sarva	-5.91118
Ani	-5.93447
ezu	-6.00681
n	-6.04806
s	-6.05264
▁yaTA	-6.09636
Aya	-6.13111
▁vi	-6.13812
▁tatra	-6.16942
t	-6.17594
S	-6.21037
yA	-6.30218
▁vE	-6.30516
▁tasya	-6.31715
▁me	-6.33338
▁yat	-6.41776
▁pra	-6.41994
eRa	-6.43083
ti	-6.4333
Am	-6.44906
Er	-6.45315
▁iva	-6.496
u	-6.5294
Ad	-6.55716
▁tadA	-6.5677
AnAm	-6.62247
nA	-6.62368
ta	-6.62821
▁Darma	-6.62902
na	-6.63134
d	-6.63347
vA	-6.64333
▁yaH	-6.65197
k	-6.65638
▁punaH	-6.65999
▁aTa	-6.6703
▁evam	-6.68149
va	-6.70454
z	-6.73316
▁tam	-6.74795
pi	-6.75658
▁sarve	-6.78129
▁sA	-6.78467
▁tad	-6.78628
▁Bavet	-6.7882
yam	-6.78821
▁sva	-6.79343
l	-6.79435
AnAM	-6.81122
Sca	-6.84656
▁deva	-6.8494
yaM	-6.84981
▁saha	-6.85535
ra	-6.85893
▁ye	-6.9074
▁aham	-6.90753
▁mama	-6.91211
▁etat	-6.92204
an	-6.94343
▁dfzwvA	-6.968
p	-6.99333
j	-7.00108
BiH	-7.02632
▁tvam	-7.04488
▁rAjA	-7.04776
▁ta	-7.05293
te	-7.05641
la	-7.07055
as	-7.07553
▁mayA	-7.08683
▁yadi	-7.09072
▁kim	-7.09361
vi	-7.09435
▁tava	-7.09474
▁brahma	-7.09872
▁ni	-7.10224
▁namaH	-7.11394
AM	-7.11686
▁upa	-7.11963
ka	-7.14112
▁param	-7.14122
▁anu	-7.14786
▁karma	-7.15227
▁prati	-7.15453
▁putra	-7.15975
▁tena	-7.16011
ni	-7.16174
▁atra	-7.19814
▁cA	-7.20039
▁idam	-7.2028
rA	-7.21194
g	-7.21541
D	-7.21649
▁syAt	-7.2403
▁SrI	-7.243
U	-7.24389
▁sam	-7.25023
▁s	-7.2521
v	-7.26374
▁yatra	-7.26495
▁ha	-7.26505
▁Bavati	-7.27158
▁kftvA	-7.27313
yo	-7.28118
▁cEva	-7.28454
▁rAjan	-7.2939
▁dev	-7.31128
B	-7.31166
▁iha	-7.32287
zu	-7.32955
▁pari	-7.35333
re	-7.36362
pa	-7.36663
▁rAja	-7.3784
'	-7.37848
kz	-7.39063
c	-7.39072
ARi	-7.40106
ARAm	-7.40597
y	-7.41102
▁ucyate	-7.41109
ye	-7.41628
yaH	-7.4253
kft	-7.4266
▁sadA	-7.42711
tA	-7.42963
h	-7.44271
▁BArata	-7.45555
▁eza	-7.458
▁tva	-7.46695
▁sarvam	-7.47174
▁A	-7.47277
▁yA	-7.48048
▁purA	-7.48235
w	-7.48517
ram	-7.48981
▁ayam	-7.49133
yAt	-7.49273
tu	-7.50611
▁rAma	-7.50989
ayA	-7.5231
As	-7.52375
▁saH	-7.52775
▁kaTam	-7.53022
▁bahu	-7.53152
▁nA	-7.53271
ja	-7.53639
▁eka	-7.5365
▁saMSayaH	-7.53737
Bi	-7.5378
su	-7.53801
▁aBi	-7.53888
▁SrutvA	-7.55031
Ta	-7.55478
pra	-7.55643
si	-7.56194
var	-7.57372
▁sUta	-7.57734
yate	-7.57941
▁tvayA	-7.58102
▁yo	-7.5866
aSca	-7.58731
da	-7.58842
cC	-7.59531
▁abravIt	-7.59536
▁S	-7.59861
▁pUrva	-7.61104
▁ati	-7.619
kam	-7.61979
aS	-7.62662
▁yasya	-7.62748
BUt	-7.6279
▁yadA	-7.62792
▁rasa	-7.62959
▁asya	-7.63919
f	-7.64043
▁yad	-7.64585
stu	-7.64952
▁tri	-7.6611
▁loke	-7.66521
AS	-7.66623
▁sama	-7.66666
▁veda	-7.6691
▁mAm	-7.66939
▁jAyate	-7.67529
▁parama	-7.67554
▁mahA	-7.67766
▁mA	-7.67848
▁mahat	-7.68041
▁kft	-7.69297
▁tezAm	-7.69922
ha	-7.70192
▁tasmin	-7.70371
▁guru	-7.70393
▁satya	-7.70553
▁mat	-7.70737
yAm	-7.70889
taM	-7.71883
▁kiM	-7.72058
▁kAla	-7.72366
▁su	-7.72675
anti	-7.73024
ro	-7.7311
▁arTam	-7.73585
▁tAn	-7.74091
▁loka	-7.74559
▁vESampAyanaH	-7.75797
tam	-7.76152
yAH	-7.76261
▁ud	-7.76266
ARAM	-7.76405
▁Aha	-7.76446
▁kfta	-7.76607
E	-7.76927
to	-7.77377
tra	-7.77709
▁nAma	-7.78758
▁nir	-7.79495
▁kar	-7.8006
taH	-7.81079
at	-7.812
nu	-7.81347
ayaH	-7.817
▁para	-7.81736
▁c	-7.81938
▁ka	-7.81956
▁bala	-7.82096
kar	-7.83344
▁n	-7.84006
▁nara	-7.84396
▁k	-7.84467
ate	-7.84636
et	-7.84725
Ra	-7.84767
▁asti	-7.8505
ASca	-7.85518
▁kAma	-7.85569
▁arTa	-7.86205
▁Bavizyati	-7.86629
▁sarv	-7.86655
▁kuru	-7.86948
Di	-7.87124
▁jagat	-7.87466
▁adya	-7.87528
▁et	-7.87579
uH	-7.87989
▁sv	-7.88268
▁ava	-7.88401
q	-7.88641
R	-7.88691
van	-7.88965
▁AtmA	-7.89316
Ami	-7.89477
▁tAm	-7.89973
ru	-7.90033
ca	-7.90046
▁pitta	-7.90175
yukt	-7.90291
▁an	-7.90451
nam	-7.90472
RA	-7.90726
idaM	-7.90978
▁SfRu	-7.91172
▁evaM	-7.91732
▁svayam	-7.92349
ati	-7.92912
DA	-7.92992
ad	-7.9307
▁Palam	-7.93315
▁paYca	-7.93602
▁kuryAt	-7.93851
▁puruza	-7.94223
▁uktam	-7.9434
▁vAta	-7.94593
▁pApa	-7.94601
▁nfpa	-7.95255
▁kftam	-7.95952
▁indra	-7.96231
▁UcuH	-7.96658
▁putr	-7.9667
▁samA	-7.96851
▁BUta	-7.96856
opa	-7.97122
kaH	-7.97143
▁raRe	-7.97261
ras	-7.98268
haM	-7.9844
▁tapaH	-7.98572
▁kAle	-7.98722
▁vya	-7.98769
▁BIzma	-7.99278
▁Atma	-7.99496
ur	-7.99957
▁uttamam	-8.00118
eva	-8.00285
▁guRa	-8.00516
▁Pala	-8.00572
▁vacaH	-8.00731
b	-8.00768
▁mahAn	-8.00844
▁vESaMpAyana	-8.00866
Bir	-8.014
▁rakta	-8.01713
ke	-8.01894
▁ete	-8.0204
▁sUtaH	-8.02347
▁vAkyam	-8.03112
▁yena	-8.03581
▁Bavanti	-8.03806
▁brahmA	-8.0387
▁kfzRa	-8.04004
▁p	-8.04026
▁tasmAt	-8.04406
lA	-8.04498
vya	-8.05416
anam	-8.05671
ne	-8.06729
tar	-8.07049
naH	-8.07054
▁muni	-8.07625
▁prA	-8.08466
▁pitA	-8.08603
nI	-8.08823
eByaH	-8.10255
ArTa	-8.10365
▁g	-8.10862
▁tAta	-8.10995
hit	-8.11269
▁vidyA	-8.11276
yoH	-8.11431
syA	-8.1149
▁kaTaM	-8.11607
ScEva	-8.11637
▁mahAtmanaH	-8.11772
▁agni	-8.11983
▁Sakra	-8.11992
▁punar	-8.12076
▁smftaH	-8.12133
▁u	-8.12135
pad	-8.12482
Y	-8.12947
▁vara	-8.1296
pA	-8.13427
▁kAm	-8.13475
▁Barata	-8.13559
gam	-8.13581
yu	-8.13703
inaH	-8.14618
ir	-8.14668
Ava	-8.1469
▁hari	-8.14791
par	-8.14904
Ram	-8.15094
muK	-8.15114
▁kArya	-8.15207
▁jAt	-8.15243
▁asi	-8.15585
▁jYAna	-8.16192
▁vidyate	-8.16203
▁var	-8.16223
▁sma	-8.16946
bal	-8.17297
raR	-8.18008
Ng	-8.1813
▁vipra	-8.18141
nAm	-8.18474
▁brahmaR	-8.18805
▁d	-8.19022
ayoH	-8.19145
ve	-8.19167
▁DarmaH	-8.19828
▁tezAM	-8.19838
▁BavAn	-8.20358
Sa	-8.20763
▁Siva	-8.20798
▁kriyA	-8.21087
kAr	-8.21134
▁kA	-8.2148
ed	-8.2169
tAm	-8.21865
▁tO	-8.22326
▁naraH	-8.22565
jan	-8.22848
▁prApya	-8.23485
Dar	-8.23505
cAr	-8.2354
▁so	-8.23761
▁doza	-8.24034
▁yajYa	-8.24091
▁pitf	-8.24173
▁rUpa	-8.24397
BAv	-8.25094
▁sarvAn	-8.25303
G	-8.25311
sa	-8.25421
▁kaPa	-8.25999
▁maDye	-8.26018
▁gataH	-8.26022
sO	-8.26144
▁hema	-8.26185
▁yajY	-8.26253
▁pAp	-8.26296
▁go	-8.2635
▁strI	-8.26551
▁uktaH	-8.26576
▁nAnA	-8.26775
▁balam	-8.26902
ga	-8.27038
▁yoga	-8.27043
▁va	-8.2714
▁sura	-8.27199
dAn	-8.27359
ESca	-8.27455
▁sarvezAm	-8.27547
▁AtmanaH	-8.27751
▁apa	-8.27764
tI	-8.28207
▁ataH	-8.28236
▁yAvat	-8.28463
▁Bava	-8.28536
▁divya	-8.28601
▁etad	-8.2862
pat	-8.28653
▁mArkaRqeyaH	-8.28788
gat	-8.28896
In	-8.28934
▁manaH	-8.28963
▁kAl	-8.28983
▁ut	-8.29689
▁raTa	-8.29875
▁kAryam	-8.30251
▁BIma	-8.30282
dya	-8.30338
ba	-8.30343
car	-8.30423
▁sapta	-8.30497
▁BU	-8.30498
▁vipr	-8.30522
▁yukt	-8.31227
▁tapasA	-8.31267
▁pArTa	-8.31304
▁BAv	-8.31347
▁mft	-8.31484
▁gatvA	-8.3157
guR	-8.31761
Eva	-8.31891
itA	-8.31894
jA	-8.31901
▁kanyA	-8.3195
kA	-8.32141
▁pfTak	-8.32151
▁jala	-8.32172
▁parA	-8.32225
AtmA	-8.32333
▁vIra	-8.32475
▁vinA	-8.32534
▁aBavat	-8.32593
▁karmaRA	-8.32702
yAM	-8.32742
▁satyam	-8.32788
▁B	-8.32914
akaH	-8.33231
▁devAH	-8.33253
yog	-8.33446
▁Dan	-8.33695
▁deha	-8.33738
▁j	-8.33797
▁ved	-8.33956
kaM	-8.33975
▁soma	-8.34394
▁rudra	-8.34883
▁tvAm	-8.34933
▁anyat	-8.35389
ko	-8.35396
▁aBya	-8.3545
▁nAga	-8.3556
nti	-8.356
sva	-8.35609
▁taTEva	-8.35625
▁maDu	-8.35681
▁Sata	-8.35744
▁sarvaM	-8.35815
▁candra	-8.35847
zW	-8.35852
▁arT	-8.35879
▁hya	-8.361
man	-8.36128
▁kva	-8.36138
naM	-8.36356
kram	-8.36364
▁ya	-8.36437
lam	-8.36662
▁vizRu	-8.36707
putr	-8.3707
Ba	-8.37207
▁uktvA	-8.3734
ava	-8.37353
▁ja	-8.37548
▁yog	-8.37721
▁puRya	-8.38289
▁brAhmaRa	-8.38521
▁Adi	-8.39297
▁BIzmaH	-8.3942
vit	-8.39447
aye	-8.39453
▁manasA	-8.39637
▁fzaBa	-8.39817
▁anena	-8.39984
▁kula	-8.40076
▁SUr	-8.40101
▁prajA	-8.40279
▁priya	-8.40391
▁dvi	-8.40476
vAn	-8.40499
▁nihat	-8.40504
pya	-8.40679
Gn	-8.41294
itam	-8.41314
zw	-8.41507
▁tA	-8.41692
▁mantra	-8.42152
Su	-8.42337
▁ganDa	-8.42345
▁mantr	-8.42544
Dan	-8.42554
raM	-8.42569
▁kaH	-8.42598
▁doz	-8.42686
▁puzpa	-8.42729
▁daSa	-8.42782
yan	-8.42823
um	-8.42938
▁sUrya	-8.43156
▁paSya	-8.43357
kAm	-8.43402
▁kAraRam	-8.43756
▁pAda	-8.43805
akam	-8.44097
▁anye	-8.44201
▁vizam	-8.4446
rI	-8.44634
▁lok	-8.4476
▁praBuH	-8.44818
▁cet	-8.44926
AMS	-8.44933
▁syAd	-8.45006
▁yuDizWira	-8.45032
▁cApi	-8.45036
jY	-8.45676
sam	-8.45722
▁ahaM	-8.45798
yAni	-8.45801
sti	-8.45882
AR	-8.45959
▁asO	-8.45997
▁l	-8.46229
ap	-8.46466
ste	-8.46741
▁devI	-8.46748
▁paraM	-8.46897
zwa	-8.4703
▁AtmAnam	-8.47228
▁ras	-8.47339
en	-8.4738
▁pARqu	-8.47579
nta	-8.47641
▁tan	-8.47748
ArT	-8.47908
▁ko	-8.47914
▁tvA	-8.48084
dA	-8.48291
▁har	-8.48443
BAg	-8.485
dev	-8.48571
▁catur	-8.48613
▁dAn	-8.48696
▁BUtvA	-8.48751
▁mAM	-8.48892
▁snAtvA	-8.48946
▁dattvA	-8.49126
▁t	-8.49273
yAd	-8.49434
▁asmi	-8.49517
rUp	-8.49798
▁jagAma	-8.49834
yAn	-8.49852
▁viza	-8.49935
▁raT	-8.49945
▁jYAtvA	-8.50065
▁sADu	-8.50107
vftt	-8.50156
▁tasyA	-8.50276
▁tIrT	-8.50601
nya	-8.50662
▁padam	-8.50686
pAl	-8.50912
▁SudDa	-8.51271
▁dadyAt	-8.51294
▁gfh	-8.51333
▁Sveta	-8.51484
▁yam	-8.51526
▁suKa	-8.51561
▁dam	-8.51783
yante	-8.51786
▁svarga	-8.51953
eta	-8.52094
▁Sara	-8.52158
▁Darm	-8.52192
Al	-8.52264
▁budDi	-8.52389
▁vajra	-8.52507
avaH	-8.52559
▁rUpam	-8.52726
▁BUtAnAm	-8.53024
▁varza	-8.53095
AByAm	-8.53125
▁laGu	-8.53151
▁mahAdeva	-8.53232
▁varaH	-8.5385
▁tAM	-8.53895
▁rUp	-8.53997
se	-8.54
▁dvija	-8.54179
▁tAvat	-8.5439
tuH	-8.54445
▁rAkzas	-8.5476
▁pfTivI	-8.54837
▁ek	-8.54917
▁pArT	-8.5506
pAt	-8.55163
▁baBUva	-8.55313
▁BUmi	-8.55319
▁sarvaSaH	-8.55403
▁mAnuz	-8.556
no	-8.55926
st	-8.55932
staTA	-8.56059
smE	-8.56311
▁gacCati	-8.56603
smi	-8.56686
▁sahit	-8.56789
▁gatim	-8.56874
▁yAti	-8.57144
le	-8.57389
▁rAkzasa	-8.57494
Bft	-8.57579
Pal	-8.57601
▁kArayet	-8.57602
▁AsIt	-8.57874
rUpa	-8.57955
▁sidD	-8.57956
▁prAR	-8.57972
varR	-8.57999
▁vana	-8.58072
jit	-8.58558
▁sattva	-8.5856
▁kurute	-8.58573
▁samyak	-8.58619
▁arhasi	-8.59147
▁dfSyate	-8.59318
▁sidDi	-8.59779
▁pA	-8.59949
▁viSva	-8.59949
▁mokza	-8.60027
yuH	-8.60035
▁Satam	-8.60337
▁prARa	-8.60376
▁smftam	-8.60433
▁hitam	-8.60538
kza	-8.60687
iBiH	-8.60755
Sc	-8.60859
▁jaya	-8.60963
▁Satru	-8.60981
▁suKam	-8.61012
Aha	-8.61118
endr	-8.61267
▁parvat	-8.61299
▁ekam	-8.61307
▁ISvaraH	-8.61535
▁fzi	-8.61733
▁vane	-8.61845
▁brUhi	-8.61859
▁arTaH	-8.6187
▁sEny	-8.62023
▁aNga	-8.62043
▁veg	-8.62125
▁tezu	-8.62184
▁Sa	-8.62362
▁antar	-8.62397
ikA	-8.62412
▁Dana	-8.62457
▁praBo	-8.62467
▁sTit	-8.62492
▁janma	-8.62587
yat	-8.62685
▁brAhmaR	-8.62997
ScA	-8.63116
▁kawu	-8.63181
▁mfdu	-8.632
▁kila	-8.63465
▁jarA	-8.6348
▁varR	-8.6352
▁sarvA	-8.63555
▁vAkya	-8.63601
▁karoti	-8.63601
▁devaH	-8.63624
vAsa	-8.63706
sta	-8.63707
▁sahasra	-8.63799
AMSca	-8.63853
Nk	-8.63943
patt	-8.64044
sar	-8.64096
▁jan	-8.64404
▁paramam	-8.64456
ud	-8.64614
▁Sakti	-8.6466
banD	-8.64678
▁nArAyaRa	-8.64754
reRa	-8.64887
▁avi	-8.64923
▁jYAnam	-8.64959
▁mfga	-8.6501
▁divy	-8.65139
▁samam	-8.65142
▁suK	-8.65171
▁vaH	-8.65193
▁tIrTa	-8.65199
▁astu	-8.65313
▁sattama	-8.65402
▁puruzaH	-8.65535
▁tAni	-8.65757
▁ana	-8.6627
Da	-8.66346
▁puRy	-8.66716
jaH	-8.66761
▁pIta	-8.6704
▁Sukra	-8.67056
ES	-8.67103
▁Sar	-8.67104
▁mAyA	-8.67108
▁nu	-8.67138
▁laBate	-8.67158
▁par	-8.6716
▁devA	-8.6729
▁icCAmi	-8.67429
▁kuSal	-8.67553
ty	-8.67562
Bya	-8.67579
▁anyaTA	-8.67591
▁droRa	-8.6769
So	-8.67748
▁giri	-8.67965
▁manye	-8.68093
▁gatiH	-8.68122
▁mUla	-8.6816
▁lakzaRam	-8.68347
▁ma	-8.68402
▁varam	-8.68462
vAd	-8.68654
Rq	-8.68775
BU	-8.68951
▁paraH	-8.69107
▁pate	-8.69212
sTa	-8.69246
sy	-8.69287
▁sutaH	-8.69312
vet	-8.69375
▁jYAn	-8.6954
▁vIr	-8.69688
▁tuzw	-8.69758
▁Sizy	-8.69872
▁BUtAni	-8.69906
api	-8.6992
Bavat	-8.69977
Ri	-8.70031
▁SAnt	-8.70224
karma	-8.70363
▁kartum	-8.7042
▁SAstra	-8.70447
▁Basma	-8.70487
▁vartate	-8.70514
vI	-8.70517
▁sidDa	-8.70547
itaH	-8.70669
▁asmin	-8.70734
▁ukta	-8.70741
▁pArTiva	-8.70792
▁pacet	-8.70828
▁padma	-8.70862
iti	-8.71252
AdAya	-8.71287
▁azwa	-8.71294
▁hanti	-8.71361
▁AhuH	-8.71407
ane	-8.71454
Re	-8.71474
▁alpa	-8.71709
rARi	-8.71765
▁loha	-8.71877
Sat	-8.72029
▁bAl	-8.72046
Dy	-8.72136
▁dvij	-8.72182
deva	-8.72264
▁mardayet	-8.72286
▁SuBa	-8.72287
▁ekaH	-8.72475
▁vfdD	-8.72532
puw	-8.72626
yE	-8.72709
▁rasaH	-8.7273
yena	-8.72953
▁ezA	-8.72955
vrat	-8.73034
▁krudD	-8.73149
▁gacCa	-8.73249
Adi	-8.73268
▁tejasA	-8.73364
iRaH	-8.73485
▁rAvaR	-8.73486
yas	-8.73487
avi	-8.73497
▁SarIra	-8.73521
kAH	-8.73528
▁Bavat	-8.73645
▁SrezWa	-8.73721
▁vahni	-8.73764
▁samprApt	-8.73792
okt	-8.73882
dam	-8.73954
▁kftA	-8.74077
eti	-8.74146
gaR	-8.74277
vat	-8.74324
▁vada	-8.74379
▁viduH	-8.74381
▁Pal	-8.7462
▁yAn	-8.74675
yet	-8.74832
▁sTitaH	-8.74877
Darm	-8.74976
astu	-8.74983
▁karRa	-8.75138
hi	-8.75174
▁viDi	-8.75204
asi	-8.75275
▁Sak	-8.75285
▁Baya	-8.75323
▁jA	-8.75334
tAM	-8.75771
▁arjuna	-8.7583
pr	-8.75938
▁tIrTe	-8.75946
▁SIta	-8.76052
vE	-8.76059
Anu	-8.76062
▁duryoDana	-8.76156
▁nitya	-8.76462
▁vijYey	-8.76501
▁rAjya	-8.76606
▁varRa	-8.76713
ntar	-8.76734
Q	-8.76914
▁kartA	-8.76914
▁dur	-8.76917
▁ganDarva	-8.76974
ham	-8.77107
▁fzayaH	-8.77343
cca	-8.77386
▁vayam	-8.7741
pur	-8.77447
▁BAg	-8.77665
▁brAhmaRaH	-8.77699
▁BUyaH	-8.7776
▁vrat	-8.77895
▁sItA	-8.77902
▁Baved	-8.78029
asam	-8.78096
▁sarvatra	-8.78129
fR	-8.78147
▁Buvi	-8.7832
rTa	-8.78371
▁rAGava	-8.78437
AByA	-8.78569
▁vijay	-8.78629
▁Srut	-8.78676
▁BaktyA	-8.78726
smin	-8.78745
▁Darmam	-8.78768
▁SuBam	-8.78783
anta	-8.78914
▁mftyu	-8.79084
▁sneha	-8.79332
ByaH	-8.79533
▁mAtr	-8.79539
▁tEH	-8.79605
▁nadI	-8.79693
▁Soka	-8.80026
datt	-8.80171
sidD	-8.80263
▁kaTA	-8.8035
BA	-8.8039
▁daRqa	-8.80795
▁yudDe	-8.80816
▁BAva	-8.80884
gfh	-8.80942
vo	-8.81017
▁tattva	-8.81135
nna	-8.81142
▁vAnara	-8.81252
cit	-8.81312
statra	-8.81395
▁rAjyam	-8.81403
Sez	-8.81462
▁pAd	-8.81651
▁viD	-8.8167
▁hast	-8.81888
ata	-8.81963
daH	-8.81973
Bav	-8.82081
▁any	-8.82133
▁yuDizWiraH	-8.82177
▁mahAtmanA	-8.82219
▁mAtA	-8.82285
▁mahAtmAn	-8.82303
ci	-8.82399
vyA	-8.82467
▁jIva	-8.82507
▁tasyAH	-8.82518
mah	-8.82533
TA	-8.82609
▁mitra	-8.82714
▁maDyam	-8.82725
▁mAs	-8.82823
endra	-8.82835
nte	-8.82849
▁pARqavAH	-8.82852
vah	-8.82896
▁bal	-8.82961
▁ISvara	-8.83082
▁pARqava	-8.83183
▁aSva	-8.83248
▁mahI	-8.83263
▁mad	-8.83303
▁sarvadA	-8.83327
Bed	-8.83415
▁tvayi	-8.83423
▁ku	-8.8356
▁mahatA	-8.83667
▁kowi	-8.83968
▁arTe	-8.84066
▁Sat	-8.84076
ase	-8.84114
mukt	-8.84142
▁kroDa	-8.84152
darSan	-8.84192
▁maDura	-8.84211
▁dAna	-8.84243
▁kena	-8.8438
gni	-8.84471
▁Sastra	-8.84684
nAM	-8.84885
▁evA	-8.85116
▁bAhu	-8.85268
▁man	-8.8527
▁tayoH	-8.85321
▁v	-8.85399
▁vakzyAmi	-8.85406
▁citra	-8.85451
dD	-8.85491
▁muKy	-8.8553
▁Siv	-8.85702
▁Kalu	-8.85785
▁kOnteya	-8.85792
rAj	-8.86048
▁SUdr	-8.86089
▁dfQa	-8.86095
▁imam	-8.86105
▁sadfS	-8.86148
▁jap	-8.86203
▁vidDi	-8.86235
yEH	-8.86255
▁BImasena	-8.86362
▁mu	-8.86363
ataH	-8.86389
▁rAjYaH	-8.86412
▁narADipa	-8.86414
▁pravakzyAmi	-8.86444
raH	-8.86449
▁kalA	-8.86495
▁liNga	-8.8654
▁vAsudeva	-8.8656
pari	-8.86856
▁vAk	-8.8689
vid	-8.86929
▁amla	-8.8697
Rqa	-8.87042
▁narmadA	-8.87088
▁gadA	-8.87292
ovAca	-8.87463
▁bahUn	-8.87857
▁aTA	-8.87957
▁BUmO	-8.88125
▁Srutam	-8.88133
▁matiH	-8.88172
▁tulya	-8.88249
▁dadarSa	-8.88253
▁patit	-8.88256
▁sarvAR	-8.88375
▁garBa	-8.8842
▁aDi	-8.88522
▁devAnAm	-8.88568
▁Agam	-8.88583
▁agniH	-8.88601
▁kAlaH	-8.88664
▁divyam	-8.88784
▁b	-8.88928
▁mah	-8.88986
▁vaD	-8.89045
▁tAmra	-8.89058
DAr	-8.89083
Iti	-8.89151
▁pUjA	-8.89205
▁pARqav	-8.89277
▁bAla	-8.89321
▁SIt	-8.89585
▁Sabd	-8.897
▁sahasr	-8.89707
▁aBUt	-8.89726
di	-8.89866
▁gaNgA	-8.89868
ante	-8.89979
▁sahasrARi	-8.90073
▁karR	-8.90099
▁saMyog	-8.90137
▁niyam	-8.90219
▁puruz	-8.90429
▁sut	-8.90508
yatAm	-8.90579
stA	-8.90614
▁smftAH	-8.90693
▁saBA	-8.90752
vAh	-8.90868
▁mAMsa	-8.90871
▁yuktaH	-8.91121
▁kfzR	-8.91157
nAt	-8.91165
▁manuzy	-8.91322
hIn	-8.91399
▁viDinA	-8.91605
▁tyaktvA	-8.91692
▁gat	-8.91784
▁dAnam	-8.91872
▁sTAn	-8.91893
▁kftaH	-8.92056
▁svarRa	-8.92062
▁jana	-8.92086
▁deh	-8.92092
▁vIrya	-8.92163
▁Gora	-8.92191
▁gate	-8.92412
▁jAta	-8.9243
▁tapas	-8.92472
▁yasmAt	-8.92691
▁indr	-8.9279
grah	-8.92872
▁trayaH	-8.92912
▁dAnav	-8.93108
▁mAnas	-8.93155
bala	-8.93211
Pala	-8.93267
▁vftt	-8.93359
▁dfzw	-8.93409
▁prakfti	-8.93566
▁sarvAH	-8.93705
▁saMyuge	-8.93758
▁iyam	-8.93888
▁arhati	-8.93918
▁Bakti	-8.93927
▁Ka	-8.93968
▁mArkaRqeya	-8.94117
▁cakra	-8.94156
▁jyezW	-8.94214
hAr	-8.94341
▁tikta	-8.94437
▁dIrGa	-8.94439
▁nAsti	-8.94583
▁nArAyaR	-8.94585
ind	-8.94652
▁SudD	-8.94789
▁mayi	-8.94896
▁kAr	-8.94924
▁budDiH	-8.94956
▁viviDAn	-8.95065
▁aD	-8.95234
▁aNg	-8.95318
kAS	-8.9532
▁prAha	-8.95333
BAz	-8.95347
het	-8.95565
inAm	-8.95937
▁Sez	-8.9599
▁kzIra	-8.96
kul	-8.96079
tum	-8.96169
asyA	-8.96253
▁deSa	-8.96293
▁BrAtar	-8.96332
jAt	-8.9638
▁ante	-8.96423
▁SilA	-8.9663
▁snigDa	-8.96654
▁SAl	-8.96739
▁sampann	-8.96772
▁vyADi	-8.96894
▁tAra	-8.96927
▁guruH	-8.96971
▁anyaH	-8.97001
yur	-8.97194
▁anna	-8.97201
▁nArada	-8.97217
▁SaNKa	-8.97311
▁om	-8.97368
▁dAha	-8.97421
ran	-8.97428
pan	-8.97572
▁tizWati	-8.97582
▁lokam	-8.97749
▁prIti	-8.97807
▁yuDi	-8.97834
upa	-8.97885
▁vit	-8.97972
mArkaRqeya	-8.98019
▁namo	-8.9803
▁nIla	-8.98086
▁bali	-8.9817
▁BIm	-8.98238
gaman	-8.98249
▁vikAr	-8.98382
▁gaR	-8.98537
hat	-8.98571
▁ity	-8.98647
▁gatAH	-8.98701
loka	-8.98746
san	-8.98759
▁DArtarAzwr	-8.98774
▁badDa	-8.98897
▁yAnti	-8.98924
viz	-8.99105
▁kazAy	-8.99156
ntu	-8.99243
▁tatrA	-8.99277
priy	-8.9932
▁rAjYA	-8.99336
asT	-8.99347
Atma	-8.99352
SA	-8.99433
Ro	-8.99481
▁ap	-8.99493
▁datta	-8.99512
▁vAsa	-8.99576
kalp	-8.99584
▁sarvezA	-8.99611
▁yuktam	-8.99652
▁som	-8.99653
samA	-8.99681
▁yuga	-8.99686
Anvit	-8.9992
nir	-9.00114
▁manda	-9.00182
▁gatA	-9.00202
▁devatA	-9.00244
▁pitAmaha	-9.00413
▁DftarAzwra	-9.00478
▁iv	-9.00515
▁nfp	-9.00625
▁sparSa	-9.00638
▁h	-9.00651
▁yudDa	-9.00679
atAm	-9.00702
▁sUt	-9.0077
yeta	-9.0077
▁sahasraSaH	-9.0091
▁praTama	-9.00911
▁karmARi	-9.00921
eR	-9.01167
▁trizu	-9.01173
RaM	-9.01313
▁vanam	-9.01343
▁vAyu	-9.01667
▁pUjayet	-9.01721
▁Bayam	-9.01735
▁up	-9.01781
▁kAraR	-9.01822
jAn	-9.01839
▁priyam	-9.01899
▁muKa	-9.01905
▁BavatA	-9.01965
▁nAg	-9.01989
▁vyAsa	-9.02002
vAr	-9.02019
jIv	-9.02059
▁siMha	-9.0212
▁dve	-9.02153
▁sTAnam	-9.02185
▁yudDam	-9.02302
▁gata	-9.0233
▁maRi	-9.02378
▁yaj	-9.0239
budD	-9.02481
tur	-9.02487
▁pibet	-9.02504
ayo	-9.02595
▁kzatra	-9.02656
▁gaj	-9.02743
asva	-9.02756
▁kfcCr	-9.02821
krAnt	-9.02836
jYAt	-9.02875
▁suvarRa	-9.02961
▁dakziRA	-9.02991
▁devam	-9.03013
ottama	-9.03066
▁nAS	-9.03073
▁maheSvaraH	-9.03106
▁dvO	-9.03271
din	-9.03381
▁hita	-9.03437
agn	-9.0346
▁viz	-9.03511
ved	-9.03538
▁uttara	-9.03748
▁SrezWaH	-9.03843
▁Sabda	-9.03879
▁viviD	-9.03893
Aste	-9.03928
▁ivA	-9.0393
▁sAkzAt	-9.04074
▁vartamAn	-9.04078
▁cakAra	-9.0409
▁taT	-9.04153
▁may	-9.0416
▁kzatriy	-9.04169
Acca	-9.04188
▁deS	-9.04217
▁hatvA	-9.04221
▁kazAya	-9.0427
boD	-9.04276
aScA	-9.04378
vaD	-9.04468
yati	-9.04471
AMs	-9.04637
▁kfte	-9.04653
▁SarEH	-9.04694
▁vizRuH	-9.04778
▁BUt	-9.05015
▁vAyuH	-9.05061
▁itihAsa	-9.05062
AyuD	-9.05077
▁anuttamam	-9.05311
▁yasmin	-9.05326
▁sanAtanaH	-9.05342
▁ganD	-9.05348
▁dravya	-9.0548
▁AtmanA	-9.05503
▁pakz	-9.05503
eSvar	-9.05585
ire	-9.05673
▁kIrti	-9.05715
▁roga	-9.0574
stadA	-9.05813
▁dvijAH	-9.05886
▁dey	-9.0591
▁fte	-9.06157
pal	-9.06172
▁etAn	-9.06179
Uz	-9.06183
▁rAjy	-9.06482
▁pituH	-9.0652
▁puRyam	-9.06685
tO	-9.06687
▁indriya	-9.06849
▁samudr	-9.06873
patiH	-9.0699
▁hata	-9.0708
kriyA	-9.0713
▁cAtra	-9.07207
doz	-9.07278
▁van	-9.07326
▁D	-9.0734
laM	-9.07478
▁SuBA	-9.0749
▁jIvitam	-9.07538
kzA	-9.07557
drav	-9.07596
▁SUla	-9.07632
▁krama	-9.07647
▁vaktum	-9.07697
▁upAy	-9.07795
tvA	-9.07805
▁aS	-9.07828
▁anya	-9.07834
▁pApam	-9.07927
rat	-9.08011
▁drav	-9.08113
yut	-9.08167
▁uzRa	-9.08224
▁vizay	-9.08226
▁dviguR	-9.08246
▁nAradaH	-9.0834
▁guRAH	-9.08382
▁sfzw	-9.08427
▁hy	-9.08433
▁kalp	-9.08505
kf	-9.08557
▁svAdu	-9.08613
ut	-9.08629
▁pitAmahaH	-9.08641
▁Asan	-9.08698
▁pravartate	-9.08717
RAm	-9.08846
▁dAnava	-9.08913
▁AyuH	-9.09144
deSa	-9.09195
▁priyA	-9.0927
▁SAnti	-9.09305
▁dadO	-9.09335
mUl	-9.09344
▁vfdDi	-9.09427
▁zaw	-9.09445
▁Bavant	-9.09447
▁vApi	-9.09609
▁dvijaH	-9.09615
inA	-9.09697
▁anyatra	-9.0973
▁droR	-9.09744
▁indraH	-9.0977
▁deveSa	-9.09827
▁han	-9.09845
rUpiR	-9.09858
▁sAgar	-9.09931
▁oM	-9.10014
kAra	-9.10022
▁brahm	-9.10088
▁mUl	-9.10226
▁kAlam	-9.10251
▁arjunaH	-9.10276
▁dad	-9.10298
▁BaratarzaBa	-9.10299
▁tapo	-9.10306
sTit	-9.10308
▁uttama	-9.10431
rAg	-9.10469
▁vikram	-9.10522
San	-9.10541
▁janAH	-9.10625
▁sUkzma	-9.10746
▁paSu	-9.10747
▁ra	-9.10774
▁Bed	-9.10834
▁Sakt	-9.10963
▁jit	-9.11099
▁yama	-9.11198
▁jita	-9.11242
▁jIvit	-9.11283
▁mUtra	-9.11459
pe	-9.11476
deS	-9.11484
▁no	-9.11518
lo	-9.11582
▁brAhmaRAH	-9.11583
▁aMS	-9.11617
▁mucyate	-9.11627
ganD	-9.11637
▁ASu	-9.11747
nty	-9.11897
▁Aditya	-9.11927
▁arka	-9.12048
badD	-9.12062
▁pARi	-9.12073
▁ar	-9.12213
▁SuciH	-9.12231
ByAm	-9.12279
up	-9.12304
▁jIv	-9.12305
▁dA	-9.12536
ave	-9.12625
▁darSanam	-9.12628
▁rAvaRa	-9.12746
lpa	-9.1283
▁muniH	-9.12854
▁vasu	-9.1288
▁rog	-9.12913
▁tIrTam	-9.12916
▁guREH	-9.12922
▁guR	-9.12941
▁dravy	-9.12957
pati	-9.12967
▁sUry	-9.12972
▁ev	-9.13064
▁ratna	-9.13089
▁bAR	-9.13156
▁viDiH	-9.13198
yata	-9.13208
▁sev	-9.13281
InAm	-9.13282
▁nAmnA	-9.13388
▁vid	-9.1339
▁mano	-9.13407
▁tayA	-9.1341
▁Bojan	-9.13503
kal	-9.13536
agrAha	-9.13572
▁prajAH	-9.13623
kEH	-9.13691
AyA	-9.13799
banDa	-9.13804
▁kalpa	-9.13818
▁putrAH	-9.13907
▁guRAn	-9.13912
▁vAnar	-9.14139
lakz	-9.14179
▁dEtya	-9.14199
Bakt	-9.14234
stva	-9.14297
▁harza	-9.14574
▁banDu	-9.14647
tf	-9.14674
yeva	-9.14879
astaTA	-9.15063
▁jay	-9.15068
▁budDyA	-9.15086
▁mahAtmanAm	-9.15094
ze	-9.15107
Yc	-9.15148
yantr	-9.15175
varRa	-9.15187
mAtr	-9.15214
▁nivftt	-9.15305
▁dvitIy	-9.15411
▁sAra	-9.15455
▁SivaH	-9.15487
go	-9.15489
▁sneh	-9.15504
▁pAYcAl	-9.15574
▁prApta	-9.15582
▁vimAn	-9.15588
▁aDarm	-9.15622
dana	-9.15639
bravIt	-9.15644
▁dAruR	-9.15649
▁itar	-9.15656
▁yakz	-9.15789
Bram	-9.1597
kAle	-9.15979
hft	-9.16003
▁aSv	-9.16022
▁SarIr	-9.16131
▁amita	-9.16174
▁yudD	-9.16176
▁maRqal	-9.1635
▁kartavyam	-9.1637
▁priye	-9.16528
▁senA	-9.1658
▁Bav	-9.16609
▁kzamA	-9.16651
jYA	-9.16716
▁lakzaR	-9.1674
▁gaja	-9.16931
kAn	-9.16945
▁pravftt	-9.16989
enEva	-9.17006
Darma	-9.17021
ANga	-9.17058
puruz	-9.17065
▁adButam	-9.17149
▁sTitam	-9.17313
Ek	-9.17325
Nga	-9.17363
▁rudr	-9.1741
sAra	-9.1742
▁dinam	-9.17467
▁syuH	-9.17532
▁dvAr	-9.17571
pAk	-9.176
▁maDya	-9.17607
Sva	-9.17608
aScEva	-9.17613
▁ASram	-9.17648
▁vAma	-9.17686
▁cakre	-9.17727
▁nEva	-9.17745
▁samaH	-9.17754
rza	-9.17943
sTAn	-9.18139
▁prasAd	-9.18159
▁jal	-9.18238
ucyate	-9.1835
▁hIna	-9.18422
▁patiH	-9.18425
eByo	-9.18479
RaH	-9.18512
▁DAray	-9.18527
▁kapi	-9.18545
▁vESampAyana	-9.18656
sama	-9.1868
▁puzp	-9.18717
▁antare	-9.18719
▁ke	-9.18734
▁purAtana	-9.18815
▁gA	-9.18829
▁hariH	-9.18885
▁lokAn	-9.1896
▁vftaH	-9.1899
inI	-9.18993
▁AhAra	-9.19017
▁bahavaH	-9.19047
yajY	-9.1912
▁darSan	-9.19138
fzw	-9.19256
▁AgataH	-9.19264
locan	-9.19273
▁prajApatiH	-9.19278
rzaB	-9.19289
▁tv	-9.19335
▁sugrIva	-9.19491
▁hetu	-9.19509
▁jIvati	-9.19528
▁bIja	-9.19531
kara	-9.19572
▁svayaM	-9.19573
▁jIvan	-9.19575
atA	-9.19593
▁avApnoti	-9.19607
doza	-9.19639
▁niyat	-9.19696
▁Slezma	-9.1971
▁tAH	-9.19746
mUr	-9.19762
liNg	-9.19784
▁vfkz	-9.1988
▁kAraRa	-9.19984
▁miTyA	-9.20194
▁pannag	-9.20194
▁dEva	-9.20197
▁rakz	-9.20202
yanta	-9.20226
hast	-9.20312
rAja	-9.2033
▁daRq	-9.20541
▁yasyA	-9.20578
DI	-9.20643
▁Badra	-9.20707
▁prayog	-9.2074
▁BImasen	-9.20744
lok	-9.20782
▁sur	-9.20811
▁kuryAd	-9.209
▁prajYA	-9.2092
▁Srotum	-9.20934
▁Danam	-9.21078
▁uttamA	-9.21093
▁yaT	-9.21126
▁kasmAt	-9.21165
▁yayO	-9.21172
▁yug	-9.21195
▁kAnta	-9.21208
sidDi	-9.21248
▁vAcA	-9.21386
▁vyAGra	-9.21439
GAt	-9.21442
▁prARAn	-9.21592
▁lavaRa	-9.21613
▁gfhItvA	-9.21625
▁imAm	-9.21628
▁SIla	-9.21697
▁sadyaH	-9.2172
▁arDa	-9.21783
meva	-9.21881
▁astra	-9.22119
▁striyaH	-9.22145
SrezW	-9.22245
▁tejaH	-9.22246
▁antaH	-9.2227
mAnam	-9.22306
▁vAky	-9.22399
zi	-9.22482
▁tizWa	-9.22491
▁mada	-9.22567
vIr	-9.22571
▁ASrama	-9.22597
yase	-9.22624
▁dfzwi	-9.22668
▁proktam	-9.22682
Atmak	-9.22696
DAva	-9.22703
Anya	-9.22715
tIrT	-9.22858
▁piRqa	-9.2299
▁rAGavaH	-9.231
pI	-9.23141
▁dEty	-9.23343
kAl	-9.23369
uz	-9.23385
iRAm	-9.23555
▁liNg	-9.2357
Agni	-9.23608
▁maNgal	-9.23659
plav	-9.23674
▁keSava	-9.23688
▁tIkzR	-9.23818
▁parvata	-9.23875
▁rAjAnam	-9.24029
▁mAnavaH	-9.24051
vft	-9.24084
Apa	-9.24194
▁DftarAzwraH	-9.24199
▁ced	-9.24209
▁viSv	-9.24251
▁annam	-9.24266
▁kAYcanam	-9.2427
▁kasya	-9.24436
paS	-9.24443
▁BrAtA	-9.24542
▁prApnoti	-9.24606
gar	-9.2466
▁mADava	-9.24678
▁dakziRa	-9.24691
InAM	-9.24748
▁tasmAd	-9.24752
praB	-9.24803
▁vyAsaH	-9.24868
▁kAry	-9.2495
▁vas	-9.25009
▁rAjendra	-9.25038
▁Bfgu	-9.25039
▁proktA	-9.25147
▁aja	-9.25148
varg	-9.25173
▁asmAkam	-9.25194
▁mala	-9.25358
▁jYaH	-9.2538
yAs	-9.25388
yor	-9.25434
▁puwa	-9.25485
▁sarvaTA	-9.25511
ku	-9.2557
Antar	-9.2577
stasya	-9.25843
▁ambu	-9.25866
▁grah	-9.25872
▁DarmeRa	-9.25901
vizw	-9.26016
▁jvara	-9.26093
veg	-9.26111
▁DyAna	-9.26127
▁Darme	-9.26168
▁ezAm	-9.26176
▁putram	-9.26194
▁sOmya	-9.26281
vfdD	-9.26376
gA	-9.26417
tAH	-9.26448
SIl	-9.26488
▁DAtu	-9.26505
▁Gfta	-9.26523
▁avApnuy	-9.26541
▁yoD	-9.26544
▁karizyAmi	-9.26562
miti	-9.26615
▁drazwum	-9.26742
▁yakza	-9.2676
▁viSez	-9.26787
SaNk	-9.26804
Asu	-9.26835
viS	-9.26838
▁diSaH	-9.2684
▁parityaj	-9.27
stvaM	-9.27009
▁SUdra	-9.27022
▁santi	-9.27048
▁sveda	-9.27057
ayor	-9.27066
▁viSeza	-9.2708
▁trayam	-9.27101
jam	-9.27112
▁yaTAviDi	-9.27216
▁purAR	-9.27217
prati	-9.27254
▁BUzaR	-9.27314
yO	-9.27443
▁Gor	-9.27451
▁upA	-9.27548
▁sat	-9.27557
▁as	-9.27566
▁atr	-9.27589
▁pati	-9.27601
▁lakzmaRa	-9.27684
▁kzIr	-9.27707
ayaM	-9.27833
mft	-9.2784
Ga	-9.27908
▁lakzmaR	-9.27989
▁gaRa	-9.27995
▁siMh	-9.27998
cint	-9.28003
muttamam	-9.28054
zwA	-9.28127
AhAr	-9.28159
▁pitt	-9.28183
hAra	-9.28201
▁parasparam	-9.28288
▁durlaB	-9.28296
▁agr	-9.28316
▁sad	-9.28335
▁droRaH	-9.28415
▁kule	-9.28521
▁yogena	-9.28579
▁Sayan	-9.28645
rog	-9.28729
sfj	-9.28769
▁uzR	-9.28875
Ante	-9.28891
▁narAH	-9.28912
▁SASvat	-9.28937
▁mAtrA	-9.29046
Srut	-9.29109
▁BavitA	-9.29117
▁fzaya	-9.29164
▁pUrv	-9.29187
▁nava	-9.29245
▁Apnoti	-9.29294
▁vAg	-9.29296
▁gar	-9.29346
tal	-9.29469
karaR	-9.29469
OzaD	-9.29516
asy	-9.29517
▁vfza	-9.2955
RAM	-9.29551
▁viS	-9.29567
arT	-9.29575
▁mfd	-9.2958
▁mArga	-9.29667
▁guhya	-9.29759
Ngul	-9.29784
▁tEla	-9.29912
▁kumAr	-9.29937
▁devadev	-9.29947
▁lokasya	-9.29957
uzka	-9.29976
▁samarT	-9.30003
▁putro	-9.30065
parA	-9.3007
▁mokz	-9.30075
▁tIkzRa	-9.30094
▁vatsa	-9.30141
De	-9.3019
▁janamejaya	-9.30219
dru	-9.30236
▁SoRita	-9.30372
▁Salya	-9.30464
▁vidvAn	-9.3068
▁ravi	-9.30682
ezva	-9.30685
▁tvad	-9.3081
vas	-9.30866
izu	-9.30908
▁kroD	-9.30935
▁kanaka	-9.31189
▁anta	-9.31381
rav	-9.31441
P	-9.31453
dy	-9.31485
samBav	-9.31532
AyAm	-9.31545
▁nABi	-9.31633
▁pUt	-9.31714
▁trElokya	-9.31808
▁snAna	-9.31813
BAva	-9.31873
dfzw	-9.31898
▁Darmo	-9.32041
yezu	-9.32072
▁BartA	-9.32139
▁rajaH	-9.32243
▁rati	-9.3225
▁pARqavAn	-9.3227
▁kavac	-9.32302
raj	-9.32309
▁mataH	-9.32335
tasya	-9.32342
▁vratam	-9.3236
▁vAri	-9.32361
▁SrezW	-9.32383
▁aDik	-9.32429
SudD	-9.32457
izyati	-9.3246
▁pARqavaH	-9.32461
mAnaH	-9.32506
hA	-9.3251
▁rUpeRa	-9.32511
▁kzaya	-9.32696
▁ekA	-9.32725
jYAn	-9.32726
▁pavitr	-9.32774
stava	-9.32779
▁jAyante	-9.3281
▁sarga	-9.32845
▁karam	-9.32857
▁caturTa	-9.32899
▁uttar	-9.32902
guRa	-9.33045
▁vihita	-9.33082
▁citta	-9.33172
pAd	-9.33188
▁citr	-9.33269
purARe	-9.33279
▁snAt	-9.33325
▁suhfd	-9.33433
tyAg	-9.33462
▁Bog	-9.33513
▁brahmaRA	-9.33536
▁pArTiv	-9.33574
▁nidrA	-9.33603
kfzw	-9.3369
▁dagD	-9.33734
▁uttaram	-9.33793
▁ime	-9.33903
▁mune	-9.33908
▁Binna	-9.33921
▁lavaR	-9.3394
▁kurvanti	-9.34018
▁yuge	-9.34025
▁tila	-9.34033
kra	-9.34092
▁viSAm	-9.3411
▁amar	-9.34147
▁svam	-9.34185
▁kurvan	-9.34216
▁sidDim	-9.34217
itAH	-9.34243
▁labDa	-9.34305
diS	-9.34354
▁SiraH	-9.34399
▁manuH	-9.34502
▁praBA	-9.34518
▁vfz	-9.3453
lamb	-9.34543
▁cEt	-9.34549
jvar	-9.34574
▁muhUrt	-9.34599
▁gfhasT	-9.34601
yug	-9.34741
tvam	-9.3476
sahasr	-9.34784
RI	-9.34802
▁pal	-9.34832
Un	-9.34938
▁vizRoH	-9.34942
eSa	-9.35006
▁jAti	-9.35025
▁ugra	-9.35087
▁sattvam	-9.35136
▁kratu	-9.35137
▁dEv	-9.35259
▁hara	-9.35354
▁anaGa	-9.35413
▁jale	-9.35486
▁jaNgam	-9.35493
▁pratyuvAca	-9.35496
▁icCasi	-9.35529
▁mArut	-9.35661
grAh	-9.35671
▁SabdaH	-9.35681
▁vistar	-9.35698
Dam	-9.35741
▁nirmit	-9.35779
▁yaSaH	-9.35838
▁BUtezu	-9.3584
▁samAhitaH	-9.35845
▁uktA	-9.35854
▁Sok	-9.3591
▁viDIyate	-9.36044
▁rUkza	-9.36067
▁devo	-9.36081
▁SEl	-9.36133
▁marty	-9.36155
sAr	-9.36173
N	-9.36187
dfSy	-9.36238
inam	-9.36416
▁SAstr	-9.36421
▁karmaRi	-9.36516
ASray	-9.36555
Sabd	-9.36573
AY	-9.36577
▁SIGra	-9.36599
▁moha	-9.36647
▁Druv	-9.3671
▁dIpana	-9.36742
Bavan	-9.36768
mArg	-9.36907
▁kaTitam	-9.36961
tAn	-9.36989
▁vrata	-9.37109
pakz	-9.3718
vaktr	-9.37183
▁krudDaH	-9.37208
▁Sukla	-9.37221
▁kara	-9.37235
vyakt	-9.37339
▁sAgara	-9.37351
▁SfNg	-9.37419
▁kaP	-9.37478
▁jAtaH	-9.37584
▁gatam	-9.37595
▁pramAR	-9.37596
▁indriy	-9.37602
▁sTitAH	-9.37658
▁Agatam	-9.37694
kIrt	-9.37696
▁labDvA	-9.37721
▁Bave	-9.37736
vaH	-9.37748
▁rAkzasAH	-9.37767
▁kuntI	-9.37782
▁mukta	-9.37796
trA	-9.37882
▁hataH	-9.37951
▁vidita	-9.38001
ASv	-9.38052
▁mahABAga	-9.38108
py	-9.38135
darSanam	-9.38141
▁rAm	-9.3823
▁vftti	-9.38253
▁prahfzw	-9.38291
▁avyayam	-9.38301
bIja	-9.3834
▁pib	-9.38359
pate	-9.38363
▁varuR	-9.38375
varDan	-9.38423
▁kaTit	-9.38439
puzpa	-9.38479
▁SudDi	-9.38484
▁pravizw	-9.38495
▁anila	-9.38565
manas	-9.38608
▁jvar	-9.38637
▁DAnya	-9.38655
▁jyoti	-9.38667
yasya	-9.38673
▁praty	-9.38703
daRq	-9.3875
▁Goram	-9.38772
mAtra	-9.388
Ast	-9.38818
▁sahasA	-9.38832
▁AKy	-9.38834
▁mal	-9.38836
▁patnI	-9.38886
odBav	-9.389
yoga	-9.38917
▁UrDva	-9.38956
▁SaraRam	-9.39019
▁sevit	-9.39037
▁kuzWa	-9.39043
stri	-9.39092
▁SreyaH	-9.39285
naGa	-9.39314
▁rAGav	-9.39375
▁jYA	-9.39419
pAn	-9.39419
▁Bavizyanti	-9.39441
▁pfTivyA	-9.39487
▁devadeva	-9.39522
AraRam	-9.39699
▁Suci	-9.39727
▁brahman	-9.39809
▁SArdUla	-9.39839
▁amftam	-9.39875
▁yoni	-9.39967
▁pumAn	-9.39999
nand	-9.40169
▁vadanti	-9.40206
▁muhuH	-9.40235
▁drum	-9.40297
Eka	-9.40333
▁japa	-9.40351
▁svarg	-9.40447
▁mAn	-9.40486
varz	-9.40564
▁BrAtfBi	-9.40592
▁dvijasattama	-9.40594
▁uzRam	-9.40598
mAnaM	-9.40616
▁deSe	-9.40647
▁sTAna	-9.40753
▁ganDarvA	-9.40784
▁puwe	-9.40851
▁gfham	-9.40891
rUpA	-9.40944
▁uttamaH	-9.40969
tvaM	-9.40988
daD	-9.41019
▁mAtu	-9.41024
▁muKam	-9.41057
▁akza	-9.41074
▁buD	-9.41117
▁duryoDanaH	-9.41142
▁vEzRav	-9.41158
nye	-9.41165
▁dfSyant	-9.41172
▁jAn	-9.41176
dyA	-9.41194
▁pizw	-9.41242
vartate	-9.41309
▁puRyA	-9.41345
▁SaraRa	-9.41474
▁vadan	-9.41484
rad	-9.41498
Ahur	-9.41552
▁prokta	-9.41588
▁sidDiH	-9.41606
▁toya	-9.41661
▁asur	-9.41677
▁vidyAt	-9.41746
▁dvAdaSa	-9.41766
▁dAr	-9.41817
gacCanti	-9.41835
▁aDipa	-9.4184
Eza	-9.41938
▁gam	-9.41956
rAH	-9.42066
▁gati	-9.42088
cA	-9.42088
▁vaMS	-9.42101
▁vimukt	-9.42143
▁kzatriya	-9.42181
yU	-9.42211
▁rakza	-9.42233
▁duzwa	-9.42261
▁Sva	-9.42264
▁yayAtiH	-9.42334
▁Bavizyasi	-9.42358
lak	-9.42416
▁smar	-9.42529
▁BavataH	-9.426
▁haram	-9.4266
▁sTiti	-9.42723
▁Bfty	-9.42792
▁kuRqal	-9.42863
▁Bakt	-9.4289
▁sTAvara	-9.42929
▁devasya	-9.42945
▁kurvIta	-9.43126
▁gir	-9.43145
▁prakft	-9.43173
▁vIraH	-9.4322
avAn	-9.43226
▁sugrIv	-9.43239
pUrv	-9.43249
▁kzama	-9.43348
▁kala	-9.43358
▁aBy	-9.43404
Agat	-9.43422
many	-9.43479
▁jagmu	-9.43582
▁janArdana	-9.43598
grahaR	-9.43639
fg	-9.43664
ity	-9.43689
▁dakziRe	-9.43725
▁munayaH	-9.43728
▁durbal	-9.43741
▁sTA	-9.43846
▁brAhmaRA	-9.43946
▁izw	-9.43976
▁meGa	-9.43999
▁anIk	-9.44038
▁pAna	-9.44068
▁samAgam	-9.44101
▁parIkz	-9.44122
gfhIt	-9.44127
▁duryoDan	-9.44145
vfkz	-9.44199
▁pUjit	-9.44225
▁SuBe	-9.44279
zyati	-9.44294
▁mUlam	-9.44296
▁Sam	-9.44315
▁raRa	-9.44363
▁sADak	-9.4439
▁vyavasTit	-9.44456
yuta	-9.44463
▁Suk	-9.44541
AtmanA	-9.44554
▁niScay	-9.44581
▁devAn	-9.44589
nandana	-9.44636
Es	-9.44647
ADik	-9.44667
▁rudDvA	-9.4472
▁bravImi	-9.44726
mitr	-9.44726
▁nAd	-9.44851
▁paramA	-9.44881
▁marut	-9.44882
bravId	-9.44924
▁nfpaH	-9.45085
▁BAskara	-9.45113
▁AgatA	-9.45121
tAra	-9.45135
▁pfTivIm	-9.45195
▁sarpa	-9.45198
▁Barat	-9.45211
▁rAtrO	-9.45325
▁dUt	-9.45374
▁rAjAnaH	-9.45394
▁duzw	-9.45401
▁viSAM	-9.45456
▁Sruti	-9.45505
▁prAjY	-9.45511
▁nAtr	-9.45553
Ita	-9.45594
Yjan	-9.45602
▁BIt	-9.45665
▁hfdaya	-9.45741
▁snigD	-9.45762
Apah	-9.45849
▁tattv	-9.45869
▁SrezWam	-9.45885
▁dadfSu	-9.45935
▁sanAtanam	-9.45936
manA	-9.45937
▁varjayet	-9.45949
▁praviSy	-9.4597
▁anyAn	-9.4603
pAda	-9.4604
▁pItvA	-9.46043
▁patat	-9.46046
▁virAwa	-9.4605
▁vidD	-9.46121
nena	-9.46135
▁rAmeR	-9.4614
▁rakt	-9.46148
zyAmi	-9.46167
▁mukti	-9.46178
dvay	-9.46197
▁balI	-9.46278
▁daSaraT	-9.46279
prad	-9.46284
▁praDAna	-9.46459
▁brAhm	-9.46538
▁dadAti	-9.46555
▁rataH	-9.46593
▁Siras	-9.46606
▁nandana	-9.46626
Iha	-9.46658
▁prIt	-9.46674
▁vaMSa	-9.46803
▁tfzRA	-9.46844
▁yuktA	-9.46899
▁ce	-9.47039
▁brahmacArI	-9.47167
▁tumul	-9.47169
▁cakzuH	-9.47174
▁rAjAn	-9.47206
ByA	-9.47249
loh	-9.47294
▁varDan	-9.473
▁caret	-9.47308
karaRam	-9.47338
eza	-9.4734
▁kul	-9.47378
vidyA	-9.47472
ArRav	-9.47546
▁mfg	-9.47593
zva	-9.47621
▁varzA	-9.47662
▁tuly	-9.47703
▁padm	-9.47728
tena	-9.47731
▁svaBAv	-9.47739
▁sAma	-9.47778
▁dina	-9.47824
▁jagad	-9.4785
▁pare	-9.47914
▁gad	-9.48011
varjit	-9.48066
gaH	-9.48069
▁vft	-9.48086
rut	-9.48348
▁antara	-9.48358
▁utsfjya	-9.48412
▁vivyAD	-9.48416
▁divi	-9.48445
eSvaraH	-9.48464
▁sattv	-9.48474
▁cintA	-9.48478
▁prIta	-9.48549
▁Ahave	-9.48605
▁vimal	-9.48619
sTA	-9.4863
▁matam	-9.48662
▁praB	-9.48669
▁prasann	-9.48722
▁pratijYA	-9.48728
jja	-9.48754
cyut	-9.48844
Binn	-9.48858
▁yAm	-9.48883
▁mUrti	-9.48922
▁kzat	-9.48949
▁suta	-9.48952
▁dIpta	-9.49022
imaM	-9.49031
ezAM	-9.49061
taram	-9.49094
▁mukt	-9.49123
▁AcArya	-9.49124
▁haMsa	-9.49188
▁vaDa	-9.49242
Agr	-9.49246
▁SrutiH	-9.49254
▁svargam	-9.49351
kO	-9.49355
kur	-9.4938
▁manu	-9.49409
▁smft	-9.49413
▁bahuDA	-9.49433
tAni	-9.49484
▁dIna	-9.49493
▁samud	-9.49506
Bava	-9.49514
▁upAs	-9.49544
▁rAga	-9.49555
ISvar	-9.49588
▁sTitA	-9.4959
do	-9.49597
▁dvIp	-9.49631
▁netr	-9.49673
SoDan	-9.49704
lAB	-9.49716
▁uday	-9.49735
▁mahad	-9.49759
▁yAvad	-9.49776
▁puraskfty	-9.49795
Dik	-9.49803
▁dvez	-9.49856
▁vipul	-9.49901
sev	-9.49908
▁prAptaH	-9.49969
▁vizaya	-9.50004
▁mayam	-9.50158
zwam	-9.50168
ASraya	-9.50216
yanti	-9.50218
▁pAn	-9.50303
▁provAca	-9.50311
▁maDusUdana	-9.50369
▁aneka	-9.50394
▁kzetra	-9.50423
▁DarmAtmA	-9.50499
▁DIr	-9.50507
▁tyaj	-9.50513
▁rasAyanam	-9.50546
saNg	-9.5055
▁lakzaRa	-9.50579
AQy	-9.50704
▁janArdanaH	-9.50765
▁matsy	-9.50828
kzara	-9.50834
sampann	-9.50872
jAH	-9.50879
▁triBiH	-9.50881
rak	-9.50934
vara	-9.50957
▁dizwyA	-9.50958
▁kzipet	-9.50985
▁dfzwa	-9.50999
rO	-9.5101
▁arjun	-9.51025
▁pitar	-9.51041
buD	-9.5107
jas	-9.51075
▁hasta	-9.51097
▁Brama	-9.51108
▁pretya	-9.51116
▁pUjy	-9.51117
▁daD	-9.51118
patir	-9.51145
edaM	-9.5116
▁nATa	-9.5118
▁sakala	-9.51299
▁pAl	-9.51342
▁fziH	-9.51343
nayan	-9.51402
anu	-9.51441
kovid	-9.51442
▁pada	-9.51507
▁zazwi	-9.51597
▁yuvA	-9.51615
ADipa	-9.51674
▁cakr	-9.51676
tantr	-9.51678
▁Ar	-9.51789
eka	-9.51801
▁lokaH	-9.519
▁dakza	-9.51945
▁paraspara	-9.51957
▁carita	-9.51978
odak	-9.52011
kand	-9.52071
▁vitta	-9.52078
▁pravftti	-9.52078
ottar	-9.52131
▁anyonya	-9.52138
gatA	-9.52216
▁dattam	-9.5226
▁Art	-9.52278
▁udit	-9.52285
▁samyag	-9.52301
▁sTam	-9.52309
▁manyate	-9.52351
▁pAt	-9.5239
Arjav	-9.52458
▁SEla	-9.52458
▁mAsa	-9.52472
▁maDur	-9.52584
▁kuS	-9.5262
▁utpann	-9.52651
dviz	-9.52719
Anna	-9.52721
Bay	-9.52755
Byo	-9.52837
▁praSasyate	-9.529
▁viSizw	-9.52903
nft	-9.52917
▁prasIda	-9.52948
deh	-9.52995
▁sambanD	-9.53017
▁apare	-9.53026
▁Ady	-9.53037
cCed	-9.5306
odar	-9.53066
▁cira	-9.53116
lakzaRam	-9.53127
▁SItal	-9.53128
▁devyA	-9.5315
▁sUkzm	-9.5317
▁praBava	-9.53238
eyam	-9.53273
▁meru	-9.53327
▁BAz	-9.53402
sId	-9.53424
▁bIj	-9.53518
uzR	-9.5354
kAla	-9.53677
▁netra	-9.53734
▁vidur	-9.53761
vAhanaH	-9.53833
guru	-9.53839
▁san	-9.53869
▁pAra	-9.53897
▁lokAH	-9.53919
▁parameSvara	-9.53949
▁bIjam	-9.53982
▁sarvaBUtAnA	-9.54024
yogena	-9.54102
▁sah	-9.54157
▁sati	-9.54163
▁vismaya	-9.54221
▁supt	-9.54256
▁banDa	-9.54296
ArTam	-9.54298
▁SiSir	-9.54299
▁uta	-9.5433
ktA	-9.5435
nAd	-9.5437
▁BArgava	-9.54474
▁yas	-9.5448
▁pUrRa	-9.54486
▁graha	-9.54505
▁yezAm	-9.54508
▁hfzwa	-9.54524
▁vAsudev	-9.54526
maRqal	-9.54536
▁ft	-9.54563
viDi	-9.54574
▁kAmaH	-9.54718
ccA	-9.5478
samfdD	-9.54816
▁viMSati	-9.54888
▁DarmA	-9.54921
avyam	-9.54928
▁grAm	-9.54996
dizw	-9.55105
▁jag	-9.55127
▁smfti	-9.55215
sadfS	-9.55226
▁pratI	-9.55254
karmaRi	-9.55269
▁pad	-9.5531
▁viSArad	-9.55384
▁pramARam	-9.55394
▁vyA	-9.55517
gra	-9.55552
▁Bizak	-9.55558
▁kriyate	-9.55558
▁hiraRya	-9.55573
▁daH	-9.55592
▁puzwi	-9.55636
▁mArg	-9.55656
▁catvAraH	-9.55676
▁divyA	-9.55752
dant	-9.55789
▁udyat	-9.55795
maDye	-9.55821
▁prajAyate	-9.55839
▁kOravya	-9.55845
▁izyate	-9.55891
kzam	-9.55922
▁bAnDav	-9.56015
▁pfTivyAm	-9.56159
▁samast	-9.56192
jin	-9.56194
▁lakzmI	-9.56234
▁ruci	-9.56342
▁cUrRam	-9.56358
pitt	-9.56408
tri	-9.56422
ine	-9.56441
vAt	-9.56509
▁avyaktam	-9.5669
jal	-9.56738
gamya	-9.56814
▁prAhu	-9.56868
▁Badre	-9.56878
▁pOtr	-9.5692
▁tale	-9.57028
▁DanuH	-9.57055
yEva	-9.57141
akAH	-9.57171
▁kalyAR	-9.57193
▁kaTita	-9.57207
▁BayAt	-9.57232
▁devatAH	-9.57237
▁vAji	-9.57281
ruvAca	-9.57284
▁tuByam	-9.57286
cetas	-9.57297
param	-9.57329
▁vfkza	-9.5733
▁manas	-9.57363
▁Gana	-9.57407
▁sutam	-9.5741
prApt	-9.57445
rTe	-9.57446
▁saty	-9.57472
▁dAnt	-9.57514
▁SOcam	-9.57542
▁mAnavAH	-9.57551
▁dozaH	-9.5758
▁kaTyate	-9.57599
▁rasAyane	-9.5762
▁rasam	-9.57633
▁tyajet	-9.57644
▁Buj	-9.57832
▁SriyA	-9.57837
▁kzaRAt	-9.57853
▁Kara	-9.57989
▁mfta	-9.58171
mUla	-9.58221
lakzaR	-9.5825
▁rakzaR	-9.58269
▁tApas	-9.58309
mUQ	-9.58335
▁nazwa	-9.5849
kAry	-9.58563
AtmAn	-9.58574
bAhu	-9.58574
▁jYey	-9.58581
▁patra	-9.58656
▁vAt	-9.58661
▁DAraR	-9.58664
▁puMs	-9.58808
▁sTaH	-9.58822
▁pfzw	-9.58917
▁surA	-9.58933
▁ganDarv	-9.58944
▁vasizWa	-9.58981
▁piSAc	-9.58983
▁ruDira	-9.58983
▁manyase	-9.59005
▁mAtf	-9.59057
ScAp	-9.5909
▁rudraH	-9.59123
▁sTir	-9.59143
Alay	-9.59155
▁kuryA	-9.5919
▁salil	-9.59212
ih	-9.59238
arh	-9.5924
▁kumBa	-9.59281
Akza	-9.5931
▁BArat	-9.59314
▁SaktiH	-9.59328
▁Sivam	-9.59403
▁jajYe	-9.5944
sarp	-9.59494
▁dfzwA	-9.59591
▁gaRAH	-9.59612
▁tyAg	-9.59642
jo	-9.59661
tre	-9.59678
▁zoqaSa	-9.5968
▁kawuka	-9.59794
las	-9.59845
arTa	-9.5985
Est	-9.59857
▁hfta	-9.59867
▁dfzwaH	-9.59885
▁pitaraH	-9.5991
▁AkASa	-9.59999
suK	-9.60069
▁karmaRAm	-9.60079
▁atIt	-9.60143
rAw	-9.60179
▁jvalan	-9.60249
▁nagara	-9.60302
▁saMvatsara	-9.60386
▁jayadraT	-9.60387
▁laNkA	-9.60387
▁Bojanam	-9.60404
▁niSAcar	-9.60406
▁dfzwam	-9.60425
▁tapa	-9.60446
▁karRaH	-9.60476
sAm	-9.60535
▁da	-9.60613
Up	-9.60629
hara	-9.60669
Bavad	-9.60686
▁vftta	-9.60738
muKaH	-9.6083
▁balena	-9.60859
kzat	-9.60882
▁viSudD	-9.60953
▁samBUt	-9.60983
sattam	-9.60989
▁yayA	-9.60989
▁jalam	-9.60999
▁kali	-9.61026
▁hfdy	-9.61098
vikram	-9.61149
iRI	-9.612
vaca	-9.61215
▁yukta	-9.61241
▁BAvaH	-9.61292
▁pakv	-9.61296
▁vo	-9.61324
▁sahitAH	-9.61343
jana	-9.61371
▁paYc	-9.61486
▁ukt	-9.61567
▁liNgam	-9.61611
mantr	-9.61619
▁ISvar	-9.61643
▁Dvaj	-9.61771
▁mitr	-9.61775
staTEva	-9.6181
▁pAcan	-9.61815
▁sidDam	-9.619
tva	-9.61906
▁amAty	-9.61943
▁astr	-9.61986
▁avaDy	-9.6202
varcas	-9.62056
sah	-9.62177
AyAM	-9.62222
Aj	-9.62242
▁pakza	-9.62293
▁vyaktam	-9.62304
janma	-9.62327
▁loBa	-9.62329
▁vAraR	-9.62358
▁Adity	-9.62409
▁rAkzasaH	-9.62427
▁gupt	-9.62533
AB	-9.62537
▁vijYAya	-9.6255
▁vrajet	-9.62551
vIry	-9.62587
▁yojy	-9.62593
pAp	-9.62659
BAs	-9.62691
▁agra	-9.62762
▁tal	-9.62772
pAy	-9.62795
▁rakzasAm	-9.62799
▁vyavahAr	-9.62816
▁SrAdDa	-9.62837
▁puruzasya	-9.62855
prekzya	-9.62912
▁samAna	-9.62922
▁tamaH	-9.63025
▁Atmakam	-9.63103
stam	-9.63144
▁parayA	-9.632
▁bARa	-9.63235
kroD	-9.63243
▁papAt	-9.6326
▁mahIpatiH	-9.6328
▁nUnam	-9.63336
maR	-9.63366
▁aSnute	-9.63367
▁sahAy	-9.63405
▁banDan	-9.63494
▁anant	-9.6352
▁nArad	-9.63532
▁hasti	-9.63548
▁mftyuH	-9.63629
▁prayat	-9.63669
je	-9.63677
rahit	-9.63747
▁mAMs	-9.63752
▁vaman	-9.63753
▁kAy	-9.63874
▁pakva	-9.639
▁hatA	-9.63963
▁lokAnAm	-9.63982
▁ApnuyAt	-9.63984
▁dAtavy	-9.63989
▁kupit	-9.63995
▁samAgat	-9.64014
▁kaw	-9.64077
dAru	-9.64117
▁vaya	-9.64122
▁dvayam	-9.64152
▁sEnDav	-9.64153
▁kfpa	-9.64158
▁manasaH	-9.64167
rasa	-9.64177
▁tAvad	-9.64178
▁pitaram	-9.64205
▁laBet	-9.64245
▁saMsAra	-9.64255
▁aBra	-9.643
▁vinAS	-9.64395
dAr	-9.64409
▁Kar	-9.64602
▁haya	-9.64722
aDIyata	-9.64726
tas	-9.64767
▁akz	-9.64767
zwi	-9.6479
▁rasendra	-9.64799
▁japet	-9.64832
▁vfdDa	-9.64834
vatsa	-9.64844
padyate	-9.64873
▁hetuH	-9.64945
karo	-9.64954
▁til	-9.64957
▁KyAta	-9.64979
▁kOrav	-9.65008
stat	-9.65032
▁prAy	-9.65118
▁dattA	-9.65143
SAK	-9.65149
▁aKil	-9.65153
kena	-9.65156
▁sUryaH	-9.65166
dIrG	-9.65262
▁apar	-9.65298
▁jAtA	-9.65367
▁jagataH	-9.65403
▁jantu	-9.65451
▁toy	-9.65459
▁rocate	-9.65474
maDu	-9.65531
▁vAsudevaH	-9.65536
▁tattvam	-9.65555
▁BAra	-9.65564
▁mAtara	-9.65674
▁putrARA	-9.65767
▁rAvaRaH	-9.65891
▁pIt	-9.65895
▁vAcy	-9.65933
▁co	-9.65949
▁niboDa	-9.66072
▁sidDA	-9.66073
▁rase	-9.66076
mAnas	-9.66098
trAR	-9.66109
lipt	-9.66207
▁svapna	-9.66222
▁tvarit	-9.66253
▁SanEH	-9.6627
▁dozAH	-9.66358
jar	-9.6641
▁BAskar	-9.66471
▁brAhmaRasya	-9.66544
niB	-9.66576
carit	-9.66597
KaRq	-9.66672
▁sahadeva	-9.66675
▁BIzm	-9.66706
▁havya	-9.66708
putra	-9.66736
dvi	-9.66749
yuz	-9.66792
▁darSana	-9.66806
▁kzAra	-9.66809
▁ityukt	-9.66819
▁amft	-9.66841
▁muKe	-9.66951
▁suKI	-9.66962
▁samutpann	-9.6698
▁pakziR	-9.66991
▁dIpt	-9.66998
▁karizyati	-9.6704
▁matsya	-9.67099
▁prApte	-9.67317
yoni	-9.67397
▁antaram	-9.67454
trayam	-9.6747
▁gacCet	-9.67509
▁janamejayaH	-9.67582
▁dadyAd	-9.6761
▁Gft	-9.67618
▁kzayam	-9.67623
▁praBfti	-9.67659
kAriR	-9.67702
kAnt	-9.67712
▁vidy	-9.67769
daM	-9.67789
▁jIvet	-9.6779
▁divyAni	-9.67799
dvAr	-9.6782
▁Atman	-9.67848
▁Sruta	-9.67898
▁SarIram	-9.67945
▁jIvita	-9.67947
▁ato	-9.67967
▁prakAS	-9.68015
gati	-9.68017
▁Ananda	-9.68031
ino	-9.68041
▁Sil	-9.68056
ukt	-9.68074
labD	-9.68205
budDi	-9.6821
vAsA	-9.68234
uktaM	-9.68279
▁aparam	-9.68302
▁mAhAtmyam	-9.6832
▁jYeyam	-9.68346
▁sTa	-9.68398
▁jAnI	-9.6842
▁muktA	-9.6843
▁itya	-9.68441
eSvara	-9.68453
▁vaktavy	-9.68479
▁vastra	-9.68491
▁druta	-9.68544
▁pratya	-9.68605
▁kAmAn	-9.6866
saMBav	-9.68701
▁tEl	-9.68711
▁rajas	-9.68728
AtmanaH	-9.6873
▁haraH	-9.68818
▁mahAtma	-9.68822
▁vIryam	-9.68833
lena	-9.69036
▁dravyam	-9.69042
▁mAruta	-9.69133
▁mAnav	-9.69149
tattv	-9.69236
▁svAhA	-9.69253
▁kumAra	-9.69311
▁pitAmah	-9.69312
▁mar	-9.69347
▁BuktvA	-9.6937
▁tanu	-9.69385
▁budDir	-9.69402
▁deyam	-9.69432
kAraH	-9.69449
▁daSA	-9.69523
▁SoBan	-9.69536
▁SAp	-9.69586
▁praBAv	-9.69612
yastu	-9.69845
rAma	-9.69875
▁tanay	-9.69882
SrAnt	-9.6992
▁PalAni	-9.69952
Ira	-9.69973
▁varad	-9.70022
tapt	-9.70033
▁BUri	-9.7005
▁hat	-9.70055
▁yayAtir	-9.70108
SAstr	-9.70145
▁vasizW	-9.70166
▁vaSa	-9.70172
▁BImaH	-9.70187
▁balAt	-9.70225
▁prasAda	-9.70229
▁puruzA	-9.7026
▁ISa	-9.70283
veda	-9.70285
rAn	-9.70325
▁patay	-9.70353
▁BAga	-9.70366
tad	-9.70377
▁pras	-9.70395
▁icCa	-9.70406
▁anva	-9.70474
ahar	-9.70487
▁maheSvaram	-9.70512
hut	-9.70552
Antara	-9.70577
syAmi	-9.70597
▁yAc	-9.70638
Bojan	-9.70642
▁DArmik	-9.7068
roD	-9.70693
▁parivft	-9.70793
▁mUrDn	-9.70805
▁rAmam	-9.70844
vad	-9.70887
sattama	-9.70887
▁purARa	-9.70927
Sar	-9.70955
▁asura	-9.70956
▁kftavAn	-9.71029
pARi	-9.71155
▁pOr	-9.71183
▁BUtAnA	-9.71243
▁dvijottama	-9.71248
▁surAH	-9.71253
▁kuYjar	-9.71383
▁prasAdAt	-9.71417
▁karmasu	-9.71428
▁karaH	-9.71493
▁pradAn	-9.71523
▁yuDy	-9.71565
▁viviDA	-9.7159
▁kfS	-9.71613
▁skanda	-9.71632
▁tElam	-9.71637
eSvaram	-9.71659
▁kalk	-9.71683
▁dine	-9.71912
Kil	-9.71919
▁rUkz	-9.7195
▁ari	-9.72011
kArak	-9.72065
Atmaj	-9.72107
▁mAl	-9.72143
▁arha	-9.72183
vartata	-9.72194
▁sTira	-9.72202
▁krUra	-9.72243
▁prAptam	-9.72268
Bog	-9.72294
▁tapta	-9.72296
▁yamaH	-9.72304
▁mUQa	-9.72337
▁hInA	-9.7235
▁vah	-9.72351
▁sita	-9.72353
▁siDyati	-9.72386
dI	-9.72417
AMsi	-9.72455
▁avyakt	-9.72517
Ry	-9.72531
▁parigrah	-9.72566
▁lokA	-9.7257
kAraR	-9.7258
▁samIpa	-9.72588
▁pArad	-9.72591
▁atIva	-9.72594
tAp	-9.72594
▁Beda	-9.72598
▁jYa	-9.72618
Astu	-9.72632
▁daRqaH	-9.72636
araR	-9.72637
▁Arya	-9.72648
▁yogI	-9.72656
▁varDate	-9.72749
▁hima	-9.72768
▁sparS	-9.72811
▁kzip	-9.72902
yEr	-9.72994
aNga	-9.73003
▁mAna	-9.73011
▁aMSa	-9.73016
▁janaka	-9.7302
▁kfzRaH	-9.73035
▁kop	-9.73038
SiK	-9.73053
▁dehe	-9.73073
▁pAtak	-9.73074
▁DAtA	-9.73108
▁BErava	-9.7313
▁avasTit	-9.7317
▁SradDA	-9.73186
Ariza	-9.73187
▁vaktra	-9.73199
▁kOrava	-9.73257
▁pitrA	-9.73267
vAky	-9.73274
pUj	-9.73291
▁vasuDA	-9.73296
▁aSvameD	-9.73323
▁jawA	-9.73326
▁samanvitaH	-9.73356
▁vraR	-9.73359
SoB	-9.73368
▁yava	-9.73374
▁AcAra	-9.7343
▁pAka	-9.73495
▁danta	-9.73537
pare	-9.73579
cCat	-9.73665
▁upari	-9.73687
▁yan	-9.73818
▁tamas	-9.73834
▁tyakt	-9.73837
▁bindu	-9.73867
▁vfttiH	-9.73879
▁muhUrtam	-9.73879
▁svADyAya	-9.7391
▁raj	-9.73917
▁garB	-9.73985
▁bahiH	-9.73992
▁papracCa	-9.73992
▁SiKar	-9.73995
▁pAdO	-9.74001
▁brUte	-9.7403
▁pUjay	-9.74103
▁pfcCat	-9.74138
▁sTUla	-9.74195
▁mAtram	-9.74206
▁ISAn	-9.74233
▁ripu	-9.74253
▁gfha	-9.74285
▁vipAk	-9.74393
▁vigrah	-9.74465
▁izwa	-9.74518
▁viprAH	-9.74529
▁kfp	-9.74538
IS	-9.74624
▁vajr	-9.74636
▁dayA	-9.74717
▁kAryA	-9.74733
pravakzyAmi	-9.74738
tray	-9.7477
▁Ap	-9.74791
▁durga	-9.74801
▁nirmal	-9.74816
▁varjit	-9.74829
yupa	-9.74832
raRe	-9.74842
karza	-9.74887
kAzW	-9.74943
▁sakt	-9.7498
▁gacCant	-9.74994
▁triguR	-9.7507
▁koSa	-9.75128
▁proktaH	-9.75152
paraH	-9.75196
veza	-9.7528
▁prahasan	-9.75402
stv	-9.75426
AKy	-9.75427
▁Bay	-9.75509
hetu	-9.75521
nyA	-9.75539
▁Sap	-9.75585
▁prAYjali	-9.75637
▁paSUn	-9.75648
▁SrUyate	-9.75659
▁ekEka	-9.75671
maDy	-9.75698
Anena	-9.75706
▁jihvA	-9.7573
▁AdyAH	-9.75756
darSin	-9.75764
bd	-9.75769
▁DyAy	-9.75805
▁mahIpate	-9.75808
Sakti	-9.75864
▁yajYaH	-9.75871
uvAca	-9.75882
▁jah	-9.75888
pU	-9.75948
▁vayas	-9.75999
▁janaH	-9.76018
▁niScayaH	-9.76025
▁hfday	-9.76052
▁durlaBam	-9.76071
▁prayAt	-9.76073
citt	-9.76079
rARAM	-9.76127
▁snigDam	-9.76159
▁sit	-9.76167
▁saMskAra	-9.76181
stad	-9.76266
▁vyasan	-9.76296
rDa	-9.76305
▁kAYcan	-9.76362
▁kriyatAm	-9.7637
▁mahABAg	-9.76396
▁rAtri	-9.76453
▁kAYcana	-9.76462
▁kziptvA	-9.76464
▁jAnAti	-9.76522
▁kartavy	-9.76533
▁samanvitam	-9.7657
▁krUr	-9.76599
vAc	-9.76658
▁dviDA	-9.7667
▁samudra	-9.76671
▁nfpati	-9.76737
▁indrasya	-9.76746
▁kzAr	-9.76754
▁pARqavAnAm	-9.76778
▁lakza	-9.76778
vind	-9.76782
▁samAH	-9.76857
▁BUtam	-9.76863
▁svara	-9.76922
▁AdyEH	-9.77029
▁DAr	-9.77068
EvA	-9.77073
▁huta	-9.77141
▁lakzmaRaH	-9.77182
ozR	-9.7719
jYaH	-9.77258
▁ajYAn	-9.77262
▁vESy	-9.77275
▁utpatti	-9.77286
▁ISvaram	-9.7729
rakzit	-9.77295
▁pratigfhya	-9.77305
▁vfttam	-9.77339
▁sarvE	-9.77367
▁vraRa	-9.77382
▁rakzA	-9.77383
▁rat	-9.77405
▁tIvra	-9.77423
▁icCati	-9.77456
▁pAtra	-9.7749
▁puruzam	-9.77554
▁jayet	-9.77651
▁praDAn	-9.77655
▁yaSasvin	-9.77738
RAt	-9.77738
vAp	-9.77759
▁moh	-9.77769
▁mamA	-9.77801
▁div	-9.77854
▁vAhan	-9.77868
▁dviviDa	-9.77931
▁pAtre	-9.7794
▁vasizWaH	-9.77972
mahe	-9.77989
▁varze	-9.78025
▁tAla	-9.78123
▁sAttvik	-9.78125
▁samAKyAt	-9.78128
▁tatrEva	-9.78194
▁Bukt	-9.78208
▁vigata	-9.78252
▁dehi	-9.78286
▁bfhaspatiH	-9.78374
EzA	-9.7838
varRA	-9.78422
▁vajram	-9.7843
▁karza	-9.78432
nAma	-9.78529
▁prayatnena	-9.78539
▁SASvatam	-9.78581
sTe	-9.78654
▁SarIre	-9.78665
▁kilbiz	-9.78752
▁tftIy	-9.78801
▁jitA	-9.78861
muktvA	-9.78891
▁eko	-9.78901
▁ftu	-9.78951
▁kIdfS	-9.78972
▁divAkara	-9.78974
lAGav	-9.78974
▁aDunA	-9.78975
▁parASara	-9.78986
yUTap	-9.78996
sura	-9.79014
astasya	-9.79043
sarva	-9.79053
▁yuDizWiram	-9.79055
▁idAnIm	-9.79084
haraM	-9.79239
pet	-9.7927
opet	-9.79276
▁Sakuni	-9.79339
avyay	-9.79405
nASanaH	-9.79447
▁vAnarAH	-9.79473
padaM	-9.79479
▁Boj	-9.79496
▁Sastr	-9.79512
▁bahuBi	-9.79533
staM	-9.79544
odit	-9.79621
druma	-9.79625
▁kusum	-9.79648
▁Bavatu	-9.7966
akza	-9.79702
DaraH	-9.79703
▁sakft	-9.79729
rzi	-9.79803
▁sve	-9.79805
▁BAzitam	-9.79807
▁strIRAm	-9.79812
▁manIziRaH	-9.79827
▁pradakziRam	-9.79829
▁badDvA	-9.79832
▁praSast	-9.79833
▁vyAD	-9.79842
▁rasA	-9.79869
tIrTe	-9.79872
▁suvrata	-9.79886
izyanti	-9.7991
▁gfhIta	-9.79928
▁kzay	-9.79974
Gan	-9.79983
▁yAtrA	-9.79987
▁preta	-9.8001
▁akzaram	-9.80033
▁ratnAni	-9.80037
mAnuz	-9.80046
▁yogaH	-9.80085
▁jitvA	-9.8011
▁rAg	-9.80118
nut	-9.80122
▁sahasram	-9.80122
▁smftA	-9.80247
▁AScarya	-9.80269
▁aDaH	-9.80298
▁bAD	-9.80298
▁dvijottamA	-9.80304
▁vizaye	-9.80306
ucy	-9.80338
▁vyakta	-9.8034
▁alam	-9.80354
tIrTam	-9.80376
▁paW	-9.80409
▁SApa	-9.80437
▁pArTivaH	-9.80459
▁SAka	-9.80538
nyaTA	-9.80543
tIt	-9.80645
sad	-9.80703
cakzuz	-9.80721
▁nanu	-9.80724
yuvAca	-9.80748
▁evaMviD	-9.80761
▁cUrR	-9.80771
▁alp	-9.8078
jAnAmi	-9.80802
jYayA	-9.80817
dvij	-9.80832
▁prAya	-9.80845
▁eke	-9.80865
▁vahn	-9.8091
vaMS	-9.81026
▁yantra	-9.81026
▁keval	-9.81028
▁mahAtmA	-9.81035
▁Sama	-9.81081
▁hA	-9.81168
▁tizWanti	-9.81202
▁apatya	-9.81243
lEH	-9.81247
▁pratyakza	-9.81254
karaH	-9.81256
▁Ayatan	-9.8126
▁tizWat	-9.81285
▁bfhaspati	-9.81309
gatam	-9.8136
▁cAny	-9.8138
ozRa	-9.81412
▁Srama	-9.81428
▁Soc	-9.81476
eha	-9.81513
▁cApa	-9.81529
▁BittvA	-9.81559
▁nfSaMs	-9.81559
▁DaraRI	-9.81559
▁yOvana	-9.81572
▁maDuram	-9.81664
gacCa	-9.81666
▁gamizyAmi	-9.81734
▁raso	-9.81754
▁samADi	-9.81865
▁Badram	-9.81891
astadA	-9.81937
▁sfzwi	-9.82019
▁tvak	-9.8202
tTa	-9.82068
▁nimitt	-9.82076
▁Ur	-9.8209
▁putrAn	-9.82118
pUrva	-9.82165
lep	-9.82262
▁vaSam	-9.82306
sfzw	-9.82343
gAH	-9.82366
sUn	-9.82383
▁sidDaH	-9.82391
▁drOpadI	-9.82436
▁mahiz	-9.82439
▁vetti	-9.82444
▁dakz	-9.82469
dvIp	-9.82513
▁Sriyam	-9.82523
▁tulyam	-9.8253
nigrah	-9.82532
▁icCA	-9.82564
▁puruzo	-9.82623
▁niSit	-9.82709
▁mayaH	-9.82737
▁gIta	-9.82845
dButa	-9.82858
▁mUtr	-9.83027
stra	-9.8303
ite	-9.83047
▁Atmaj	-9.8306
▁pitAmaham	-9.8311
▁prAptA	-9.83144
rUpam	-9.83196
▁vyAGr	-9.83198
▁SvetA	-9.83199
▁karmaRaH	-9.83263
▁arDam	-9.83314
▁bruvat	-9.83321
▁sfYjay	-9.83321
▁vfTA	-9.83321
▁SarkarA	-9.83333
▁tejasvI	-9.83337
▁SItam	-9.83345
▁Adad	-9.83355
ktam	-9.83372
pramAR	-9.83382
atAM	-9.83394
▁vfzwi	-9.83419
pac	-9.83422
kAreRa	-9.83471
▁pradadO	-9.83511
▁viviDE	-9.83552
BAjan	-9.8357
Astra	-9.83634
▁maDurA	-9.83689
▁cAnye	-9.83702
▁karmaBiH	-9.83753
vIrya	-9.83784
▁AB	-9.83844
▁pARqavA	-9.83928
▁du	-9.83937
▁mantriR	-9.83974
▁Bagn	-9.8401
nanda	-9.84035
▁prah	-9.84042
ruh	-9.84064
▁snAnam	-9.84149
▁aDyAtma	-9.84223
vftti	-9.84253
▁avasTA	-9.84301
juzw	-9.84325
▁cacAra	-9.84419
▁tfRa	-9.84449
▁droRam	-9.84451
Srama	-9.84486
▁Cinna	-9.84487
brahma	-9.84629
▁sAmAnya	-9.84662
kumB	-9.8477
▁mand	-9.84779
tEl	-9.84821
puzp	-9.84856
ezv	-9.84881
▁dUr	-9.84919
▁SUnya	-9.8492
▁veDa	-9.84947
ratn	-9.84952
rjun	-9.84963
BAvAt	-9.84982
▁kurvat	-9.85008
▁grAma	-9.85019
▁Suka	-9.8504
▁azwaka	-9.85094
karmAR	-9.8511
▁kOSik	-9.85114
▁vedapArag	-9.85133
▁vismit	-9.85141
▁saciv	-9.85146
▁viBaj	-9.85147
▁uBaya	-9.8517
kfd	-9.85196
▁janapad	-9.85206
ArTe	-9.85258
▁Sakya	-9.85293
smAd	-9.85322
Antak	-9.85362
▁apaSyat	-9.85381
stan	-9.85429
▁parAm	-9.85429
▁mudA	-9.85485
▁putrA	-9.85513
▁sTAne	-9.8552
▁nirguR	-9.8554
ktaM	-9.85568
vartin	-9.85599
▁damaH	-9.85619
anEH	-9.85627
▁rakzasA	-9.85631
▁yacca	-9.85646
Asi	-9.85656
▁vaDy	-9.85672
▁aDikam	-9.85706
▁paRqit	-9.85743
gacCat	-9.8575
▁nity	-9.85751
▁priyaH	-9.85793
▁darSanAt	-9.85808
DIt	-9.85868
▁purARam	-9.85893
smAt	-9.85921
▁zaq	-9.85979
▁laB	-9.86015
▁svaDarm	-9.86023
▁praTit	-9.86024
▁niyata	-9.86031
▁kalO	-9.86038
▁jYeyaH	-9.86092
▁DArayet	-9.86147
karmaRA	-9.86155
▁viKyAt	-9.86175
gnir	-9.86204
▁kartavya	-9.86247
▁kurvAR	-9.86325
▁karaR	-9.86363
▁jYAti	-9.86396
▁akarot	-9.86427
▁cAsya	-9.86439
▁Dft	-9.86446
▁SAsan	-9.86466
▁acal	-9.86483
▁vipula	-9.86504
▁samAhit	-9.86559
▁prakftiH	-9.86563
▁buDaH	-9.86587
droh	-9.86593
▁samaya	-9.86701
▁satyena	-9.86712
▁Ama	-9.86759
▁yezA	-9.86808
▁udak	-9.8681
▁vijYAna	-9.86868
▁sUtam	-9.86874
▁pAS	-9.86892
loB	-9.86897
▁skanD	-9.86911
▁viSrutaH	-9.86947
▁vapuH	-9.86957
▁atyanta	-9.86958
▁SataSaH	-9.86959
▁mAsi	-9.87011
etad	-9.87023
AstaTA	-9.87075
mftyu	-9.87077
jAyate	-9.87082
▁roma	-9.87125
ratA	-9.87132
lAH	-9.8719
▁vibuD	-9.87251
▁kaSyap	-9.87281
▁mam	-9.87337
vratam	-9.87389
pAna	-9.87411
▁niSA	-9.87423
▁saMSay	-9.87468
▁ata	-9.87487
▁drazwu	-9.8749
▁Sezam	-9.87493
▁raSmi	-9.87494
▁viSudDa	-9.87503
▁sarp	-9.87592
▁spfS	-9.87597
▁ugr	-9.87693
▁agninA	-9.8773
▁anyA	-9.87772
▁lepa	-9.87774
▁tatr	-9.87798
▁manyu	-9.8783
▁lalAw	-9.87867
▁yamunA	-9.8787
cezwit	-9.8789
▁carma	-9.87919
▁suhft	-9.8796
sarga	-9.87974
vAsin	-9.8798
nimitt	-9.88001
▁SayAn	-9.88005
rUpeRa	-9.88061
mbu	-9.88076
▁vinay	-9.88077
▁sukfta	-9.88102
odaka	-9.88168
▁yaS	-9.88256
▁CAyA	-9.88288
▁anala	-9.88336
yI	-9.88365
▁indriyaH	-9.88381
▁saritaH	-9.88412
▁vicitra	-9.8843
▁tAsAm	-9.88522
sidDaye	-9.88535
▁cEvA	-9.88572
▁varuRa	-9.88583
sparS	-9.88694
▁sAtyakiH	-9.88716
candra	-9.88725
▁ikzvAku	-9.88801
▁veSma	-9.88802
▁nahuz	-9.88803
▁Sasyate	-9.88807
▁vIry	-9.8881
▁govinda	-9.88813
▁Gftam	-9.88815
▁cakzuzA	-9.88833
▁mudga	-9.88864
▁dehinAm	-9.88872
▁parameSvaraH	-9.88944
▁kElAsa	-9.88951
▁viDAna	-9.88976
▁gaREH	-9.88977
▁lokapAl	-9.88979
yatnena	-9.89022
▁agnO	-9.89062
▁acyuta	-9.89127
▁yajYe	-9.8917
▁pfTu	-9.8917
▁vidaD	-9.892
tyarTaH	-9.89241
▁pAvak	-9.89339
▁dadAm	-9.89357
▁vyAp	-9.89371
▁tEr	-9.89374
▁AcAry	-9.89424
▁Atmani	-9.89462
yarTa	-9.89549
▁vAsava	-9.89565
▁jaGAn	-9.89746
virecan	-9.89748
▁arcan	-9.89752
▁nAqI	-9.89753
▁viSizyate	-9.89753
patat	-9.89755
▁vfzRi	-9.89775
oday	-9.8986
mftaM	-9.89923
▁SUny	-9.89926
▁kaTaya	-9.8994
Basma	-9.89948
▁vyAs	-9.89971
▁paSyet	-9.89995
▁vftra	-9.89996
niScay	-9.90043
Baya	-9.90052
parvat	-9.90057
triMS	-9.90079
Adizu	-9.90095
▁vizRum	-9.90135
▁abruvan	-9.90143
▁anyonyam	-9.90163
▁vikramaH	-9.90172
▁kurukzetr	-9.90184
▁sADyA	-9.90194
▁Suzka	-9.9022
▁SrezWA	-9.90223
kzaya	-9.90251
▁pramARa	-9.90327
▁DUma	-9.90334
▁sarit	-9.90342
▁KyAtaH	-9.90361
▁ramya	-9.90414
▁pratizWA	-9.90425
▁kartu	-9.90434
amAtr	-9.90526
▁mahABAgA	-9.90558
▁raTam	-9.9057
▁viSezaH	-9.90691
▁kUrma	-9.90697
▁gacCAm	-9.90698
▁svapne	-9.90705
▁jAtam	-9.90731
▁striya	-9.90749
BaraR	-9.90775
▁akft	-9.90779
veD	-9.90806
ots	-9.90811
▁tejas	-9.90867
▁lAB	-9.90897
▁samAyukt	-9.90935
▁salila	-9.90945
▁kzudra	-9.90962
▁viduraH	-9.90992
▁prItiH	-9.9101
▁muKA	-9.91018
▁vfzya	-9.91049
▁kAryaH	-9.91121
▁jyA	-9.91286
▁patim	-9.91301
▁vAsaH	-9.91336
▁rUpya	-9.91346
vasTit	-9.9137
▁cAr	-9.91389
sfjat	-9.91454
▁stamBa	-9.91494
dfk	-9.91513
Ambu	-9.91515
nyAsa	-9.91534
▁itaH	-9.91563
pattra	-9.9157
▁pavana	-9.91587
▁kfzRA	-9.91593
▁tavA	-9.91603
puzw	-9.91653
▁pulah	-9.91659
▁purohit	-9.91659
▁hetoH	-9.9166
sita	-9.91677
▁praBum	-9.91699
▁samBavaH	-9.91712
▁nAsA	-9.91755
▁leB	-9.91788
nizW	-9.91793
vizay	-9.91798
▁candr	-9.91826
IrR	-9.91841
▁bAhy	-9.91926
▁arD	-9.91996
Goz	-9.92006
▁kAnti	-9.92079
jYAna	-9.92083
▁Asana	-9.92086
▁matvA	-9.92103
▁vayaH	-9.92112
▁icCatA	-9.92194
▁AtmAn	-9.92196
▁uktAH	-9.92205
▁hitA	-9.92224
▁Akul	-9.92238
▁rasAyan	-9.92299
ekzaR	-9.924
▁tasyAm	-9.92487
plut	-9.92491
▁kzaR	-9.92506
▁parya	-9.92507
▁pAk	-9.92521
▁yAjYavalky	-9.9263
▁manvantar	-9.9263
▁Bartf	-9.9263
▁Sakyam	-9.92633
▁dAyAd	-9.92686
▁mantraH	-9.92697
▁SaMsa	-9.92706
▁parasya	-9.92716
▁apaham	-9.92723
dU	-9.92757
▁prayay	-9.92806
viSArad	-9.92852
nila	-9.9286
▁fzaB	-9.92874
ezAm	-9.92927
▁BAvit	-9.92954
▁nIl	-9.9305
▁SayyA	-9.93168
▁sampra	-9.93193
▁hfdaye	-9.93212
▁Binn	-9.9323
▁paramAm	-9.93243
▁imAn	-9.9328
karR	-9.93298
▁cit	-9.93398
tIti	-9.93409
▁brahmARam	-9.93417
▁praDAnam	-9.93429
▁vicitr	-9.93466
▁vasati	-9.93519
▁gayA	-9.93528
▁gulma	-9.93571
▁vizRunA	-9.93585
▁rAjYo	-9.93612
▁samIkzya	-9.9362
▁roz	-9.93631
▁mEtreya	-9.93635
▁dIpyamAn	-9.93664
▁viviDa	-9.93664
▁kurURAm	-9.93718
▁pulastya	-9.93758
dfS	-9.93817
▁tayor	-9.93855
▁rOdr	-9.93863
▁sarvaBUta	-9.93868
▁tasy	-9.93889
▁Bezaja	-9.93949
▁hfzwA	-9.93978
▁aDipaH	-9.94037
▁dIpa	-9.94124
varza	-9.94156
endriya	-9.94178
▁tacca	-9.94213
nATa	-9.94232
▁rAzwra	-9.94232
▁AkAr	-9.94273
▁vidura	-9.94285
▁harim	-9.94296
smAk	-9.94391
kula	-9.9443
▁rucya	-9.94607
▁puruzottama	-9.94619
parIt	-9.9462
▁BAvayet	-9.94653
▁drupada	-9.94717
gataH	-9.94726
▁hanyAt	-9.94731
▁tacC	-9.94753
▁yUya	-9.94766
piRq	-9.94857
maT	-9.94862
▁vaSe	-9.94886
Palam	-9.94926
▁vedA	-9.94936
saMskAr	-9.94963
mayo	-9.94982
▁BftA	-9.9508
mBo	-9.95083
▁cApya	-9.9514
patan	-9.95158
rakt	-9.95165
vasan	-9.95312
▁sEnDava	-9.95368
▁mahatI	-9.95391
▁Bakta	-9.95417
▁viGna	-9.95489
▁tyakta	-9.95544
▁sutAH	-9.95567
▁haMs	-9.95573
deSe	-9.95642
▁pala	-9.95662
▁gantum	-9.95664
▁brAhmaRAnAm	-9.95678
sIt	-9.95688
▁patitA	-9.95701
▁kftArT	-9.95736
▁vinASa	-9.95737
muKy	-9.95748
▁viparIt	-9.95772
▁udara	-9.95816
gIt	-9.95846
▁GrARa	-9.95854
▁dant	-9.9592
▁sattamA	-9.95931
▁taruR	-9.96096
▁astram	-9.96111
▁rAmo	-9.96144
▁hiMsA	-9.96157
BaNg	-9.96167
▁dig	-9.96184
duzw	-9.96204
▁SUrA	-9.96279
▁keS	-9.96344
opama	-9.96361
▁akzay	-9.96392
▁aDyayana	-9.96437
▁kzaRam	-9.96475
▁tAmas	-9.96478
▁Boga	-9.96534
▁dvApare	-9.9661
▁vindati	-9.96611
parAyaRaH	-9.96619
▁dEvam	-9.96627
▁paryAy	-9.96671
▁jAH	-9.96719
▁tejasaH	-9.96755
▁BAgam	-9.96763
▁nivas	-9.96783
syeva	-9.96786
▁dakziR	-9.96797
rudD	-9.96799
saMsT	-9.96806
Ayatan	-9.96811
▁vidaH	-9.96815
gOrav	-9.96829
▁dagDa	-9.96833
▁maraR	-9.96833
▁prakASa	-9.96856
▁kevalam	-9.9687
▁pitara	-9.96872
▁aDama	-9.96915
▁payaH	-9.96916
▁saMvAda	-9.97001
stya	-9.97002
▁syA	-9.9701
BAge	-9.97073
▁vedanA	-9.97116
▁dAra	-9.97147
nyat	-9.97159
▁hfdayam	-9.97244
▁sarvEr	-9.97303
Kal	-9.9732
▁kamala	-9.97329
sUt	-9.97356
jag	-9.97357
nugrah	-9.97365
BftAM	-9.97367
inO	-9.97433
raTa	-9.97474
kriy	-9.97565
▁gAtr	-9.97626
▁drORi	-9.97631
▁guroH	-9.97631
▁pUjayitvA	-9.97631
▁goptA	-9.97632
▁karomi	-9.97633
▁hfzIkeSa	-9.97654
▁yujyate	-9.97655
patya	-9.97687
▁Danuz	-9.97687
▁madya	-9.9769
▁cakruH	-9.97696
▁apriy	-9.97717
SuB	-9.9772
▁pavan	-9.97734
▁mahAtmAnam	-9.97778
▁yoginaH	-9.9778
▁vizRur	-9.97791
▁varg	-9.97853
▁Sukl	-9.97872
paryant	-9.97961
kowi	-9.97983
▁lohita	-9.98041
▁vaSI	-9.98101
▁prAjYaH	-9.98164
Ez	-9.98181
▁kopa	-9.98219
▁vastu	-9.98227
▁nASanam	-9.98243
tat	-9.98294
endriy	-9.98321
▁karmA	-9.98322
▁kAkutsTa	-9.98375
▁dvitIya	-9.98432
maRi	-9.9846
▁pratyaya	-9.98596
rakta	-9.98667
▁mftam	-9.98682
▁samet	-9.98726
▁agne	-9.98727
▁rUpARi	-9.98731
▁praviveSa	-9.98741
▁SuBr	-9.98785
▁prayacCati	-9.988
▁pramAd	-9.98805
pateH	-9.9881
▁sirA	-9.98814
ScAny	-9.98824
▁teByaH	-9.98855
▁hate	-9.98855
rjuna	-9.98873
▁BartAram	-9.98884
nAyaka	-9.98887
▁jYAta	-9.98989
▁AtmajaH	-9.99129
▁vedAH	-9.99269
vAdin	-9.99342
▁yaSas	-9.99376
▁hite	-9.99377
loke	-9.99394
▁SrAdDam	-9.99422
▁udakam	-9.99428
▁Dfta	-9.99442
▁vasat	-9.99463
jIrR	-9.99499
▁anvit	-9.99513
▁kftsnam	-9.99536
▁aMSam	-9.99567
▁agre	-9.99587
▁asyAH	-9.99588
▁marma	-9.99616
▁hareH	-9.99632
▁rav	-9.99654
purogamAH	-9.99703
▁kfzRadvEpAyan	-9.99703
▁dvijAtayaH	-9.99704
▁DyAtvA	-9.99704
alaM	-9.99727
▁mAyayA	-9.99727
▁IkzaR	-9.9973
▁varzARi	-9.99734
▁viDAnena	-9.99738
▁praSaMsant	-9.99747
Asanam	-9.99781
▁maraRa	-9.99785
nirudD	-9.99792
▁anyac	-9.99795
▁sAtyaki	-9.99799
paw	-9.99811
▁lomaSa	-9.99824
▁grAhya	-9.99838
sADana	-9.99838
▁pAvan	-9.99885
parAjit	-9.99963
▁Ayuz	-9.99996
▁prasUt	-10.0006
▁varRam	-10.0006
vasA	-10.0013
▁AcAr	-10.0014
▁kaRWa	-10.0016
Amalak	-10.0017
▁gocar	-10.0017
▁deSam	-10.002
▁sadfSam	-10.0023
Asana	-10.0025
▁yogam	-10.0029
▁SAstram	-10.0029
▁Sakun	-10.0032
▁Dfzwadyumna	-10.0034
Atmano	-10.0036
▁catvAri	-10.004
▁Baj	-10.0042
▁buDEH	-10.0052
▁nfpate	-10.0052
▁hatAH	-10.0059
▁samasta	-10.0059
▁yadu	-10.0061
▁dfQ	-10.0069
▁nUna	-10.007
▁kANkz	-10.0072
▁bahavo	-10.0076
▁trIRi	-10.0076
▁kvAT	-10.0076
▁nityaSaH	-10.0077
▁pade	-10.0077
▁SlokaH	-10.0096
vfz	-10.0097
karot	-10.0104
▁SirasA	-10.0105
▁paramAtmA	-10.0108
kAraRam	-10.0109
dvaya	-10.0118
BUd	-10.0125
kaP	-10.0129
▁SivAya	-10.0143
gAr	-10.0147
gato	-10.016
▁Arogya	-10.016
cetan	-10.0161
cApi	-10.0162
cikits	-10.0166
▁pAradaH	-10.0173
▁piRq	-10.0174
▁svAmin	-10.0176
▁modate	-10.0182
▁pASupat	-10.0182
▁sADAraR	-10.0182
▁vihAya	-10.0183
▁girA	-10.0183
AKyAna	-10.0184
▁sarpiH	-10.0184
▁SamBu	-10.0184
▁gacCe	-10.0185
▁sarvalok	-10.0186
▁haret	-10.0188
krAma	-10.0188
▁jAnAmi	-10.0188
▁bAnDavAH	-10.0189
▁nivftti	-10.0191
▁viBIzaRaH	-10.0192
▁udaka	-10.0196
jYAnam	-10.0198
AtmajaH	-10.0199
▁DaraH	-10.0199
▁paramAM	-10.02
▁etezAm	-10.0201
karmA	-10.0206
▁mAlA	-10.0211
▁dUra	-10.0211
▁prasaNg	-10.0213
kaR	-10.0214
kzayA	-10.0215
▁kAka	-10.0225
paYca	-10.0226
veSa	-10.0227
▁sfj	-10.0229
▁yadya	-10.023
▁meDA	-10.0232
Etad	-10.0238
▁jYeyA	-10.0244
▁pOra	-10.0247
▁brAhmaREH	-10.025
▁puzkar	-10.0252
DAt	-10.0255
▁jvaraH	-10.0259
mARaH	-10.0261
▁vraja	-10.0267
praveS	-10.0267
▁vasanti	-10.0271
▁vEdy	-10.0272
dur	-10.0272
AcC	-10.0279
enApi	-10.0279
rTo	-10.0282
▁pAke	-10.0284
▁BUya	-10.0285
▁ambara	-10.0289
▁duhitA	-10.029
▁kapot	-10.029
▁dvayoH	-10.029
▁kfmi	-10.029
▁lajj	-10.029
▁sADv	-10.0293
▁tenEva	-10.0295
▁viSvAsa	-10.03
AMSu	-10.0302
cUrRa	-10.0304
▁mahAdev	-10.0307
▁ESvaryam	-10.031
▁samAn	-10.0313
kopa	-10.0325
▁fziBiH	-10.0327
▁puzkara	-10.0328
▁ityuktvA	-10.0328
▁BUyo	-10.0329
▁DAt	-10.0338
▁kapil	-10.034
▁vaDaH	-10.0341
AdyA	-10.0344
▁pUjitaH	-10.0346
▁varzam	-10.0352
raTaH	-10.0357
vihit	-10.0358
▁samAvft	-10.0365
▁pradam	-10.0366
▁aparAD	-10.0369
▁apekz	-10.037
▁tIvr	-10.038
▁Kal	-10.039
▁DArmikaH	-10.0391
▁kAmam	-10.0393
kroSa	-10.0397
▁sAraTi	-10.0398
liKit	-10.0398
▁marIci	-10.0398
▁gurav	-10.0398
▁apahaH	-10.0399
▁daSagrIva	-10.0399
Uni	-10.0402
▁citt	-10.041
▁yotsy	-10.0411
▁brUyAt	-10.0415
▁parAkramaH	-10.0416
▁upavizw	-10.0417
SAl	-10.0417
ASana	-10.0417
jYo	-10.0421
▁pARqavEH	-10.0426
▁kfzRam	-10.0429
▁kaliNg	-10.0432
TAH	-10.0432
▁yAma	-10.0435
▁aparA	-10.0439
▁dUzaR	-10.0439
▁prAkft	-10.044
dal	-10.044
▁kzaye	-10.0447
▁SrutaH	-10.0452
▁aparaH	-10.0453
▁prasanna	-10.0457
▁SvA	-10.046
▁brAhmaRo	-10.0462
▁varRAH	-10.0472
▁tenA	-10.0477
▁sant	-10.0487
▁yav	-10.0489
yamAnA	-10.0495
▁drupad	-10.0495
▁paro	-10.0498
etat	-10.0501
▁prasTit	-10.0504
▁BrAtf	-10.0505
▁BartuH	-10.0508
▁sAkzAd	-10.0509
bAh	-10.0512
▁mardya	-10.0513
▁Basm	-10.0514
▁Baga	-10.0514
▁kaTayizy	-10.0515
▁pratipadyate	-10.052
kuRq	-10.0525
Indr	-10.0526
▁vizAda	-10.0526
▁SOnaka	-10.0529
▁upamA	-10.053
▁nirvft	-10.0531
▁Bavana	-10.0537
▁astrAR	-10.0541
▁nAgA	-10.0543
bruvan	-10.0547
▁pAvakaH	-10.0547
▁nIt	-10.0548
krameRa	-10.055
▁anft	-10.0566
vAso	-10.0566
▁sOmy	-10.0567
Ikftam	-10.057
▁manuzya	-10.0571
▁kanyAm	-10.0572
▁garuqa	-10.0575
▁izu	-10.0576
▁hutASan	-10.0579
▁guRA	-10.058
▁vESya	-10.0581
saMmat	-10.0582
▁munay	-10.0585
pfzW	-10.0587
▁hom	-10.0589
▁guRam	-10.0589
rASi	-10.059
▁harz	-10.0591
▁cAriR	-10.0602
Ud	-10.0603
▁samAgatAH	-10.0617
▁muktaH	-10.0619
▁SfRvat	-10.0619
▁vinaSyati	-10.0619
▁vyaTit	-10.0619
▁SmaSAn	-10.0619
▁aBAzata	-10.0619
▁dIyate	-10.0619
▁kzut	-10.0621
▁Arta	-10.0621
▁sPuw	-10.0622
pratizeD	-10.0623
▁rAjYAm	-10.0623
▁utpadyate	-10.0624
▁kftakfty	-10.0625
▁viparIta	-10.0625
▁BavizyAm	-10.0627
▁vastr	-10.0627
▁namaste	-10.0635
▁cEk	-10.0638
tfR	-10.0639
▁kzetrajYa	-10.064
▁SyAma	-10.0641
▁etasmin	-10.0643
▁praBam	-10.0643
▁AkASam	-10.065
▁durDarz	-10.0654
▁naSyati	-10.0656
▁naKa	-10.0656
▁eti	-10.0657
▁dfSya	-10.066
▁latA	-10.0665
▁devarAja	-10.0666
▁vidyut	-10.0667
▁anvitaH	-10.0669
▁vyavasTitaH	-10.0672
▁ASramam	-10.0677
▁ratn	-10.0681
Arta	-10.0682
▁niD	-10.0682
▁apya	-10.069
iha	-10.069
▁adButa	-10.0693
▁Sreyas	-10.0693
▁oG	-10.0694
vasTA	-10.0699
▁paSye	-10.0702
Arcan	-10.0704
▁gulm	-10.0712
▁tftIya	-10.0713
cala	-10.0715
▁ahiMsA	-10.0715
vistAr	-10.0717
pradAn	-10.0726
▁vArzReya	-10.0732
▁paryApt	-10.0732
▁cikzepa	-10.0732
▁hIyate	-10.0732
▁gantA	-10.0732
▁BuYjIta	-10.0732
▁viSrutam	-10.0732
▁upasTit	-10.0733
▁kirIw	-10.0737
▁divase	-10.074
nAga	-10.0741
▁gamanam	-10.0741
▁pUrve	-10.0741
DaH	-10.0746
▁fzIRAm	-10.0749
▁raktam	-10.0751
▁matim	-10.0754
prIt	-10.0756
▁prapitAmah	-10.0757
▁kaRwak	-10.076
▁pASa	-10.076
▁yaM	-10.0763
▁manuja	-10.0769
AKyA	-10.0771
▁Druvam	-10.0775
▁kimarT	-10.0777
▁sadfSaH	-10.0779
gad	-10.0783
▁kAya	-10.0786
Iva	-10.0788
mfd	-10.0796
▁puruzAH	-10.08
▁kaTitaH	-10.08
▁vinIt	-10.0803
▁paR	-10.0804
▁hare	-10.0805
▁vIryeR	-10.0807
Byantar	-10.0808
ByAs	-10.0813
Yjanam	-10.0818
▁dAnavAH	-10.0834
Antare	-10.084
▁BUti	-10.0841
▁yojana	-10.0843
▁ganDamAdan	-10.0845
▁raGunandana	-10.0845
▁pitur	-10.0846
▁mumoca	-10.0846
▁ramate	-10.0846
▁baBUvuH	-10.0847
▁devadeveSa	-10.0847
▁SiKaRq	-10.0848
▁ABaraRa	-10.0848
▁upapann	-10.0849
▁kurava	-10.0853
▁pAvaka	-10.0856
▁jambIra	-10.0864
▁vEvasvat	-10.0864
▁setu	-10.0865
dAra	-10.0866
▁DarmArTa	-10.0869
Amyaham	-10.087
▁GorA	-10.0872
anuttamam	-10.0874
▁Soza	-10.0879
▁naro	-10.0882
Iyante	-10.0887
▁sahA	-10.0888
▁pARqur	-10.0894
stAt	-10.0898
▁ASA	-10.091
SEl	-10.0911
sTAna	-10.0915
yuktam	-10.0916
▁duzkfta	-10.0921
▁DftiH	-10.0926
nASanam	-10.0926
sahasrARi	-10.0929
▁prARin	-10.0933
▁yuktAH	-10.094
▁lubD	-10.094
▁SataM	-10.0943
ottara	-10.0943
▁Sarad	-10.0952
▁parezA	-10.0954
▁kAraRAt	-10.0956
▁paScime	-10.0956
saMyog	-10.0957
▁bfMhaR	-10.096
▁bfhadaSva	-10.096
aBiDIyate	-10.0961
▁nirvARa	-10.0961
▁gurU	-10.0962
▁Kecar	-10.0962
▁indriyARi	-10.0972
▁samprekzya	-10.0973
▁vIrO	-10.0975
▁virAw	-10.0975
▁niboData	-10.0981
▁syur	-10.0984
▁rukma	-10.0985
▁vaDe	-10.0985
▁guqa	-10.0986
▁praRav	-10.0988
▁Kaqga	-10.0991
▁umA	-10.0994
garB	-10.0995
▁mahIm	-10.0998
▁AkASe	-10.0999
▁prItyA	-10.1
▁AdiBiH	-10.1001
▁kaTayant	-10.1003
gacCati	-10.1006
dravat	-10.1011
syApi	-10.1017
▁maraRam	-10.1017
▁aBAve	-10.1027
▁kAzWa	-10.103
▁kftsn	-10.1033
▁vadatA	-10.1036
tezAM	-10.1037
granT	-10.104
viSeza	-10.1042
tapas	-10.1048
SUl	-10.1049
grIv	-10.1052
▁anDaka	-10.1052
▁yAta	-10.1053
▁dIp	-10.1057
▁bAlaH	-10.1058
▁OzaDam	-10.1062
SAk	-10.1068
▁pItam	-10.1069
kaTa	-10.107
hf	-10.1074
▁jIvant	-10.1075
▁jaH	-10.1076
▁udAharanti	-10.1076
▁kftavarmA	-10.1076
▁carAcar	-10.1078
▁uttare	-10.1078
▁catuzwayam	-10.1078
▁vinazw	-10.1078
▁paruza	-10.1079
▁BAti	-10.108
▁dahat	-10.1081
▁gokarR	-10.1083
▁vasan	-10.1084
▁praSAnt	-10.1088
tvAt	-10.1095
saMbanD	-10.1098
▁savyasAcin	-10.1099
nASan	-10.1102
▁carati	-10.1102
▁keSavaH	-10.1105
▁Dvaja	-10.1107
▁SaSi	-10.1108
▁pArTivAH	-10.1113
▁vaNga	-10.1114
▁rAkzasAn	-10.1114
mardan	-10.1115
▁sarAMs	-10.1123
▁antaka	-10.1124
▁SaSa	-10.1137
vyAGr	-10.1137
varDate	-10.114
▁kaRW	-10.1143
▁Aj	-10.1147
prasAd	-10.1152
pUrR	-10.1153
▁pratij	-10.1153
▁aty	-10.1154
▁Cid	-10.1158
kUw	-10.1159
▁SoBanam	-10.116
deha	-10.1161
▁SOnakaH	-10.1171
▁SrUyatAm	-10.1172
izyate	-10.1173
▁maRqalam	-10.1174
▁tapasvin	-10.1179
rbud	-10.1189
▁CittvA	-10.1194
▁kalyARa	-10.1196
▁hantum	-10.1198
▁vaSy	-10.1209
▁deham	-10.121
araT	-10.121
▁apara	-10.1213
▁nyAya	-10.1214
▁dvitIyaH	-10.1217
▁cittam	-10.1217
▁keSa	-10.1219
▁aYjali	-10.1221
▁prajAnAm	-10.1224
▁nftya	-10.1226
▁manasi	-10.1232
▁tfpt	-10.1233
akzay	-10.1234
▁vaDam	-10.1234
▁Dfti	-10.1237
▁hantA	-10.1238
jAnIhi	-10.1239
▁hInaH	-10.1241
▁SarAn	-10.1243
▁adfSya	-10.1249
▁nigraha	-10.1249
▁hitaH	-10.1251
▁vIrAH	-10.1254
eSAn	-10.1255
▁antik	-10.1257
▁balinA	-10.1257
▁vijYAnam	-10.1264
vyADi	-10.1276
▁nakulaH	-10.1281
▁DUm	-10.1288
▁gOtamaH	-10.129
▁akzar	-10.1301
mUrti	-10.1303
▁vEdya	-10.1303
▁kAlo	-10.1305
sarv	-10.1307
▁vedAn	-10.1309
▁BrAtrA	-10.1313
▁jAmbUnada	-10.1313
▁gAnDarv	-10.1313
▁suvratAH	-10.1313
▁dayit	-10.1313
▁varizW	-10.1313
▁arRav	-10.1314
▁kzuDA	-10.1314
▁mAtaram	-10.1314
▁AyuzaH	-10.1314
▁tU	-10.1314
▁prayojanam	-10.1315
▁durjay	-10.1315
Bar	-10.1315
▁icCanti	-10.1317
▁Apta	-10.1319
▁rudrasya	-10.132
▁kuruzva	-10.1321
▁yAdav	-10.1322
▁dIpanam	-10.1323
▁SravaR	-10.1327
▁gAtra	-10.1329
▁nakula	-10.1344
vAhana	-10.1349
▁trayARAm	-10.1361
▁anity	-10.1365
kAriRaH	-10.1367
SIrz	-10.1368
vIkz	-10.1373
BIr	-10.1373
▁Sriy	-10.138
▁rUpaH	-10.1381
rasaH	-10.1382
▁Suzk	-10.1387
▁agnim	-10.1391
▁guRaH	-10.1395
ApahaH	-10.1398
cakra	-10.14
▁asra	-10.1401
▁mantreRa	-10.1404
▁brahmacary	-10.1405
rAzwr	-10.1406
▁antarikz	-10.141
▁kAryARi	-10.1413
kesar	-10.1424
▁rAjas	-10.1425
▁anarT	-10.1426
▁BAge	-10.1428
▁etena	-10.1428
▁mEtr	-10.1431
▁zoqaS	-10.1433
▁kroDaH	-10.1433
▁mAdrI	-10.1434
▁kumBakarRa	-10.1435
▁vEdik	-10.1435
▁pAtAla	-10.1436
▁AdayaH	-10.1436
▁prajApateH	-10.1436
▁Apad	-10.1438
▁dAtum	-10.1438
▁smftiH	-10.1439
▁mitrAR	-10.1441
▁sarvaloka	-10.1441
▁yoginAm	-10.1445
▁senApati	-10.1446
▁anyE	-10.1447
▁GnaH	-10.1449
▁yutam	-10.1449
▁kzatriyaH	-10.1452
▁nakzatra	-10.1454
▁navam	-10.1459
▁kOsalyA	-10.1461
▁kAmarUp	-10.1462
▁puzpAR	-10.1463
▁pOruz	-10.1465
▁candan	-10.1467
▁paYcamaH	-10.1468
▁dvipa	-10.1471
▁suganD	-10.1471
▁pramadA	-10.148
▁Srotriy	-10.1483
viDAn	-10.1489
▁muYca	-10.149
nyo	-10.1491
▁val	-10.1496
▁yogAt	-10.1501
▁pret	-10.1501
dravya	-10.1502
SataM	-10.1505
sTo	-10.1506
▁tasT	-10.1507
aSrezWa	-10.1513
srAv	-10.1513
▁priyaM	-10.1514
▁yuDizWir	-10.1518
▁indriyARA	-10.1523
vallI	-10.1529
▁Sizw	-10.1529
▁antam	-10.1536
kANkziR	-10.1537
▁AjYA	-10.1539
▁satyA	-10.154
SuSrUz	-10.1541
▁raktA	-10.1543
▁kzep	-10.1546
▁SAKA	-10.1551
▁ratAH	-10.1554
▁bIBatsu	-10.1556
▁bruvAR	-10.1556
▁asmABiH	-10.1556
▁pracakz	-10.1556
▁BrAtu	-10.1556
Apnoti	-10.1557
▁varAnan	-10.1558
▁AramB	-10.1558
▁AdInAm	-10.1559
▁striyA	-10.156
▁laByate	-10.1562
▁uktavAn	-10.1567
▁upapadyate	-10.1569
hrad	-10.157
pUjan	-10.1575
▁pramuK	-10.1575
▁pfzwaH	-10.1576
DO	-10.1578
SArdUla	-10.1581
SAli	-10.1583
▁avApya	-10.1583
▁ceti	-10.1583
▁matta	-10.1588
▁anvitam	-10.1589
▁praBAva	-10.1591
▁prAtaH	-10.1592
roha	-10.1604
▁vasA	-10.1605
▁vidAm	-10.161
▁azwA	-10.1611
patra	-10.1614
▁tejo	-10.1619
BrAnta	-10.162
dri	-10.1625
▁parirakz	-10.1629
▁ityeva	-10.1631
▁aSma	-10.1631
▁apAn	-10.1632
tiTi	-10.1632
vizRu	-10.1633
ESvarya	-10.1633
▁budDa	-10.1635
hfday	-10.1635
▁paTya	-10.1639
Aditya	-10.1642
▁pralay	-10.1644
▁kzatriyAH	-10.1647
ArDa	-10.1651
keSa	-10.1652
▁coktam	-10.1657
syAsya	-10.1664
▁pattra	-10.1667
▁pratyakzam	-10.1668
▁SiKaRqin	-10.1676
▁traya	-10.1677
▁OzaDa	-10.1677
▁kziti	-10.168
▁nihataH	-10.168
▁mriyate	-10.1682
mokza	-10.1682
▁ayut	-10.1686
▁Gore	-10.1688
▁SezaH	-10.1688
▁SuSrUzA	-10.1688
▁candramAH	-10.169
▁mAnasaH	-10.169
▁sAkzi	-10.1693
▁SItalam	-10.1693
▁viSrutA	-10.1699
▁vAh	-10.1699
▁pradA	-10.17
kArya	-10.1703
▁taducyate	-10.1709
▁aBimuK	-10.1709
lakzaRa	-10.1719
▁AyuDa	-10.1719
▁sarvakAm	-10.172
▁nEv	-10.1721
▁kuRqa	-10.1721
▁tfpti	-10.1724
▁tftIye	-10.1725
praBav	-10.1727
pIt	-10.1727
gfhRan	-10.1727
▁kuzW	-10.1728
▁vAd	-10.1728
▁snAn	-10.1733
▁anugraha	-10.1734
▁sAmAny	-10.1745
▁prasT	-10.1748
▁saMsarg	-10.1755
▁kany	-10.1755
▁mardana	-10.1763
▁rogAn	-10.1764
▁Siro	-10.1768
▁mAhAtmya	-10.1771
▁SAsanAt	-10.1774
nnaM	-10.1786
▁nimitta	-10.1789
paraM	-10.1789
rTA	-10.179
▁kleSa	-10.1795
▁bale	-10.1796
▁kirIwin	-10.1798
▁BAradvAja	-10.1798
▁varAn	-10.1799
sampannA	-10.1799
asyApi	-10.1801
▁tuzwi	-10.1801
▁Cand	-10.1802
▁Catr	-10.1804
▁sOKya	-10.1804
▁yadfcCayA	-10.1804
▁samprApy	-10.1804
▁Agney	-10.1805
▁izwam	-10.1805
▁BIru	-10.1806
▁BikzA	-10.1806
▁kartavyaH	-10.1807
Atmakam	-10.1807
▁kArye	-10.1808
▁fc	-10.1808
▁sADanam	-10.181
▁sasarj	-10.1811
strI	-10.1812
▁saNga	-10.1812
▁SlezmA	-10.1815
▁kftsnA	-10.1821
▁vatsar	-10.1822
▁nAh	-10.1822
sAhasr	-10.1824
▁sUtaputra	-10.1831
▁paramAtman	-10.1832
▁Sakyate	-10.1837
▁vistareRa	-10.1841
tve	-10.1843
▁kuSa	-10.1846
▁aNgiras	-10.1847
▁Uru	-10.185
▁nAnya	-10.1851
▁dIptA	-10.1867
▁viroD	-10.187
Saly	-10.187
▁cAp	-10.1871
pras	-10.188
▁nIti	-10.1881
▁nizWA	-10.1889
▁SaktyA	-10.1894
▁atri	-10.1896
▁datte	-10.1898
viMSa	-10.19
Bihat	-10.1904
mUtr	-10.1914
▁lomaSaH	-10.192
▁mAza	-10.1922
moha	-10.1924
▁dik	-10.1925
▁raTe	-10.1928
▁Slok	-10.193
▁puRqarIk	-10.193
▁BuNkte	-10.1931
▁SarmizW	-10.1931
▁gUQa	-10.1931
▁parAyaRam	-10.1931
▁SacI	-10.1931
▁viditvA	-10.1931
▁utsahe	-10.1931
▁biBe	-10.1931
▁strIRA	-10.1932
SArdUl	-10.1932
▁durAtmanaH	-10.1933
▁yasmAd	-10.1934
▁tIre	-10.1935
gAmi	-10.1936
▁tasmiMs	-10.1937
▁Srotram	-10.1938
▁sved	-10.1938
▁kOtUhala	-10.1949
▁asyA	-10.1951
▁anDa	-10.1956
vEr	-10.1962
▁krIq	-10.1962
▁niroD	-10.1963
▁Sast	-10.1966
▁aparAjita	-10.1971
▁BaradvAja	-10.1974
▁guruRA	-10.1976
▁hitAya	-10.1981
Agn	-10.1982
▁darpa	-10.1982
yozit	-10.1984
▁payasA	-10.1985
▁dIn	-10.1991
▁niDanam	-10.1994
▁vivAh	-10.1996
▁niBa	-10.1999
▁sarvaBUtAn	-10.1999
▁catvAr	-10.2
▁mAtula	-10.2001
▁akzayam	-10.2002
nant	-10.2004
▁varA	-10.2007
▁tasmA	-10.2008
haraR	-10.2009
▁prARaH	-10.2013
▁lakzya	-10.2013
▁niyukt	-10.2022
▁vitt	-10.2025
cintak	-10.2027
▁diSa	-10.2039
▁Arti	-10.2043
▁parvataH	-10.2048
▁tIkzRam	-10.2052
nity	-10.2056
jyate	-10.2056
▁BUyizW	-10.2057
▁mUly	-10.2057
ApyudAharantImam	-10.2059
▁dyUta	-10.2059
sAyujya	-10.2059
▁anindit	-10.2059
▁prakzip	-10.2059
▁vaco	-10.2059
▁srazw	-10.206
▁BAk	-10.206
▁kekay	-10.2062
▁DmAt	-10.2062
▁puzy	-10.2064
▁seveta	-10.2066
▁jyezWaH	-10.2066
sUta	-10.2073
nAg	-10.208
dvez	-10.2083
▁upadrav	-10.2084
▁parva	-10.2097
▁vAsavaH	-10.21
▁homa	-10.2102
netr	-10.2102
yahaM	-10.2104
▁niScita	-10.2106
saMsparS	-10.2107
▁nimittam	-10.2108
▁garuq	-10.211
▁pfzWa	-10.2114
Buk	-10.2114
tulya	-10.2116
▁Bujag	-10.2122
▁dAtA	-10.2127
▁parAkram	-10.2131
tAl	-10.2133
▁mftaH	-10.2139
ASrama	-10.2139
▁agnir	-10.2147
▁virudDa	-10.2147
rizw	-10.215
pratyakz	-10.2152
▁dIrGam	-10.2153
▁rOdra	-10.2155
nirmit	-10.2159
▁DftarAzwr	-10.2162
▁bAhya	-10.2167
▁vAsav	-10.2168
▁aSuBam	-10.217
Bihit	-10.2174
Ananda	-10.2176
▁divas	-10.2177
▁pArSva	-10.2183
▁vinASAy	-10.2185
▁Ke	-10.2186
▁BfguH	-10.2188
▁vAsuki	-10.2189
▁varAroh	-10.2189
▁trIn	-10.2189
▁asmat	-10.2189
▁dahan	-10.2189
▁parjany	-10.219
▁anyezAm	-10.2191
▁puruzarzaBa	-10.2191
▁vicakzaRaH	-10.2191
▁narendra	-10.2191
▁kaTayAmi	-10.2192
▁trayo	-10.2193
▁pUrvokt	-10.2193
▁jetu	-10.2195
▁SOca	-10.2197
▁kleS	-10.2199
▁Atura	-10.2206
▁karizy	-10.2214
▁anftam	-10.2216
▁tyAgaH	-10.2216
kartA	-10.2217
▁pravara	-10.2219
Sastr	-10.2223
▁samanvitA	-10.2223
▁granTa	-10.2223
▁rasasya	-10.2228
matir	-10.2232
▁gatir	-10.2233
yaTa	-10.2237
▁satI	-10.2239
▁sADakaH	-10.2251
▁viBakt	-10.2253
▁hatam	-10.2253
stena	-10.2254
prayog	-10.2256
▁tav	-10.2261
▁kfpaH	-10.2266
▁BAvena	-10.2268
vasat	-10.2268
▁sUtra	-10.2268
dyuti	-10.2274
rAvaR	-10.2277
sUry	-10.228
▁sTAvar	-10.2283
▁manuj	-10.2288
gocar	-10.229
dakz	-10.2296
▁vfdDaH	-10.2296
prakAS	-10.2297
▁kzetr	-10.2299
▁puna	-10.23
▁sanAtan	-10.2303
▁cAru	-10.2305
▁Bakzya	-10.231
▁surEH	-10.2311
▁SiSu	-10.2311
sAhas	-10.2313
▁rudrA	-10.2314
▁Ced	-10.2319
▁prAjApaty	-10.232
▁durAsad	-10.232
▁vizRor	-10.232
▁dIkzA	-10.232
▁SvaSur	-10.232
▁prApsya	-10.2321
▁cintayA	-10.2321
samASrit	-10.2321
mudit	-10.2321
▁grAs	-10.2322
▁karavAR	-10.2323
▁cintayan	-10.2324
ruci	-10.2325
▁Bavizya	-10.2326
▁AjagAma	-10.2326
vasu	-10.2326
▁granTi	-10.2327
▁gOra	-10.2331
▁vaset	-10.2333
Dvani	-10.2334
▁svADyAy	-10.2334
mudrA	-10.2335
▁bARE	-10.2335
▁Apat	-10.2337
Scatur	-10.2337
▁nirat	-10.234
▁yajant	-10.2348
▁anyam	-10.2349
surA	-10.235
▁aSakt	-10.2352
▁yaSca	-10.2355
mAno	-10.2359
▁smaran	-10.236
▁vimokz	-10.2362
paYcakam	-10.2366
▁udAhftam	-10.2374
avAp	-10.2378
▁suDA	-10.2382
▁maheSvar	-10.2385
▁Baja	-10.2386
▁anug	-10.2387
▁mUrDani	-10.2392
kzaye	-10.2396
opamA	-10.2397
▁nihant	-10.2403
▁samudAhft	-10.2417
▁SASvatI	-10.2421
ISvaram	-10.2423
▁diSam	-10.2425
▁tala	-10.2432
SOca	-10.2432
▁SaNK	-10.2433
▁dAruRam	-10.2441
▁pakzi	-10.2442
AdIni	-10.2445
▁gfDr	-10.2445
▁kuwumb	-10.2454
▁jvalit	-10.2454
▁klIb	-10.2454
▁saKy	-10.2454
taRqul	-10.2454
▁SArad	-10.2454
▁gAlava	-10.2454
▁anantaram	-10.2454
▁vimucyate	-10.2455
▁rasEH	-10.2455
▁ambar	-10.2456
▁ityarTaH	-10.2456
▁yuDyamAn	-10.2456
▁DAtrI	-10.2456
▁jYAtum	-10.2457
▁naraka	-10.2459
▁kulIn	-10.2461
▁gfDra	-10.2462
mfttikA	-10.2464
Agra	-10.2464
▁cetasA	-10.2464
▁vidyayA	-10.2466
▁sarvajYa	-10.2468
mAly	-10.2469
▁vAsAMs	-10.247
BAra	-10.2471
▁guhy	-10.2489
▁kzetram	-10.2495
▁vAyur	-10.2496
▁prasav	-10.2496
▁hayAn	-10.2497
▁puwet	-10.2502
yaham	-10.2504
kzIr	-10.2504
sto	-10.2512
▁asfjat	-10.2518
▁cakzur	-10.2519
rasaM	-10.2523
▁pUrvA	-10.2525
▁BErav	-10.2527
▁SlokAH	-10.253
▁kzayaH	-10.253
▁vESyaH	-10.2533
priyaH	-10.2536
SravaR	-10.254
▁vyADa	-10.254
▁palam	-10.2542
vezw	-10.2543
▁keSav	-10.2543
maraRa	-10.2545
Bavet	-10.2545
▁suhfdA	-10.2558
▁kartavyA	-10.2572
vadan	-10.2574
samAyukt	-10.2579
▁mAsam	-10.258
▁lakzmaRam	-10.2588
▁Sulba	-10.2589
▁mUrCA	-10.2589
▁suyoDanaH	-10.2589
▁pramatt	-10.2589
▁liptvA	-10.2589
▁manasvin	-10.259
▁pragfhya	-10.2591
▁prahAr	-10.2591
▁nAti	-10.2595
vidD	-10.2595
Dft	-10.2596
▁mahAtmane	-10.2596
▁hrI	-10.2598
▁nareSvara	-10.2599
▁vESravaRa	-10.26
▁kzatriyARA	-10.2606
▁prekz	-10.2606
▁brahmacaryam	-10.2607
▁vAcaH	-10.2609
▁Bakzy	-10.261
IkftA	-10.261
▁jAla	-10.2611
UnAm	-10.2611
▁kftyam	-10.2616
▁nazwe	-10.2618
▁upavAs	-10.2619
▁DarmajYa	-10.2625
▁prAptAH	-10.2627
▁raTinA	-10.263
▁gala	-10.2636
▁yatrA	-10.2637
▁SoPa	-10.2642
▁saraH	-10.2643
BiSca	-10.2644
▁sAhasr	-10.2644
vfdDi	-10.2654
haraRa	-10.2654
▁ityevaM	-10.2654
▁pawa	-10.2657
mantra	-10.2658
▁aBAvAt	-10.266
kzita	-10.2664
vfttiH	-10.2672
▁kaSyapaH	-10.2675
▁pradaH	-10.2677
▁ESvarya	-10.2681
nIk	-10.2687
▁suzu	-10.2687
kaRwak	-10.2693
SAstra	-10.2698
yudD	-10.2704
▁avekz	-10.271
▁iy	-10.2712
▁AtmAnaH	-10.2712
▁nut	-10.2713
▁SakreR	-10.2713
▁ramaRIy	-10.2726
▁SuDyati	-10.2726
▁apramatt	-10.2726
▁gahan	-10.2726
▁pradAtavy	-10.2726
▁visfjya	-10.2726
▁puruzottamaH	-10.2728
▁Sete	-10.2729
▁siMhanAd	-10.2729
▁vikray	-10.273
▁janArdanam	-10.2736
▁samavAy	-10.2736
▁paWet	-10.2743
▁mfgAH	-10.2745
stvayA	-10.2747
▁sahitA	-10.2747
▁aDigacCati	-10.2751
▁gagana	-10.2756
▁taTEvA	-10.2758
▁paYcamam	-10.276
▁divasa	-10.2763
▁gaRAn	-10.2764
▁pItA	-10.277
▁rakzati	-10.2776
kANkz	-10.2776
▁maheSvara	-10.2779
▁viBAga	-10.2782
▁yaSasvinI	-10.279
vinAS	-10.2791
rGya	-10.2805
▁uddiSya	-10.2807
moh	-10.2808
Amahe	-10.2817
▁DAriR	-10.2818
▁vicitrAR	-10.2819
▁balin	-10.2821
DAnam	-10.2822
samanvit	-10.2829
pfcCa	-10.2829
Ngiras	-10.2833
▁etasminn	-10.2836
▁trEloky	-10.2838
Ikfty	-10.2839
▁paTyam	-10.284
▁rADeya	-10.285
Soz	-10.2856
▁sahito	-10.2859
lop	-10.2859
arz	-10.2862
▁pratyaBAzata	-10.2865
▁purIza	-10.2865
▁vimuYca	-10.2865
▁uttaNka	-10.2865
▁vakzyati	-10.2865
jaNG	-10.2865
▁sObala	-10.2865
patay	-10.2866
▁puruzavyAGra	-10.2866
▁piNgal	-10.2867
zyanti	-10.2868
▁golaka	-10.287
▁nagare	-10.287
▁kaRv	-10.287
samapraB	-10.2872
▁pratiBAt	-10.2872
▁nipatit	-10.2872
▁makar	-10.2874
▁dvijottamaH	-10.2874
Bizek	-10.2875
▁vanaspat	-10.2877
syopa	-10.2877
DAriR	-10.2878
▁viBIzaRa	-10.2881
▁BUtA	-10.2885
▁kubera	-10.2892
ASrayA	-10.2896
▁lohit	-10.2897
▁prayAnt	-10.29
▁patanti	-10.2903
▁pARqavAnA	-10.2905
▁hetunA	-10.2908
▁cUrRa	-10.2909
▁Darmaputr	-10.291
▁vivAd	-10.291
▁prayacCa	-10.2913
vartanta	-10.2916
▁dEvata	-10.2921
▁vasant	-10.2921
▁kzipta	-10.2926
viroD	-10.2927
▁saMvart	-10.2928
▁tizWet	-10.2935
tejasA	-10.294
▁aYjana	-10.294
▁saMSaya	-10.2945
virudD	-10.295
▁ISaH	-10.295
▁SoDanam	-10.2951
▁lABa	-10.2953
▁gfhRAti	-10.2956
▁sAhasa	-10.2959
▁ADi	-10.2976
▁kanda	-10.2981
▁Akfti	-10.2982
▁meDy	-10.2984
▁vihIna	-10.2987
▁Gawa	-10.2998
▁Palguna	-10.3001
sAgar	-10.3005
▁KyAti	-10.3005
▁aSvatTAmA	-10.3005
▁bfhat	-10.3005
▁kzitO	-10.3005
▁tacCrutvA	-10.3005
▁kfTAH	-10.3005
▁kftAYjaliH	-10.3007
▁vikfti	-10.301
▁dAsyAmi	-10.3011
▁vIta	-10.3013
▁kAMsya	-10.3014
▁prAhur	-10.3018
▁cOr	-10.3018
▁yayuH	-10.3022
▁SarAva	-10.3022
▁matsyaH	-10.3022
▁yutaH	-10.3023
▁nivartate	-10.3026
ArD	-10.3027
▁Alayam	-10.3029
▁samaBavat	-10.303
▁tapasaH	-10.3031
▁hfzw	-10.3034
▁pariRAm	-10.3034
fdD	-10.3038
▁mene	-10.3051
▁kamal	-10.3051
▁SvAsa	-10.3057
maNgal	-10.3069
▁pApAni	-10.3069
▁pIqA	-10.3075
▁vawa	-10.3076
▁tac	-10.3076
ahe	-10.3082
▁viw	-10.3083
▁Agaty	-10.3084
SIta	-10.3085
▁dviviDam	-10.3089
▁viSvAmitra	-10.3091
▁rogAH	-10.3097
▁tizW	-10.31
▁DarmajY	-10.3105
▁dEvatam	-10.3106
▁SUl	-10.3112
▁kaTayasv	-10.3112
yaTA	-10.3115
▁asita	-10.312
▁pipAsA	-10.3127
samanvitaH	-10.3127
mayI	-10.3141
▁grAhyam	-10.3147
▁bAzpa	-10.3148
▁kAYjik	-10.3148
▁SraddaDAn	-10.3148
▁azwAvakra	-10.3148
▁vfRIzv	-10.3148
▁dahyamAn	-10.3148
▁vyoma	-10.3148
nukUl	-10.3149
saMsadi	-10.3149
▁nizPal	-10.3149
▁prapadye	-10.3151
▁meDAv	-10.3151
▁prApto	-10.3152
▁durAtmanA	-10.3152
▁kaTitA	-10.3154
▁atikramy	-10.3155
▁DyAn	-10.3155
▁Gaw	-10.3156
▁manyante	-10.3157
▁paNk	-10.3159
▁SakyA	-10.3164
▁samaye	-10.3169
▁putraka	-10.3169
▁AdO	-10.3173
vikAr	-10.3176
▁svasT	-10.3177
▁rAhu	-10.3181
▁vyaTA	-10.3185
▁yaTASakti	-10.3188
OzaDa	-10.3193
▁mETuna	-10.3201
▁samApt	-10.3206
niyog	-10.3215
▁arTAH	-10.3216
▁DAny	-10.3221
ocana	-10.3222
▁Dik	-10.3225
tmani	-10.3227
▁pratijYAt	-10.3227
caraR	-10.323
▁kurvate	-10.3232
DyAyaH	-10.3236
cakr	-10.3243
▁saMsAr	-10.3245
▁SAstrAR	-10.3254
▁Sram	-10.3257
▁jayati	-10.3259
▁gagan	-10.3261
▁suganDi	-10.3263
kuSal	-10.3267
▁aBavan	-10.3269
▁kOntey	-10.327
saMSay	-10.3271
gacCan	-10.3281
nEk	-10.3285
▁gamana	-10.3289
ecCA	-10.329
▁yuzmAka	-10.3293
▁sOBAgya	-10.3293
▁ayoDyA	-10.3293
▁fze	-10.3294
▁citrasena	-10.3294
▁gamizyati	-10.3296
▁mahIpAla	-10.3296
▁muzwi	-10.3297
▁parAkramam	-10.3297
▁aDyAyaH	-10.33
▁pradIpt	-10.3306
▁nidarSanam	-10.3316
▁SoRit	-10.3323
▁SiKi	-10.3324
▁buDAH	-10.3329
▁udyAn	-10.3329
▁putrO	-10.3332
BUzaRa	-10.3333
▁jAnan	-10.3337
▁vyUha	-10.334
▁vAyunA	-10.3345
▁paScima	-10.3352
▁tAsA	-10.3353
cAreRa	-10.3358
▁dala	-10.337
▁ukte	-10.337
▁prIto	-10.3371
vidAM	-10.3376
▁ramyA	-10.3377
▁rakzo	-10.338
▁grahaRam	-10.3382
▁aRqa	-10.3388
▁smit	-10.3389
▁nAva	-10.3392
Erapi	-10.3395
dBiH	-10.3395
ruj	-10.3396
Dvaj	-10.3399
▁fzaBAH	-10.34
bIj	-10.3402
gry	-10.3405
noti	-10.3409
▁yac	-10.341
ABra	-10.3411
▁baka	-10.3411
▁saMSray	-10.3413
Siras	-10.3414
kUle	-10.3416
▁candana	-10.3419
▁asmE	-10.3421
▁vahat	-10.3426
▁samAkul	-10.3426
▁AkAra	-10.343
▁ramye	-10.3432
▁aDikaH	-10.3433
▁fkza	-10.3436
▁stey	-10.3436
▁kaWin	-10.344
▁anusmaran	-10.344
▁drazwavy	-10.344
▁SuSuB	-10.344
▁pfTag	-10.344
AvasaT	-10.3441
▁mahAmati	-10.3442
▁nyasta	-10.3442
yez	-10.3444
▁avyayaH	-10.3445
▁samapadyata	-10.3446
▁udvaha	-10.3446
▁dAsy	-10.345
▁karizye	-10.3455
Ardr	-10.3457
▁yuyuDAna	-10.346
▁upetA	-10.346
▁prApnuvanti	-10.3461
▁aBizeka	-10.3463
▁Ajya	-10.3465
▁kaTayati	-10.347
▁vetT	-10.3472
▁kapila	-10.3472
▁candramas	-10.3475
Dun	-10.3478
rjanam	-10.349
▁kevala	-10.3494
▁Agamya	-10.3495
▁yO	-10.3498
DAtu	-10.3499
▁caturBiH	-10.3499
▁Bakz	-10.3501
▁aSru	-10.3501
▁anek	-10.3505
▁kftsna	-10.3508
▁Buvana	-10.351
▁ABam	-10.3525
Estu	-10.353
▁mAmak	-10.3534
▁garBe	-10.3537
▁vartma	-10.3539
Arka	-10.354
▁vfkodaraH	-10.3547
▁Denu	-10.3554
▁pradad	-10.356
▁SastrAR	-10.3561
▁budDe	-10.357
▁BogAn	-10.3571
▁pratigfhR	-10.3572
lavaR	-10.3573
dakziRa	-10.3582
waka	-10.3583
vicakzaR	-10.3587
▁DarA	-10.3589
▁daridr	-10.359
▁kokil	-10.359
▁tfpyati	-10.359
▁tryambak	-10.359
▁nyaset	-10.359
▁hEm	-10.359
▁dvAByA	-10.359
▁samIpe	-10.3591
cCinn	-10.3592
▁karizyasi	-10.3595
Ucu	-10.3595
▁uzit	-10.3596
▁SatruGna	-10.3596
▁kapAla	-10.3597
▁aBigamya	-10.3603
▁gurv	-10.3603
▁pratigraha	-10.3605
▁dehinaH	-10.3609
▁Daram	-10.361
▁gajapuwe	-10.3613
▁manuzyARAm	-10.3615
▁Danur	-10.3616
▁praTamA	-10.3626
▁vimala	-10.3631
ADyakz	-10.3632
▁tapasvinaH	-10.3634
▁SatEH	-10.3649
▁viSvAmitraH	-10.365
▁taTAny	-10.3653
▁saPal	-10.3653
▁pratIkz	-10.3655
neka	-10.3659
▁kzaRena	-10.3666
▁upamam	-10.3673
▁liNgAni	-10.3674
▁pARinA	-10.3674
▁tatsarva	-10.3681
hAsa	-10.3681
▁pARqura	-10.3685
▁durDarza	-10.3694
kozW	-10.3697
▁Kaqg	-10.37
▁tantra	-10.3705
pUjayan	-10.3708
samanvitam	-10.371
haret	-10.371
yAtma	-10.3718
gal	-10.372
▁BAzit	-10.372
▁kASyapa	-10.3721
▁kAntA	-10.3722
▁arTI	-10.3725
▁parABav	-10.3727
pakv	-10.3739
▁Bid	-10.3739
▁varma	-10.3741
▁jiGAMs	-10.3741
▁mAciram	-10.3741
▁kriyamAR	-10.3741
▁balavattar	-10.3741
▁saMramB	-10.3741
▁avoca	-10.3741
▁agamat	-10.3741
▁yuDA	-10.3742
▁vijAnat	-10.3742
▁DArA	-10.3742
ranDr	-10.3743
▁praTame	-10.3743
▁dvijaSrezWa	-10.3744
▁pakt	-10.3746
▁prARAyAm	-10.3747
▁jIvitum	-10.375
▁nimez	-10.3751
▁pUjyate	-10.3751
▁buDyate	-10.3755
parAD	-10.3755
▁pfTivIpati	-10.3757
▁araRye	-10.3758
ratna	-10.3758
▁kupya	-10.3764
AgninA	-10.3765
Alayam	-10.3769
▁brAhmaRAn	-10.3769
▁zazWe	-10.377
▁raTena	-10.3773
▁SizwA	-10.3782
▁nivAt	-10.3784
▁janmani	-10.3787
▁guREr	-10.3798
▁gantavya	-10.3801
▁yajet	-10.381
orag	-10.3811
▁tAvak	-10.3813
▁pralaya	-10.3815
vAsan	-10.3818
dAh	-10.3828
gotr	-10.3829
▁saras	-10.3837
svinn	-10.3841
▁viSvarUp	-10.3848
AcAra	-10.3852
▁vivft	-10.3858
▁cAnu	-10.386
▁caraRa	-10.386
puRy	-10.3868
▁nihan	-10.3869
dvayam	-10.3877
sEny	-10.3879
kurute	-10.3879
vfzwi	-10.3882
mitatejas	-10.3885
trayaM	-10.3885
▁mohAt	-10.3885
▁bahuBir	-10.389
▁pravizwA	-10.3891
▁loma	-10.3892
▁locana	-10.3894
▁pfcCAm	-10.3895
▁purastAt	-10.3895
▁Bizaj	-10.3895
▁SArIr	-10.3895
▁virUpAkza	-10.3895
▁vimfS	-10.3895
▁sarpiz	-10.3895
▁patrARi	-10.3895
▁nindit	-10.3895
▁yasmAdAha	-10.3897
▁haviH	-10.3899
▁Palgun	-10.3899
▁SUlin	-10.39
▁cintit	-10.3901
▁prApti	-10.3904
▁dravEH	-10.3905
▁timi	-10.3906
▁tasyEva	-10.3909
▁vimuK	-10.3913
niDiH	-10.3918
▁Bezaj	-10.3919
▁prARinAm	-10.3928
▁ISAnam	-10.3931
▁zazW	-10.3938
syEv	-10.394
▁AtmakaH	-10.3947
harA	-10.3948
▁parAn	-10.3957
candan	-10.3957
mAhAtmy	-10.3968
▁praBave	-10.397
vadat	-10.3974
▁divam	-10.3981
▁BaktaH	-10.3985
▁aSuB	-10.3989
SADi	-10.399
▁nAny	-10.3995
▁Goza	-10.3996
▁paRqitaH	-10.3998
▁paYcaDA	-10.4
sattva	-10.4001
▁tyajat	-10.4001
▁matt	-10.4014
izye	-10.4016
puraskft	-10.4021
vAsinAm	-10.4024
▁varjitaH	-10.4029
▁pfzWe	-10.403
▁hiNgu	-10.4045
▁dASArh	-10.4051
▁pitfpEtAmah	-10.4051
▁biBrat	-10.4051
▁drazwA	-10.4051
▁parANmuK	-10.4051
jagmatuH	-10.4051
▁bahuviDa	-10.4051
Buv	-10.4052
kanyakA	-10.4052
▁uzwr	-10.4052
▁prayAga	-10.4054
▁Ikz	-10.4056
▁parAjay	-10.4057
▁vErAgya	-10.4061
prayojan	-10.4063
▁anuj	-10.4067
▁vipulA	-10.407
Sma	-10.4071
▁trivft	-10.4073
▁cikitsA	-10.4073
▁mftyur	-10.4082
▁meha	-10.4082
▁vikrAnta	-10.4097
Amaya	-10.4099
miSr	-10.4108
▁BAvita	-10.4109
▁mandara	-10.4109
▁strIzu	-10.4111
▁mAnam	-10.4112
brahmacAriR	-10.4115
maDya	-10.4118
mAlA	-10.4118
▁kaTay	-10.4119
hanyate	-10.4125
▁saMhAra	-10.4134
▁sarvarog	-10.4139
▁jitendriyaH	-10.414
▁vaktu	-10.4143
stav	-10.4151
SirA	-10.4154
▁aBimAn	-10.4154
sahit	-10.4158
Etat	-10.416
AkAra	-10.4168
▁viKyAtaH	-10.4169
▁pUjitam	-10.4169
▁amitr	-10.4175
▁anujYA	-10.4181
▁SrAdD	-10.4185
▁Syen	-10.4189
spand	-10.4198
▁muRq	-10.4209
▁mriy	-10.421
▁udAhftaH	-10.421
▁vyapohat	-10.421
▁puRqarIkAkza	-10.4211
▁ISvarAH	-10.4212
dite	-10.4213
▁tatkzaR	-10.4214
▁vikramam	-10.4215
tatpar	-10.4218
▁uddizw	-10.422
▁cIra	-10.4221
▁sTitvA	-10.4224
▁pOruzam	-10.4226
▁praharaR	-10.4227
▁BAnu	-10.4229
▁lohAn	-10.423
▁prakASate	-10.4233
▁vftam	-10.4234
▁kaPavAta	-10.4238
▁sahasrAkz	-10.424
jAti	-10.4247
▁svak	-10.4255
AdyEr	-10.4261
vaSaM	-10.4262
▁hutASanaH	-10.4267
▁vAruR	-10.4268
▁sutAn	-10.4269
▁hasan	-10.427
pravftt	-10.427
▁Dfzwadyumn	-10.4273
▁visarg	-10.4275
▁anubanD	-10.4277
▁tapasv	-10.4277
▁svacCa	-10.4295
▁yamO	-10.4297
▁kam	-10.4298
▁SoDana	-10.4304
▁anurakt	-10.4304
▁kaca	-10.4308
▁rAkzasAnAm	-10.4318
▁rakzitA	-10.4318
▁gfhRIyAt	-10.432
▁pinAkin	-10.4325
▁laya	-10.433
sTUl	-10.4331
▁varAh	-10.4335
▁tuBya	-10.4337
▁ruk	-10.4339
▁BaktA	-10.4345
patnI	-10.4347
▁yuyuD	-10.435
▁mahAdevo	-10.4351
jagAma	-10.4356
pradA	-10.4361
parigrah	-10.4369
▁SradDayA	-10.4371
▁jaWar	-10.4371
▁nipuR	-10.4371
▁sOBadra	-10.4371
▁paSavaH	-10.4371
▁sIdati	-10.4371
▁kumud	-10.4371
▁naravyAGra	-10.4372
▁velA	-10.4372
▁vArtt	-10.4372
▁SuBEH	-10.4372
▁vfzaDvaja	-10.4372
▁nindA	-10.4373
▁BuvaH	-10.4374
▁dIyatA	-10.4374
▁DAma	-10.4375
▁indu	-10.4376
▁vedavid	-10.4379
▁garIy	-10.438
▁vijYAn	-10.4382
▁nityadA	-10.4383
darp	-10.4384
▁Bukta	-10.4385
▁aBiprAy	-10.4385
ADip	-10.4386
▁Sarv	-10.4387
▁pAzARa	-10.4388
vivek	-10.4388
▁viSvAtmA	-10.4391
▁pratyay	-10.4396
vartanam	-10.4398
mArut	-10.4398
Dvaja	-10.4399
▁upasTitam	-10.44
paSyat	-10.4407
▁niveS	-10.4413
▁prajAnA	-10.4422
▁praBUta	-10.4422
papann	-10.4422
▁majja	-10.4428
pAS	-10.4429
▁avayav	-10.443
mAMsa	-10.4432
▁atiTi	-10.4433
▁prayatn	-10.444
vraR	-10.4446
tuly	-10.4447
▁kzatraDarm	-10.4448
▁parEH	-10.4449
▁sampadyat	-10.4452
paTy	-10.4453
▁pradAsyAm	-10.4463
▁cokt	-10.4468
▁kfzi	-10.4469
▁pfT	-10.4469
BArgav	-10.4472
▁nopa	-10.4476
Slez	-10.4478
dAha	-10.4488
▁brUyA	-10.4496
▁aDikAr	-10.4509
astr	-10.4509
▁svasTa	-10.4511
▁fRa	-10.4512
▁ann	-10.4513
Atmane	-10.4515
pAzAR	-10.4519
▁vartante	-10.4533
▁mUrK	-10.4535
▁SfRvant	-10.4535
▁leKya	-10.4535
▁uccAvac	-10.4535
▁BfSa	-10.4535
▁prayojy	-10.4535
▁kaluz	-10.4535
▁prasupt	-10.4535
▁rAjovAca	-10.4535
▁DarmizW	-10.4535
▁tridiv	-10.4535
▁mAheSvar	-10.4535
▁tisra	-10.4536
▁niScitya	-10.4536
▁sarvaBUtezu	-10.4536
▁vAtapitta	-10.4536
▁triMSat	-10.4536
▁parAyaRA	-10.4539
▁sADUn	-10.4539
▁jambu	-10.454
▁pAnIya	-10.4541
sneh	-10.4542
▁kapard	-10.4544
▁vIkzya	-10.4544
▁viduzA	-10.4545
▁varuRasya	-10.4551
▁SataSo	-10.4551
▁hArI	-10.4552
▁varjy	-10.4558
tritaya	-10.4566
ottamA	-10.4571
▁vats	-10.4572
▁puMsAm	-10.4578
cUrR	-10.458
▁kAkutsT	-10.4581
▁sakAS	-10.4583
▁brAhmaRAnA	-10.4584
▁Bagna	-10.4585
garBa	-10.4587
ftya	-10.459
▁miSra	-10.4604
tArakam	-10.4606
▁labDA	-10.4606
▁tizWant	-10.4607
mBasA	-10.4615
▁dAsa	-10.4622
▁kozWa	-10.4624
▁grahaRa	-10.4627
▁sten	-10.4639
▁Amaya	-10.464
ArTI	-10.4641
▁savy	-10.4641
▁BaradvAj	-10.4645
▁vistAra	-10.4662
ccEva	-10.4663
▁ukto	-10.4666
EstaTA	-10.467
▁carant	-10.4672
▁vasUnA	-10.4674
▁astam	-10.4682
Acc	-10.4689
parAyaRA	-10.4698
AnfSaMsy	-10.4702
▁vESvAnar	-10.4702
▁baBO	-10.4702
▁itTam	-10.4702
▁paYcASat	-10.4702
▁naSyanti	-10.4702
▁hAni	-10.4702
▁gfhRI	-10.4703
▁tarasA	-10.4703
▁utsav	-10.4704
▁yaTAkAmam	-10.4704
▁dozAn	-10.4704
▁vavr	-10.4705
▁guda	-10.4706
▁stuti	-10.4707
▁yOvane	-10.4709
▁cetasaH	-10.4709
▁aBAvaH	-10.4711
▁turag	-10.4716
▁syAn	-10.4717
▁muRqa	-10.4719
▁diti	-10.4721
vagAh	-10.4721
nfpa	-10.4726
▁pratiSrut	-10.4728
▁kftaGn	-10.4737
▁kUwa	-10.4739
harza	-10.474
▁lOkik	-10.4742
▁visfzw	-10.4744
▁upakAr	-10.475
▁brahmaloka	-10.4752
▁vyasana	-10.4753
viBUzaR	-10.4754
▁pradAya	-10.476
▁paYcame	-10.4768
cAraR	-10.4772
SfNga	-10.4787
▁bfhad	-10.4788
▁ketu	-10.4792
▁DarmAn	-10.48
bak	-10.4808
▁amu	-10.482
▁niSitE	-10.4825
vidy	-10.4829
dugD	-10.4831
ocyate	-10.4833
kzAra	-10.4838
▁bahula	-10.4842
▁upalabD	-10.4842
▁vEvasvata	-10.4843
▁yatna	-10.4844
nyonya	-10.4848
kanyA	-10.4853
sUtr	-10.4857
▁visfja	-10.4861
ABaraRa	-10.4863
kfzR	-10.487
▁vidvAMs	-10.4871
▁mAtuluNga	-10.4871
▁nipapAta	-10.4871
▁SilAjatu	-10.4871
▁vapuzA	-10.4871
▁SitEH	-10.4871
▁nArAc	-10.4872
apaSyAma	-10.4872
▁kzema	-10.4872
gupt	-10.4872
▁yaTokta	-10.4874
▁yozitaH	-10.4875
▁SiS	-10.4876
▁vihAr	-10.4877
▁AraRy	-10.4878
▁prakfteH	-10.4879
mBasi	-10.4881
sADu	-10.4881
▁narARAm	-10.4882
SiKar	-10.4883
AhuH	-10.4885
▁praBAt	-10.4887
stIkzR	-10.4895
▁vijity	-10.4896
pratihat	-10.4896
▁nivizw	-10.4901
vaNg	-10.4903
pallav	-10.4906
▁rahasya	-10.4908
▁asurAH	-10.491
mandir	-10.4913
▁Cidra	-10.4923
▁snigDA	-10.4927
AdInA	-10.4933
▁BIzmeR	-10.4933
ASrame	-10.4934
▁SlakzRa	-10.4935
▁apahA	-10.4938
nivAsin	-10.4942
▁virah	-10.4945
▁BItA	-10.4946
▁antarikza	-10.4949
▁suparRa	-10.4955
▁Buja	-10.4963
cAmar	-10.4963
▁madana	-10.4968
▁vavarz	-10.4969
taTA	-10.4971
▁dadyA	-10.4973
▁vAnarARA	-10.4975
▁varAha	-10.4976
▁rAzwre	-10.498
Bojy	-10.4983
▁kroDAt	-10.4989
▁SrIdev	-10.499
▁nirmukt	-10.5003
▁niDana	-10.5009
▁Ardra	-10.5013
Scitr	-10.5014
▁kfpaRa	-10.5017
▁anayA	-10.5027
kzepa	-10.5031
▁puru	-10.5032
catuzway	-10.5042
dravy	-10.5043
▁Danvantari	-10.5044
▁agnizwoma	-10.5044
▁jagannATa	-10.5044
▁krOYc	-10.5044
▁prAhiRo	-10.5044
▁sPawik	-10.5044
▁vijAnAti	-10.5044
▁inDan	-10.5044
pulin	-10.5044
▁caturTe	-10.5044
▁durmate	-10.5044
otpatti	-10.5044
▁sTavir	-10.5044
▁bfhaspate	-10.5045
▁kftrima	-10.5045
▁dvijAtInA	-10.5045
▁grasate	-10.5045
▁bila	-10.5046
▁uvAc	-10.5048
azwottara	-10.505
▁prAviSa	-10.5051
▁vAdinaH	-10.5055
Antik	-10.5056
▁apsarasa	-10.5056
▁pibanti	-10.5057
▁uraga	-10.5059
▁devatAnAm	-10.5059
▁AsId	-10.5063
▁mArjAra	-10.5065
neha	-10.5067
▁araRya	-10.5068
▁surARAm	-10.5069
▁naBas	-10.5072
vartante	-10.5072
▁nayana	-10.5074
▁icCet	-10.5079
▁suvarR	-10.5084
▁upavAsa	-10.5087
▁hantavy	-10.5088
▁kukz	-10.5089
ESc	-10.509
hAriR	-10.5091
▁vAlin	-10.5093
▁pinAk	-10.5094
▁aNgula	-10.5095
▁manyamAn	-10.5096
Slezma	-10.5099
▁eBi	-10.5109
Sceti	-10.5113
▁sureSvara	-10.5124
▁Agamana	-10.5127
▁vacas	-10.5143
▁nAmA	-10.5145
bravI	-10.5147
▁pArSv	-10.5149
▁caranti	-10.5155
▁BuYjAn	-10.5158
▁sAtvat	-10.5165
▁Asur	-10.5167
▁janeSvara	-10.5169
gnO	-10.5177
▁mandA	-10.5187
jambIr	-10.519
▁sahasrAkza	-10.5191
GAtin	-10.5196
▁cAha	-10.52
▁nandI	-10.5202
▁patana	-10.5204
Avarta	-10.5214
vatizWate	-10.5219
▁SuSrAva	-10.5219
▁upAgamat	-10.5219
▁SArNga	-10.5219
▁jawil	-10.5219
▁jijYAs	-10.5219
▁muhur	-10.5219
▁nyagroD	-10.5219
▁tArkzya	-10.5219
▁SAmyati	-10.5219
▁avyagr	-10.5219
▁balIyasA	-10.5219
▁vEnatey	-10.5219
▁mAgaD	-10.5219
▁vadet	-10.5219
▁ftvij	-10.5219
▁prAdAt	-10.522
▁asaMSayam	-10.522
▁loBAt	-10.522
▁eziR	-10.5221
▁jyotizA	-10.5221
▁pawu	-10.5222
▁janADipa	-10.5225
skanD	-10.5225
sapta	-10.5228
viduz	-10.523
▁kurunandana	-10.523
▁nirAhAr	-10.5234
▁prayuYjIta	-10.5235
▁gamyate	-10.5237
▁vAyas	-10.5239
▁anuvartate	-10.5243
▁vidyAd	-10.5244
▁SiKA	-10.5246
prakfti	-10.5246
▁copa	-10.525
▁udyamy	-10.525
dIpa	-10.5251
▁uktastu	-10.5254
yogAd	-10.5255
▁citraka	-10.5262
▁anyad	-10.5274
▁svarUpa	-10.5274
▁darS	-10.5281
▁pUrveRa	-10.5282
nukamp	-10.5286
▁mUrt	-10.5296
▁hanta	-10.5298
▁mita	-10.5298
SAnt	-10.5301
▁aBiD	-10.5305
▁avamAn	-10.5311
▁paNka	-10.5315
▁kAryezu	-10.5319
▁etAm	-10.5327
pitf	-10.5328
▁pareRa	-10.5329
▁paScim	-10.5332
▁maDunA	-10.5341
▁anvitAH	-10.5342
▁vyApya	-10.5353
▁rud	-10.5353
▁sakalA	-10.5354
▁nArh	-10.5356
▁vitat	-10.5364
▁nakzatr	-10.537
▁Srotr	-10.5372
AMstaTA	-10.5376
▁nandan	-10.5377
Ambara	-10.5379
▁vanezu	-10.538
▁raTin	-10.5381
AruR	-10.5387
fzi	-10.5388
▁asmAka	-10.539
Bavizy	-10.5392
▁ihA	-10.5396
▁SlAG	-10.5397
▁tikt	-10.5397
▁varjay	-10.5397
▁SatakratuH	-10.5398
▁juhuyA	-10.5398
▁mfzA	-10.5398
▁pArzataH	-10.5398
▁mArIca	-10.5398
▁mahArhAR	-10.5398
▁Sreyo	-10.5398
▁pARqo	-10.5398
▁apramey	-10.5398
vallaBa	-10.5398
▁prapannA	-10.5398
rUQa	-10.5399
▁takzaka	-10.54
▁trAsa	-10.54
▁sAkziRaH	-10.5401
▁yojanAnA	-10.5401
▁yajamAna	-10.5401
maRqap	-10.5403
▁camU	-10.5405
daSa	-10.5408
▁vAriRA	-10.5411
▁Sarva	-10.5414
Dvast	-10.5419
▁ajina	-10.542
▁devarzi	-10.5421
▁SaSva	-10.5422
▁tanme	-10.5423
karRa	-10.5425
ArtA	-10.5427
▁aByAsa	-10.5428
▁hfzy	-10.543
▁viBAzA	-10.5435
▁vikalpa	-10.5435
▁niDAya	-10.5436
▁gfhyate	-10.5436
▁vikarRa	-10.5443
▁BUmipa	-10.5443
▁sAgra	-10.5459
tIva	-10.5461
AvaraR	-10.5465
▁ityet	-10.5467
▁stana	-10.547
▁samAsa	-10.547
▁vijYAta	-10.5471
SUny	-10.5473
▁malin	-10.5483
▁udAna	-10.5488
▁upaspfS	-10.5492
BARq	-10.5493
▁satkfta	-10.5507
▁kavi	-10.551
▁sarvAsu	-10.5514
▁nalaH	-10.5518
▁BrAnt	-10.552
▁kampa	-10.5524
▁praSam	-10.5534
▁tAraka	-10.5535
▁bravI	-10.5551
devatA	-10.5552
▁vanavAs	-10.5553
▁yaTEv	-10.5555
▁avara	-10.5557
▁praviSa	-10.5566
▁BasmanA	-10.5569
Siv	-10.5572
▁SfRoti	-10.5579
▁etacCrutvA	-10.5579
▁grIzme	-10.5579
▁jajYire	-10.5579
▁kaTyatAm	-10.5579
▁lipyate	-10.5579
▁syandan	-10.558
▁aNgirAH	-10.558
▁Ceda	-10.5581
▁imAM	-10.5581
▁zoqaSIm	-10.5581
▁drAkzA	-10.5582
▁DErya	-10.5583
▁yuYj	-10.5583
▁niveSanam	-10.5583
▁sAntv	-10.5586
▁Adatte	-10.5586
▁acintya	-10.5587
brAhmaR	-10.5588
▁nigfhya	-10.5588
▁srotasA	-10.5589
sUkt	-10.5595
▁upajAyate	-10.5596
▁band	-10.5596
▁pfcCas	-10.5598
praDAn	-10.5599
▁icCayA	-10.5611
ulk	-10.5612
▁miTuna	-10.5614
sutaH	-10.5619
▁vyApta	-10.562
Ambar	-10.5622
▁anujYAta	-10.5633
▁BakzaRa	-10.564
ByaDik	-10.565
▁nakzatrAR	-10.5659
izyasi	-10.5664
▁izwvA	-10.5666
▁viparyaya	-10.567
▁krIqA	-10.5671
▁antA	-10.5677
▁marutta	-10.5678
syeti	-10.5687
▁sItAyA	-10.5688
▁vany	-10.569
▁upayog	-10.5697
▁mfgayA	-10.5709
▁samudBav	-10.5715
▁dInA	-10.5726
▁vraj	-10.5734
ruRa	-10.5735
ntarikz	-10.5741
▁saritA	-10.5742
▁reKA	-10.5765
▁BUriSravA	-10.5765
▁BagIraT	-10.5765
▁bodDavy	-10.5765
▁svAyamBuv	-10.5765
▁ajAyata	-10.5765
▁ikzu	-10.5765
▁kadalI	-10.5765
▁cihn	-10.5765
▁jANgal	-10.5765
▁dEvatEH	-10.5765
▁Damet	-10.5765
▁vivikt	-10.5765
vfnd	-10.5765
▁BAsvar	-10.5765
pravartak	-10.5766
▁hemn	-10.5766
▁pratyapadya	-10.5766
▁svAmI	-10.5766
yuYjIta	-10.5767
▁prItA	-10.5769
▁aBayam	-10.5769
BraMS	-10.577
▁SaraRya	-10.5771
▁pravadant	-10.5771
▁dikzu	-10.5775
▁Srotra	-10.5776
gadgada	-10.5777
manuzy	-10.5778
▁AjYayA	-10.578
praBfti	-10.5781
▁viKyAta	-10.5781
rakzasAm	-10.5781
▁pravartante	-10.5782
▁tiktA	-10.5782
▁daRqak	-10.5783
▁aGor	-10.5795
▁saMyam	-10.5808
▁rudan	-10.5812
cCar	-10.5814
karmasu	-10.5816
▁nirved	-10.5817
▁pattr	-10.5826
▁tarpaRa	-10.5827
▁amal	-10.583
▁Bajet	-10.5837
kazAy	-10.5838
▁svAmi	-10.5839
▁bilva	-10.5846
▁vimalA	-10.5851
▁prakftyA	-10.5859
▁gotra	-10.5866
▁mAnada	-10.5867
pratIkAS	-10.5868
▁Bikzu	-10.5876
sADak	-10.5886
Arti	-10.5892
▁Cinn	-10.5896
▁tApa	-10.5901
▁kavy	-10.5901
SarIr	-10.5901
AtmikA	-10.5902
▁kANkzit	-10.592
▁vyAna	-10.592
▁pitr	-10.5922
AdiBiH	-10.5927
avatAr	-10.5935
▁samfdDa	-10.5943
▁mUrDa	-10.5947
▁hiraRyakaSipu	-10.5953
▁Sulva	-10.5953
▁aBidudr	-10.5953
▁biBarti	-10.5953
▁mArdav	-10.5953
▁pracCanna	-10.5953
▁kurUn	-10.5953
▁SrISiva	-10.5954
▁virocana	-10.5954
▁SatravaH	-10.5954
DidEvatam	-10.5955
▁aSvinO	-10.5955
▁rakzasaH	-10.5955
▁saMsTAna	-10.5957
▁anucar	-10.5959
DvaMs	-10.5961
▁daSama	-10.5963
▁fkz	-10.5965
▁pUjayed	-10.5969
▁meGA	-10.597
▁agnihotr	-10.5971
▁maru	-10.5978
▁kASyap	-10.5978
▁vivAha	-10.5978
▁kasmin	-10.5979
▁narADipA	-10.5979
▁SravaRa	-10.5984
▁nityA	-10.5984
kurvan	-10.5988
▁nIc	-10.5989
▁AryA	-10.599
▁asADy	-10.599
▁smftvA	-10.5992
▁SaraB	-10.5994
▁Sarma	-10.5995
▁vAdI	-10.6003
▁viSvakarmA	-10.6003
tikta	-10.6006
▁SOc	-10.6009
DUp	-10.6011
aDizWAn	-10.6012
viparyay	-10.6014
▁vaDU	-10.6016
praBAv	-10.6026
▁yAcit	-10.6027
galit	-10.6028
▁Danvin	-10.6034
▁kzaRa	-10.6041
srot	-10.6047
stasyA	-10.6071
durg	-10.6076
▁kAvya	-10.6077
svarUp	-10.6085
▁pey	-10.6086
▁gOtam	-10.6102
▁brU	-10.6104
▁fzIRA	-10.6116
▁nandi	-10.6116
▁grAha	-10.6117
▁aSana	-10.6118
▁nEt	-10.6119
ISAna	-10.6124
▁caryA	-10.6126
numat	-10.613
▁paryupAsat	-10.6146
▁harItakI	-10.6146
▁lIlayA	-10.6146
▁mardayitvA	-10.6146
▁viprarze	-10.6146
▁sTARu	-10.6146
vrIq	-10.6146
▁aBimanyu	-10.6146
▁hiraRmay	-10.6146
▁bahUnAm	-10.6147
▁apfcCat	-10.6147
▁lokapitAmaha	-10.6148
mavApnuy	-10.6149
▁sukumAr	-10.6149
BakzaR	-10.615
▁dAsyati	-10.6151
▁Bidyate	-10.6152
▁stoka	-10.6153
▁vaktA	-10.6154
▁parvasu	-10.6156
panIya	-10.616
▁tantre	-10.6162
pAtak	-10.6162
mADav	-10.6163
▁upaBog	-10.6166
▁DOt	-10.6168
vayav	-10.617
▁vyAkul	-10.6176
▁tApya	-10.6179
▁akasmA	-10.6181
▁jAnanti	-10.6182
mAtreR	-10.6184
▁haray	-10.6193
▁BARqa	-10.6193
▁raktapitta	-10.6194
rhati	-10.6197
▁mady	-10.6198
naKa	-10.6199
▁yaTAgatam	-10.62
▁BEkza	-10.62
▁sudarSana	-10.6209
▁pitry	-10.621
▁sahasreR	-10.6222
▁Bavantu	-10.6227
▁gOtama	-10.6227
▁nirAS	-10.6237
vihval	-10.6238
▁hrasv	-10.6246
▁viraj	-10.625
▁sarpA	-10.6268
▁varzati	-10.6277
▁nirgat	-10.629
vilAs	-10.6291
▁nAgara	-10.6294
▁sarvatIrT	-10.6304
▁tuza	-10.6306
DikAr	-10.6311
▁idAnI	-10.6316
▁Asa	-10.632
▁vyavasAy	-10.6326
gOr	-10.6328
▁napuMsak	-10.6342
▁pradyumn	-10.6342
▁siDyanti	-10.6342
▁durmatiH	-10.6342
▁vizRave	-10.6342
▁SreyAn	-10.6342
▁viDIyatAm	-10.6342
▁snuzA	-10.6342
▁devAsure	-10.6342
▁vinDya	-10.6342
▁prasahya	-10.6342
▁aSaky	-10.6342
▁prasakt	-10.6342
▁upetaH	-10.6343
▁budDvA	-10.6343
▁prokto	-10.6343
bimb	-10.6343
▁Atape	-10.6344
▁parvaRi	-10.6344
NguzW	-10.6345
▁imO	-10.6346
▁mardayed	-10.6346
▁sarzap	-10.6347
▁upalaByate	-10.6348
▁vAsinaH	-10.6349
▁AKyAnam	-10.6351
▁svAgata	-10.6352
▁kfz	-10.6352
▁nirAmay	-10.6353
▁garhit	-10.6354
▁praSna	-10.636
▁ADAra	-10.6361
▁nirBay	-10.6367
▁vAcam	-10.6371
indriy	-10.6371
▁pfTivIpate	-10.6377
▁SlokO	-10.6392
▁sAtmya	-10.6394
▁apsarasA	-10.6396
SalAk	-10.6398
▁calit	-10.6437
▁anumAn	-10.6437
satkft	-10.6456
laNGan	-10.6461
pahfta	-10.6462
netra	-10.6466
Scandra	-10.6482
▁nimn	-10.6484
▁samit	-10.6486
praSaMs	-10.6488
▁sadyo	-10.6488
▁anugata	-10.6493
▁Ayas	-10.6502
▁hftA	-10.6502
nvay	-10.6503
BayAd	-10.6508
Dyayana	-10.6513
▁kurURA	-10.652
▁Sarat	-10.6521
AQak	-10.6525
▁pUjayant	-10.6533
▁viSvakarmaR	-10.6538
▁fzIn	-10.6542
▁mOktika	-10.6542
▁vinyaset	-10.6542
▁Bavitavy	-10.6542
▁veditavy	-10.6542
pedire	-10.6542
▁SamBoH	-10.6542
▁gurO	-10.6542
▁bahv	-10.6542
▁rAjarziH	-10.6542
▁gamBIra	-10.6542
▁caRqAl	-10.6542
▁jaGnu	-10.6542
▁sAkzI	-10.6543
▁menire	-10.6544
▁dvijasattamA	-10.6545
▁bAhU	-10.6545
▁parimAR	-10.6546
▁BavadBiH	-10.6546
▁DArayat	-10.6546
▁gavy	-10.6546
▁Kalve	-10.6548
▁karuRa	-10.6549
▁aDvAna	-10.655
▁vyatIt	-10.6551
banDu	-10.6553
▁prApnuyAt	-10.6556
▁nAnyaTA	-10.6558
▁jIved	-10.656
▁viSAlA	-10.6561
▁brahmarzi	-10.6562
▁icCe	-10.6563
vande	-10.6564
▁Darmy	-10.657
▁yazw	-10.6571
▁indrajit	-10.6571
Gft	-10.6573
▁yogy	-10.6573
bindu	-10.6573
▁Ayur	-10.6582
▁mayUra	-10.6586
Palaprada	-10.6589
▁bruvant	-10.6589
IkftaH	-10.6607
▁samprati	-10.6608
▁tapan	-10.661
jYey	-10.661
▁Badr	-10.6611
patny	-10.6612
▁anvay	-10.6616
vapu	-10.6623
mudg	-10.663
▁prAdrava	-10.6652
▁varzasahasr	-10.6653
▁kAvy	-10.6697
▁paratr	-10.6715
▁nIca	-10.6716
▁avApa	-10.6717
ANgo	-10.6726
▁vfk	-10.673
▁yatamAn	-10.6734
trEva	-10.6734
▁yAsyAm	-10.6738
▁aNgAr	-10.6738
Sizy	-10.6741
▁BartAra	-10.6743
vihIn	-10.6744
▁prasravaR	-10.6746
▁jambU	-10.6746
▁kzantum	-10.6746
▁nEmiz	-10.6746
▁ojasaH	-10.6746
▁sADavaH	-10.6746
▁prajApatim	-10.6746
▁anAry	-10.6747
▁vakzyAmaH	-10.6747
▁nAwya	-10.6749
▁nirRay	-10.6752
▁vAlI	-10.6752
▁BOm	-10.6754
▁Baratasattama	-10.6754
▁etan	-10.6754
▁amlena	-10.6755
▁cintayet	-10.6757
▁dfzwavAn	-10.6758
▁nyasya	-10.6773
▁viniScaya	-10.6774
nirdizw	-10.6776
▁aByaBAzata	-10.6777
▁praRay	-10.6778
▁praviSant	-10.6783
sAtmy	-10.6783
stamBa	-10.6788
rAkzasa	-10.6791
Yjali	-10.6806
▁vyADit	-10.6813
▁aDyAy	-10.6815
▁vasanta	-10.6833
BUmi	-10.6841
▁dvAdaSA	-10.6842
▁zazWa	-10.6856
▁SuklatIrT	-10.6856
cCid	-10.6865
▁vahant	-10.6869
▁vakra	-10.6869
mETun	-10.6877
nASinI	-10.6887
▁Bavizyat	-10.6888
▁prayacC	-10.6891
opAya	-10.6896
Apt	-10.6903
stapa	-10.6909
▁upacAr	-10.6914
Akfti	-10.6914
▁DAtUn	-10.6916
▁azwama	-10.692
▁nikzipy	-10.6921
▁AdityA	-10.6939
▁gantu	-10.6942
rUpARi	-10.6946
SarIra	-10.6946
▁ASIviz	-10.6954
▁kIcak	-10.6954
nirdagD	-10.6954
▁aByanujYAt	-10.6954
SmaSru	-10.6954
▁SOrya	-10.6954
▁cyavan	-10.6954
▁mahAmanAH	-10.6955
▁nAhuza	-10.6955
▁yUz	-10.6955
▁darB	-10.6955
▁saMhitA	-10.6956
▁naraSrezWa	-10.6957
DyApan	-10.6957
▁mAlya	-10.6957
▁pUjyamAn	-10.6959
▁hanizyAm	-10.696
sahAy	-10.696
▁amarzaR	-10.6963
▁BAradvAj	-10.6964
▁prAptavAn	-10.6965
dvED	-10.6968
▁ucita	-10.6968
▁mAnDAt	-10.6969
▁drOpadyA	-10.6971
▁vyavasAya	-10.6971
▁parityajet	-10.6972
▁sevate	-10.6974
▁niScitA	-10.6976
▁jAgar	-10.6977
▁aBinand	-10.6979
▁baBUv	-10.6979
▁brahmacaryeRa	-10.6983
▁Brazwa	-10.6983
▁grIvA	-10.6992
saMSray	-10.6994
▁ropaRa	-10.7004
▁pAdayoH	-10.7004
patad	-10.7005
▁puRyatam	-10.7006
▁nandin	-10.7009
rAjya	-10.701
rizyAmi	-10.7011
▁DUpa	-10.7012
▁baBA	-10.7013
▁naBaH	-10.7015
▁vfkodar	-10.7015
▁Gnant	-10.7017
▁triBir	-10.7025
yojana	-10.7029
▁rAmAya	-10.7033
▁gaNgAyA	-10.704
▁nirdizwa	-10.7064
▁Buvan	-10.7068
nASAya	-10.7072
▁rakzAMs	-10.7076
▁Bavya	-10.708
▁Bojya	-10.7086
Bakz	-10.7098
▁nirdeS	-10.7106
▁vadAm	-10.7107
▁sarvAtman	-10.7115
Ayeti	-10.7116
▁nagn	-10.7122
▁upacakram	-10.7125
madIy	-10.7134
Apekz	-10.7138
▁hyez	-10.7139
nIl	-10.7143
▁durgA	-10.7147
parimit	-10.7149
mApnuyAt	-10.7167
▁Sibir	-10.7167
▁kEvalya	-10.7167
▁niyacCati	-10.7167
▁udgITa	-10.7167
▁vArARasyA	-10.7167
▁miTaH	-10.7167
▁SatrUn	-10.7167
▁prezy	-10.7167
▁utkaw	-10.7167
Bizecan	-10.7167
mitOjasa	-10.7167
▁tomar	-10.7167
▁anuSoc	-10.7167
▁puzkal	-10.7167
▁tvaramAR	-10.7167
▁yuj	-10.7168
▁mAtali	-10.7168
▁anekaSaH	-10.7168
▁hutvA	-10.7168
paSyad	-10.717
kavac	-10.717
▁DAtavaH	-10.7171
vidit	-10.7174
▁japtvA	-10.7174
▁vidrut	-10.7175
▁vasavaH	-10.7176
praSaman	-10.7184
▁aSok	-10.7189
IBavati	-10.7189
▁uvAsa	-10.7193
▁gATA	-10.7197
▁nAmAni	-10.7199
▁Bajat	-10.7205
▁parokza	-10.721
▁avajYA	-10.721
kzetra	-10.7212
kawu	-10.7212
▁kawukA	-10.7218
▁hariR	-10.7228
▁pAh	-10.7229
▁avekzya	-10.7236
▁pUya	-10.7236
▁Socant	-10.7236
▁prayukta	-10.7239
▁dviviDA	-10.7241
▁sTAvarAR	-10.7248
▁rAjaDarm	-10.7253
▁Atapa	-10.7259
vinASinI	-10.7262
Arogya	-10.7263
▁pratijYAy	-10.7266
▁hrasva	-10.7272
▁SrUya	-10.7281
valay	-10.7293
▁indreR	-10.7294
budDayaH	-10.7304
▁paYcaviMSat	-10.731
pUt	-10.7311
▁grAhi	-10.7318
▁roc	-10.7358
yamAnasya	-10.7364
gAtr	-10.7367
BAj	-10.7371
▁mArgeR	-10.738
nug	-10.7383
▁jAmadagny	-10.7384
▁jImUt	-10.7384
▁mucyante	-10.7384
▁vAnaprasT	-10.7384
▁ahorAtr	-10.7384
▁spazwam	-10.7384
BIt	-10.7384
kaYcuk	-10.7384
▁drakzyant	-10.7384
▁upEti	-10.7384
▁Sucay	-10.7384
▁sItayA	-10.7385
pIqan	-10.7385
▁jagfhu	-10.7385
▁stotr	-10.7385
▁DOmy	-10.7385
▁bahir	-10.7385
▁sulaB	-10.7386
▁tadarD	-10.7386
▁dvizatA	-10.7387
▁nimba	-10.7387
▁SarIriRAm	-10.7389
▁meKalA	-10.739
Byuday	-10.739
▁BAgavat	-10.7391
▁Saravarz	-10.7394
viveSa	-10.7394
▁kavay	-10.7403
▁gadayA	-10.7405
majj	-10.741
▁ananya	-10.7412
pariplut	-10.7416
▁daSaguR	-10.7421
▁bahulA	-10.7424
▁viparyaye	-10.7426
▁vESyA	-10.743
▁picCila	-10.743
▁yAsyant	-10.7431
kusum	-10.7432
gulm	-10.7432
DArmik	-10.7435
cakrame	-10.7437
▁prahasann	-10.7444
samAkul	-10.7444
ruDyate	-10.7445
mUrtaye	-10.7448
Buja	-10.7451
laBy	-10.7452
praharaR	-10.7455
▁SuBAn	-10.7461
aDvam	-10.7463
▁dAya	-10.7472
▁laNGana	-10.7473
nuloma	-10.7489
▁rudreR	-10.7515
▁Kaga	-10.7515
▁Agata	-10.7515
▁samBavA	-10.7517
SarIriR	-10.7525
▁kutr	-10.7538
Dipati	-10.7539
tattvajY	-10.7549
▁sTAtu	-10.7552
eByaSca	-10.7559
janana	-10.7581
▁muhy	-10.7593
▁kzipan	-10.7594
▁pUrRA	-10.7596
▁aruRa	-10.7604
pralAp	-10.7605
▁ulbaR	-10.7607
mUtrapurIz	-10.7607
▁nErft	-10.7607
▁nandikeSvara	-10.7607
▁daDIca	-10.7607
▁rAjIva	-10.7607
▁ojasA	-10.7607
▁veditum	-10.7607
smABir	-10.7607
▁gfhARa	-10.7607
varData	-10.7607
▁pratilom	-10.7608
▁Avaham	-10.7608
sAmarTya	-10.7608
▁gOrI	-10.7608
▁kramaSaH	-10.7608
▁hiraRyagarB	-10.761
▁utsfzwa	-10.761
▁brahmAR	-10.7611
▁kzAtr	-10.7612
▁vyAyAma	-10.7613
▁DyAyant	-10.7613
▁aTAbravIt	-10.7614
▁samAcara	-10.7615
▁utpAda	-10.7621
▁aDiBUta	-10.7626
▁rAjasattama	-10.763
▁vAmana	-10.7635
▁kalaha	-10.7635
▁pipAs	-10.764
AmayAn	-10.7647
avApnoti	-10.7662
SAntaye	-10.7664
▁krIqant	-10.7664
bahu	-10.7674
▁aruR	-10.768
▁kunt	-10.7682
cintaya	-10.7683
Denu	-10.7689
▁deSakAl	-10.769
ANgA	-10.7695
▁kulatT	-10.7697
▁satkAra	-10.7706
▁kftAYjal	-10.7714
muni	-10.7725
▁utkarz	-10.7739
AMstAn	-10.7746
sattv	-10.7748
▁mudita	-10.7751
▁nikzipta	-10.7753
nyAy	-10.7758
▁suraBi	-10.7758
▁jAnA	-10.7772
▁mayUr	-10.7785
▁viBIzaR	-10.7786
kzetre	-10.7799
UrDv	-10.78
maDyasT	-10.7807
pradIp	-10.7809
▁cEv	-10.7812
tandrit	-10.7833
▁hriyamAR	-10.7834
▁mukuw	-10.7834
▁vyUQ	-10.7834
cikIrza	-10.7834
▁taptaKalve	-10.7834
▁tfpyant	-10.7834
▁nizaD	-10.7834
▁dyUte	-10.7834
▁ijyA	-10.7834
▁kubj	-10.7834
▁stuvant	-10.7834
▁sArasvat	-10.7834
▁samIraRa	-10.7834
▁stutvA	-10.7834
▁samutpat	-10.7834
▁paricArak	-10.7834
▁tAlu	-10.7835
▁jarayA	-10.7835
▁pratipatti	-10.7835
▁gamizyasi	-10.7835
▁urasi	-10.7835
▁prAyaSaH	-10.7835
taqAg	-10.7836
▁cakravAk	-10.7837
▁procyate	-10.7837
▁brahmacAriRaH	-10.7838
▁dahet	-10.7839
▁kftAstr	-10.784
▁Bej	-10.7841
▁zaqguR	-10.7842
▁rAkzasADipa	-10.7843
▁vandit	-10.7844
▁nivartante	-10.7845
▁bADate	-10.7845
▁gireH	-10.7845
▁gardaB	-10.7847
▁darSanIy	-10.7849
▁sumantra	-10.785
▁brahmavAdin	-10.7853
guRopet	-10.7856
▁dravati	-10.7858
▁antarhit	-10.786
▁sarpir	-10.7865
▁pravfdDa	-10.7866
▁rucira	-10.7867
▁kadamba	-10.7869
Badra	-10.7874
▁tIra	-10.7882
▁gAmin	-10.7884
▁ceh	-10.7887
▁dizwa	-10.7888
▁AgacCat	-10.789
karmaRaH	-10.7893
kilbiz	-10.7893
bAnDav	-10.7894
▁dvAv	-10.7894
▁rakzy	-10.7901
cireR	-10.7905
▁BuYj	-10.7914
▁apeta	-10.7915
Bavizyati	-10.7923
▁brAhmaReBy	-10.7936
▁BARqe	-10.7937
AYjana	-10.7945
▁rudralok	-10.7951
citra	-10.7953
▁sevan	-10.7962
▁sagara	-10.7965
▁kuntyA	-10.7975
▁yast	-10.7979
cCAy	-10.7987
guq	-10.8018
samudBUt	-10.8035
toy	-10.8037
▁anuttam	-10.8047
▁Samana	-10.8051
Sukr	-10.8059
▁parityakta	-10.8066
▁sindUra	-10.8066
▁vinirdiSet	-10.8066
▁zaRmAs	-10.8066
▁pARqUnA	-10.8066
▁sPIt	-10.8066
▁saMvatsarA	-10.8066
▁veRu	-10.8066
▁lakzmyA	-10.8066
▁upatizWa	-10.8066
▁viSezeR	-10.8067
▁yutA	-10.8068
▁Pena	-10.807
▁fdDi	-10.807
▁pUjanam	-10.8071
samanvitA	-10.8073
▁hovAca	-10.8076
▁triSUl	-10.8076
▁nirft	-10.8078
▁rAjaSArdUla	-10.808
enopa	-10.8081
▁nirvftt	-10.8081
▁smarati	-10.8083
▁anuttamAm	-10.8085
▁jYAyate	-10.8087
▁iz	-10.8096
▁dAqima	-10.8103
▁saptame	-10.8104
▁ihAgat	-10.8109
▁diSA	-10.811
▁Oras	-10.8111
▁jvalanta	-10.8112
▁kukkuwa	-10.8113
▁pAyas	-10.812
▁yAjana	-10.8129
vall	-10.813
▁prayayu	-10.8131
pArag	-10.8131
giri	-10.8134
▁Sapta	-10.8136
▁vfttAnt	-10.8137
SAp	-10.814
vijYAna	-10.8143
pratyaya	-10.8147
▁aviSez	-10.8171
tsn	-10.8173
uttamA	-10.8175
ozit	-10.8211
▁tasyE	-10.8219
sADane	-10.8243
▁varzaSat	-10.8244
▁pibat	-10.8257
psarasA	-10.8258
aTApi	-10.8274
▁KaRqa	-10.8287
dAyi	-10.8301
▁paSupati	-10.8301
▁KyAtA	-10.8304
▁SatrURA	-10.8304
▁Sigru	-10.8304
▁baDyate	-10.8304
▁krimi	-10.8304
▁pravrajit	-10.8304
▁prayoktavy	-10.8304
▁suSroR	-10.8304
▁zazwyA	-10.8304
▁samanuprApt	-10.8304
▁sinDu	-10.8304
▁pradIyate	-10.8304
▁ErAvata	-10.8305
pUruz	-10.8305
▁SakuntalA	-10.8305
▁hayameD	-10.8305
▁Boktu	-10.8305
▁prIyatA	-10.8305
▁prekzamAR	-10.8305
▁varDamAn	-10.8305
▁tarhi	-10.8305
▁sugamam	-10.8305
▁jagAda	-10.8306
▁pradeS	-10.8306
▁BarataSrezWa	-10.8307
▁Sulka	-10.8307
▁saMSoDan	-10.8308
▁nikzipet	-10.8308
▁devaganDarva	-10.8312
samAcAr	-10.8314
▁nikftt	-10.8315
▁sIte	-10.8316
▁cintayat	-10.8319
Bakzy	-10.8319
▁kuntIputr	-10.8319
▁avApt	-10.8319
▁viSada	-10.8321
vyApAr	-10.8325
▁samagra	-10.8326
mfga	-10.8326
▁vfzaBa	-10.8329
▁haritAl	-10.833
▁grahARA	-10.8334
▁rogARAm	-10.8339
▁patnyA	-10.8341
▁pratikUl	-10.8346
▁puNK	-10.8346
▁sTErya	-10.8347
patit	-10.835
sADy	-10.8351
▁Una	-10.8367
kumAr	-10.8369
kuRqal	-10.838
smfti	-10.8385
▁Bikzuk	-10.8403
▁muditA	-10.8422
pUjita	-10.8427
▁suparR	-10.8429
uttama	-10.8435
▁sAmya	-10.8442
▁hrada	-10.8467
viGAt	-10.8502
saMBrAnt	-10.8504
▁ganDarvE	-10.8504
pAwa	-10.8509
▁lokAnA	-10.8526
samIkz	-10.8537
dudruvuH	-10.8548
▁avApsyasi	-10.8548
▁leKanam	-10.8548
▁tuzwuvuH	-10.8548
▁vrIhi	-10.8548
▁catvAriMSat	-10.8548
▁dvijAtiBiH	-10.8548
▁vicinv	-10.8548
▁iNgit	-10.8548
▁anvicCa	-10.8549
▁rAjarze	-10.8549
▁SrotA	-10.8549
▁vAraRAvat	-10.8549
Siro	-10.8549
▁prasft	-10.8549
▁taptvA	-10.8549
▁udBavam	-10.8549
▁upetam	-10.855
▁SaSI	-10.855
▁mardita	-10.855
▁Bagadatta	-10.8551
▁bravIhi	-10.8551
▁prayujya	-10.8554
▁mOna	-10.8554
▁kaNka	-10.8555
▁vyavasTA	-10.8557
▁nfpasattama	-10.8561
▁gAtrARi	-10.8563
▁palAyan	-10.8563
▁cAraRA	-10.8569
▁puraH	-10.857
triMSad	-10.8572
▁trivarg	-10.8573
▁kriyatA	-10.8574
▁hanyamAn	-10.8577
candrArka	-10.8582
▁vyarT	-10.8582
▁sAmnA	-10.8583
▁anyatara	-10.8599
▁brUta	-10.8607
tfpt	-10.8629
jyoti	-10.864
kAryARi	-10.8648
▁vastrAR	-10.8653
▁dAhe	-10.8655
ryamA	-10.8669
▁Anana	-10.8671
prokt	-10.8671
▁upatasT	-10.8672
▁vipriya	-10.8686
▁surAp	-10.8697
gantavy	-10.8701
▁rudrAy	-10.8705
yoDinaH	-10.8719
▁samudyat	-10.8752
dAyaka	-10.8754
darSI	-10.8761
▁icCAma	-10.8763
AkASa	-10.8789
▁dadat	-10.879
▁praSamana	-10.8795
▁ikzvAkURA	-10.8798
▁jAnakI	-10.8798
▁prIyamAR	-10.8798
▁Cardi	-10.8798
▁duhitara	-10.8798
▁kzuDit	-10.8798
▁prAYjalay	-10.8798
▁romaharzaRa	-10.8798
▁kOmAr	-10.8798
▁milit	-10.8798
▁sarvapApahar	-10.8798
▁jantavaH	-10.8798
▁mahItale	-10.8798
▁karpUra	-10.8799
▁kuryuH	-10.8799
▁milat	-10.8799
▁Bokzy	-10.8799
▁pfcCe	-10.8799
▁SrOta	-10.8799
▁vfzaBaDvaja	-10.8799
▁havizA	-10.8799
▁nizAd	-10.8799
▁dahyat	-10.8799
▁cakzuzI	-10.88
▁palASa	-10.88
▁SuBASuB	-10.8801
▁kUpa	-10.8801
badar	-10.8801
▁narottama	-10.8801
▁Candasi	-10.8802
▁viniScity	-10.8802
▁viSvAvas	-10.8803
▁viDAtA	-10.8803
kOSal	-10.8803
▁pravAla	-10.8804
▁prakurvIta	-10.8807
▁apaSyan	-10.8809
▁kanizW	-10.8809
lAlas	-10.881
▁avijYAt	-10.8811
ezveva	-10.8812
▁tvadIy	-10.8812
mastak	-10.8815
▁upahata	-10.8815
▁smaret	-10.8817
▁majjA	-10.8818
▁AgAr	-10.8818
▁viSAla	-10.882
▁pAyu	-10.8822
▁surAsur	-10.8824
▁kArit	-10.8824
▁vijAnI	-10.883
▁avamanya	-10.8831
▁vandan	-10.8846
▁rocana	-10.8856
▁petu	-10.8862
dAyinI	-10.8882
SoRita	-10.8882
cEtanya	-10.8885
pravartan	-10.8886
niket	-10.8887
▁vrajant	-10.8893
paNkaj	-10.89
uttara	-10.8904
mAlI	-10.8912
▁jagAmA	-10.8919
▁nikzip	-10.8924
▁ESvary	-10.893
vAtakaP	-10.8931
▁arhant	-10.8933
jIvinaH	-10.8935
niScit	-10.8941
vyUh	-10.8973
aSAsa	-10.899
musal	-10.8996
▁AdeS	-10.8998
▁rahasy	-10.8999
▁vandy	-10.9028
▁vErAgy	-10.9044
liNgamahA	-10.9055
▁jamadagni	-10.9055
▁tUzRIm	-10.9055
▁ambarIza	-10.9055
▁amanyata	-10.9055
▁BfNg	-10.9055
▁nEvedya	-10.9055
▁tapyamAn	-10.9056
▁striyo	-10.9056
▁dvijarzaBa	-10.9058
▁itaretara	-10.9058
▁vyavasit	-10.9058
▁barh	-10.906
▁varzARAm	-10.9061
▁prahlAda	-10.9063
▁janasTAn	-10.9064
▁aDipatiH	-10.9066
▁taTeti	-10.9067
▁imAH	-10.9067
▁bata	-10.9072
▁yoginA	-10.9074
▁jAnIyAt	-10.9074
▁Srit	-10.9075
utTAn	-10.9079
▁prAptakAl	-10.9084
▁udBavA	-10.9093
▁niSAkar	-10.9104
▁aByaDika	-10.9105
cCAdan	-10.9115
▁dugDa	-10.9122
toza	-10.9125
▁varRASram	-10.9136
dEty	-10.9139
▁duzkft	-10.9144
kuzWa	-10.9149
jajYe	-10.915
gfhRIyAt	-10.9161
▁durjan	-10.9161
AnubanD	-10.9162
▁rakzet	-10.9165
▁necC	-10.9174
dfSyate	-10.9179
▁gaReSvar	-10.9185
pratIkAr	-10.9187
▁vAyav	-10.9191
▁Sreya	-10.9208
▁naSyat	-10.922
gfhRAti	-10.9226
tarpaR	-10.9232
▁punast	-10.9233
jihv	-10.9254
▁kuber	-10.9266
▁paWan	-10.9275
opavizw	-10.9279
▁tArakA	-10.9279
▁hAri	-10.928
▁vAli	-10.928
vAdiBiH	-10.9288
syeha	-10.9291
samIp	-10.9293
▁paryay	-10.9296
GrAR	-10.9313
yajat	-10.9316
▁DriyamAR	-10.9318
▁KyAto	-10.9318
▁Srotavya	-10.9318
▁SvayaTu	-10.9318
▁fzayo	-10.9318
▁jaratkAru	-10.9318
▁kaTyamAn	-10.9318
▁kzutpipAs	-10.9318
▁kArtavIrya	-10.9318
▁stUyamAn	-10.9318
▁yuzmABi	-10.9318
▁jvalat	-10.9318
▁vEkartan	-10.9318
▁kacCap	-10.9318
▁Boktavy	-10.9318
▁Bavennara	-10.9318
▁pUjanIy	-10.9318
▁SoBate	-10.9318
nizevaR	-10.9318
vallaBA	-10.9318
▁samBavati	-10.9319
▁nIlalohita	-10.9319
▁paripAlan	-10.9319
▁prapanna	-10.932
▁Dyeya	-10.932
▁pfTvI	-10.9321
▁sPu	-10.9321
▁pOz	-10.9321
tirikt	-10.9321
▁karRikAr	-10.9322
▁laBante	-10.9322
▁baBUvur	-10.9322
▁taskar	-10.9323
▁sarvAsAm	-10.9326
SAstraviSArad	-10.9326
▁jYEH	-10.9327
jantUnA	-10.9329
▁spfSet	-10.933
▁sadEva	-10.9332
▁caturRAm	-10.9333
▁virAjat	-10.9333
▁ASi	-10.9338
▁lIlA	-10.934
▁kuNkuma	-10.9342
▁sattr	-10.9342
Bart	-10.9344
praRiD	-10.9347
▁jihva	-10.9356
pUraR	-10.9361
Aviva	-10.9362
▁sunda	-10.9362
▁vasUn	-10.9365
aviDyat	-10.9367
samUh	-10.937
▁kARq	-10.9381
▁kftajYa	-10.9385
▁SaNkA	-10.9385
Anuja	-10.9387
▁mamAp	-10.9394
▁Agate	-10.9394
Sakty	-10.941
▁BAsa	-10.9411
▁aBihata	-10.9412
nuSAsanam	-10.9415
satkAr	-10.9423
vistar	-10.9423
mUlaka	-10.9427
nirmukt	-10.9428
▁yantre	-10.9434
▁jitendriy	-10.9441
Bimat	-10.9444
▁yastva	-10.9447
Saman	-10.9463
▁BUpate	-10.9465
▁Ardraka	-10.947
vizAR	-10.9476
Avika	-10.9505
▁kzud	-10.9514
dityA	-10.9518
▁niDAna	-10.9533
vijay	-10.9541
SvameD	-10.9542
Ayuzya	-10.9543
DigacCati	-10.9551
vekzya	-10.9563
▁rudrARA	-10.9577
▁Endr	-10.9588
▁GaRwA	-10.9588
▁KARqava	-10.9588
▁Pull	-10.9588
▁drakzyasi	-10.9588
▁gavAkz	-10.9588
▁jizRu	-10.9588
▁jyotIMz	-10.9588
▁mlecCa	-10.9588
▁svABAvik	-10.9588
▁taTetyuktvA	-10.9588
▁munInAm	-10.9588
▁dIkzit	-10.9588
▁sTAlI	-10.9588
▁Gfzw	-10.9588
▁jAnapad	-10.9588
SrOz	-10.9589
▁GfR	-10.9589
▁samidD	-10.9589
▁yozitAm	-10.9589
▁ambikA	-10.9589
▁kaPapitta	-10.9589
▁udBavaH	-10.9589
▁dasyu	-10.959
▁manmaTa	-10.959
▁priyaMvad	-10.959
cirAt	-10.959
▁parigfhya	-10.9592
▁Dig	-10.9592
▁ambA	-10.9594
▁vijAnIyAt	-10.9594
▁dyutiH	-10.9595
hetor	-10.9596
▁saMvid	-10.9597
▁aSIti	-10.9599
▁gamizyant	-10.96
▁rUpiRI	-10.96
▁Socati	-10.9601
▁hikkA	-10.9601
▁niyogAt	-10.9602
▁taTEv	-10.9603
▁vAyuBakz	-10.9604
▁nEtad	-10.9605
▁valkala	-10.9615
▁viditA	-10.962
sidDyarTa	-10.9627
▁dEtyendr	-10.9639
▁abda	-10.9648
▁etac	-10.9657
▁satata	-10.9679
▁utTAna	-10.968
▁karizyant	-10.9696
▁SarIrAR	-10.9706
utpann	-10.9707
▁AvaraRa	-10.9708
dvAdaS	-10.9727
▁SastreR	-10.9748
▁SrUyatA	-10.9759
▁viDeya	-10.9762
▁SlakzR	-10.9762
AnusAr	-10.9778
▁anuSAs	-10.9781
grasat	-10.9784
▁pAlak	-10.979
hlAd	-10.9793
▁rakzant	-10.9815
▁pulasty	-10.9824
▁dvijottam	-10.9827
panIt	-10.9832
▁amlE	-10.9842
▁jAgart	-10.9842
AyuzaH	-10.9844
▁brAhmaReBya	-10.9855
▁upalaBya	-10.9858
▁dilIp	-10.9866
▁gARapatya	-10.9866
▁manIziBiH	-10.9866
▁rAmalakzmaR	-10.9866
▁sarvaSastraBftA	-10.9866
▁viSuDyati	-10.9866
▁yAtuDAn	-10.9866
▁zaRmuK	-10.9866
▁kOSey	-10.9866
▁vepamAn	-10.9866
▁vfzaparvaRaH	-10.9866
▁pAkaSAsana	-10.9866
▁Datte	-10.9866
▁svasrIy	-10.9866
▁valmIka	-10.9866
▁vinaSyant	-10.9866
▁ftuparR	-10.9866
▁mizat	-10.9866
vyatirek	-10.9866
▁rudatI	-10.9866
▁upetya	-10.9866
▁vindate	-10.9866
▁lIyate	-10.9866
▁prapaSyAm	-10.9866
▁vikzip	-10.9866
▁etasmAt	-10.9866
▁rakzyamAR	-10.9866
ANkuS	-10.9866
▁prapaSyant	-10.9867
▁apaSyam	-10.9867
pARayaH	-10.9868
▁rAkzaseSvara	-10.9868
▁samuddizw	-10.9869
▁Silpin	-10.987
▁grasta	-10.987
▁naranArAyaR	-10.987
▁karavIr	-10.9872
▁diSi	-10.9874
▁maheSa	-10.9876
▁yAcyamAn	-10.9882
▁sikta	-10.9883
yonayaH	-10.9884
▁sAhya	-10.9886
▁visarpa	-10.9891
▁upADyAya	-10.9891
mAtAmah	-10.9902
▁praBAsa	-10.9907
lohita	-10.9916
marizyasi	-10.9923
▁paYcaviMSaka	-10.9931
statrEv	-10.9937
AcArya	-10.9957
▁raYjana	-10.9958
odyat	-10.9963
▁paWat	-10.9968
Azwaka	-10.997
nDaka	-10.9976
▁adBut	-10.998
droR	-10.9981
▁sADya	-10.9988
digD	-10.9994
pratipann	-10.9996
Gor	-11.0011
▁medas	-11.0011
mAza	-11.0014
▁CAy	-11.0022
nnapAn	-11.0034
syopari	-11.0047
vidagD	-11.0049
▁parihar	-11.0053
▁lubDak	-11.0056
raSmi	-11.0056
BEkz	-11.0071
▁SrAnta	-11.0093
▁kartr	-11.0119
▁rogiR	-11.0122
▁prApnuyA	-11.0131
opavAs	-11.0132
▁nizk	-11.0139
▁durgatim	-11.0149
▁sPow	-11.0152
▁tatrEvAntar	-11.0152
▁vaktumarhasi	-11.0152
▁Ipsit	-11.0152
▁Satakrato	-11.0152
▁kAmboj	-11.0152
▁Izat	-11.0152
▁prayAge	-11.0152
▁putrapOtr	-11.0152
▁eraRqa	-11.0152
▁sAyAhn	-11.0152
▁kfttivAs	-11.0152
▁praviSet	-11.0152
▁mUzak	-11.0152
▁vAsizW	-11.0152
▁paced	-11.0152
▁patag	-11.0153
▁Atreya	-11.0153
▁sarvapApeBy	-11.0153
▁toraR	-11.0153
▁niScala	-11.0153
▁kArayed	-11.0154
▁brUyuH	-11.0155
▁upayujya	-11.0155
▁pARqusut	-11.0155
▁niGnat	-11.0157
▁jetA	-11.0158
▁nararzaBa	-11.0158
▁pAragaH	-11.0159
▁gamyatAm	-11.016
▁hotr	-11.0161
▁avabuDya	-11.0161
▁pariSrAnta	-11.0166
drAkz	-11.0167
▁aho	-11.0168
▁raNga	-11.017
▁kUwasT	-11.0172
▁sarpARA	-11.0173
▁sampuwe	-11.0178
▁sraja	-11.0179
kfcCra	-11.0189
soma	-11.0198
padeSena	-11.0218
nDakAr	-11.0218
▁musala	-11.0225
▁mahendr	-11.023
▁mahimA	-11.0232
▁nilay	-11.0233
▁sAtvata	-11.0243
▁prahasta	-11.0258
▁vaDizy	-11.0271
uddiSya	-11.0283
Druv	-11.0323
saMvAd	-11.0346
▁ajita	-11.0347
dakziREH	-11.035
▁paratara	-11.0363
▁trya	-11.0367
anIyam	-11.0372
kadamb	-11.0402
▁mAnin	-11.0414
▁drOpady	-11.0422
Snute	-11.0431
▁etezA	-11.0444
▁Bartari	-11.0446
▁UcatuH	-11.0446
▁akzOhiRI	-11.0446
▁catuzpaT	-11.0446
▁divAkare	-11.0446
▁namastuBya	-11.0446
▁pEtAmah	-11.0446
▁pravekzyAm	-11.0446
▁urvaSI	-11.0446
▁vyapohan	-11.0446
▁ciYcA	-11.0446
▁guror	-11.0446
▁vAjapeya	-11.0446
▁upadiSyate	-11.0446
▁yogakzem	-11.0446
▁anasUy	-11.0446
▁vaRik	-11.0446
bindavaH	-11.0446
▁saBAsadaH	-11.0446
▁Bavitum	-11.0446
▁SuSrUzaR	-11.0446
▁Betavya	-11.0446
▁spfzwvA	-11.0446
▁devatAyatan	-11.0446
▁paYcagavy	-11.0446
▁dustar	-11.0446
mADury	-11.0446
▁gIyate	-11.0446
▁amoGa	-11.0446
▁aBidrut	-11.0447
▁atandritaH	-11.0447
▁trastA	-11.0447
▁damanaka	-11.0447
▁vatsalaH	-11.0448
▁spfhA	-11.0448
▁aNguli	-11.0448
▁duzyati	-11.0449
▁citrakUw	-11.045
▁SaSAp	-11.0451
▁pradey	-11.0454
▁sTApan	-11.0454
▁vicarant	-11.0456
▁SaNkit	-11.0456
▁AByantara	-11.0456
▁pragfhIta	-11.0457
▁cyutam	-11.0457
syEt	-11.0467
▁pacat	-11.0468
pyevaM	-11.0471
▁lIna	-11.0472
▁tajjY	-11.0477
prAsa	-11.05
▁praRAma	-11.0504
▁nyapata	-11.0506
▁spfzwa	-11.0517
komal	-11.0537
Bigaman	-11.0549
nibanDan	-11.055
▁vidagDa	-11.0554
dIpt	-11.0559
dvitIy	-11.0567
salil	-11.057
nArAyaR	-11.0571
▁cAraRa	-11.0574
pArSva	-11.0578
snigDa	-11.0579
▁sAmudr	-11.0585
▁srota	-11.0593
▁surottam	-11.0595
▁vihvala	-11.0605
vinIt	-11.0605
bAD	-11.0611
▁SIrza	-11.0613
▁nibarhaR	-11.0613
tApanaH	-11.0618
▁pApeBy	-11.0633
▁AyuDAn	-11.0652
tejasaH	-11.0692
▁antarAtman	-11.0693
ByaBAzata	-11.0702
▁Adat	-11.0718
▁pitfvy	-11.0735
▁prayuYj	-11.0748
▁Ajagmu	-11.0749
▁DUrt	-11.0749
▁marakata	-11.0749
▁pradIyatAm	-11.0749
▁Garme	-11.0749
▁paryuzita	-11.0749
▁asfk	-11.0749
▁fju	-11.0749
▁bahuviDE	-11.0749
▁SrIBEravaH	-11.0749
▁laGv	-11.0749
▁paYcAkzar	-11.0749
▁BartrA	-11.0749
▁rakzitum	-11.0749
▁pacyate	-11.0749
▁namonamaH	-11.0749
▁viDAtavy	-11.075
▁jantoH	-11.075
mlalavaR	-11.075
▁ekAdaSa	-11.075
▁sammataH	-11.0751
▁kzapA	-11.0751
▁vIRA	-11.0751
▁SanEr	-11.0752
▁gomaya	-11.0755
▁vAcik	-11.0759
▁grAhyA	-11.0761
▁catasra	-11.0769
▁leh	-11.0781
▁katama	-11.0811
▁badDA	-11.0815
▁jAyamAn	-11.0822
otsAh	-11.0835
vAsiBiH	-11.0887
guhya	-11.0887
SayyA	-11.089
▁vikrameR	-11.091
sAlokya	-11.0922
Atapatr	-11.0945
ADyayan	-11.0951
▁kratuBi	-11.0958
▁upAdrava	-11.0981
▁patant	-11.0995
vasit	-11.0999
▁avasT	-11.1017
ASramA	-11.1022
tasTire	-11.1036
▁prakop	-11.1056
prajvalit	-11.1061
▁Kura	-11.1061
▁dvEtavan	-11.1061
▁gARqIvaDanvan	-11.1061
▁pralIyate	-11.1061
▁ripUn	-11.1061
▁sAhAyya	-11.1061
▁samAjagmu	-11.1061
▁vAtsyAyanaH	-11.1061
▁vavfD	-11.1061
▁apasmAr	-11.1061
nikfntan	-11.1061
▁Ballen	-11.1061
▁ucCvAsa	-11.1061
▁stanAntare	-11.1061
▁garIyasI	-11.1061
▁drakzyAm	-11.1061
vaBfT	-11.1061
▁Bartur	-11.1061
▁kamaRqalu	-11.1061
▁jAtavedas	-11.1062
▁satyavAdI	-11.1062
▁Kadira	-11.1062
▁haryaSv	-11.1062
▁trigart	-11.1062
▁kleda	-11.1062
▁tAqana	-11.1062
narta	-11.1062
▁praharatA	-11.1062
▁SAstA	-11.1062
▁AvayoH	-11.1063
SAyin	-11.1063
▁aditi	-11.1063
▁prAptO	-11.1064
▁ruru	-11.1065
▁krIt	-11.1066
vyapASray	-11.1066
cCiv	-11.1066
▁salokatA	-11.1067
▁upAdAna	-11.1068
▁mahodar	-11.1068
▁savitA	-11.1071
▁pratyeka	-11.1079
▁yUp	-11.1079
Sakt	-11.1085
▁drAv	-11.1094
▁jYAtavy	-11.1095
▁nisarg	-11.1095
▁rADe	-11.1096
▁maRqUka	-11.1097
▁piNg	-11.1099
▁utsAha	-11.1103
▁ukzit	-11.1104
SatroH	-11.1107
▁smayamAn	-11.1117
NgAra	-11.1128
palabDeH	-11.115
▁pApmAna	-11.1166
▁praBavant	-11.117
▁aDyayan	-11.119
mAlinI	-11.1192
dviviD	-11.1205
nidrA	-11.1214
aDip	-11.1232
▁SoP	-11.1256
upavIt	-11.1283
viDya	-11.1314
ABiBUt	-11.1327
▁nyavarta	-11.1348
▁suKin	-11.1366
▁nadat	-11.1369
▁marday	-11.1373
vakzyAm	-11.1379
▁Bizag	-11.1384
dOrbalya	-11.1384
▁AzAQ	-11.1384
▁aNkuS	-11.1384
▁balAbalam	-11.1384
▁maDyAhne	-11.1384
▁pUrvAhRe	-11.1384
▁satyaparAkrama	-11.1384
▁trEvidy	-11.1384
▁viSvAmitro	-11.1384
▁zaRQ	-11.1384
▁klizw	-11.1384
▁vfzRayaH	-11.1384
▁rasAtalam	-11.1384
▁BrAjamAn	-11.1384
▁kitav	-11.1384
▁apramAd	-11.1384
▁nyUna	-11.1384
▁sahAmAty	-11.1384
▁tfzA	-11.1384
▁vilapan	-11.1384
▁jaGanya	-11.1384
▁dvApara	-11.1384
SucO	-11.1384
▁vaRij	-11.1384
▁uttamEH	-11.1384
▁rEvat	-11.1384
otpann	-11.1385
▁moGa	-11.1385
▁samAramB	-11.1385
▁karawak	-11.1386
▁BAgaSaH	-11.1386
▁gavay	-11.1387
viviSuH	-11.1387
▁utpala	-11.1388
▁senayA	-11.1389
▁nartak	-11.1392
▁tvarayA	-11.1392
▁anizw	-11.1395
▁nanftu	-11.1396
▁BUyasA	-11.1397
▁aBiBUya	-11.14
snAtak	-11.1408
▁sUdana	-11.1423
▁vAcak	-11.1429
ihocyat	-11.148
▁dinatraya	-11.1514
dakziRe	-11.1521
matsy	-11.1527
satya	-11.1547
▁dunduB	-11.155
uttarottara	-11.157
▁payas	-11.159
▁yuDyas	-11.1605
AScarya	-11.166
▁gay	-11.1667
▁ekatr	-11.1677
▁Bramant	-11.1705
▁cintayitvA	-11.1717
▁gAruqe	-11.1717
▁kizkinDA	-11.1717
▁mumucu	-11.1717
▁nIlakaRW	-11.1717
▁pracakrire	-11.1717
▁tarasvinA	-11.1717
ricyate	-11.1717
▁amfzyamAR	-11.1717
▁baBru	-11.1717
▁daMzwriR	-11.1717
▁duratikrama	-11.1717
▁juhvat	-11.1717
▁mucukund	-11.1717
▁prakartavy	-11.1717
▁yuyutsa	-11.1717
▁mARqavya	-11.1717
▁prakupit	-11.1717
▁upozya	-11.1717
▁Anantyam	-11.1717
▁cAkzuz	-11.1717
▁nEgam	-11.1717
▁prANmuK	-11.1717
▁prozit	-11.1717
▁upaniza	-11.1717
▁itTaM	-11.1717
▁kArpAsa	-11.1717
▁mantavy	-11.1718
kuwil	-11.1718
▁praSAmya	-11.1718
patsyate	-11.1718
▁uttAnapAda	-11.1718
valgu	-11.1718
▁yAsyasi	-11.1718
▁BUmeH	-11.1718
▁BakzaRAt	-11.1718
vasIdati	-11.1718
▁sravat	-11.1719
▁namaskAr	-11.1719
▁SaNKacakragadA	-11.1719
▁devarzaya	-11.1719
▁Astik	-11.172
▁virAjit	-11.172
▁jaGana	-11.1722
▁Uzma	-11.1723
▁puwita	-11.1727
styakt	-11.1729
▁satyavikrama	-11.1731
▁Seku	-11.1731
pracur	-11.1733
▁vihfty	-11.1748
Acaman	-11.1761
▁sevyamAn	-11.1765
▁samAvart	-11.1772
▁karuRA	-11.1784
▁praSaMsA	-11.1808
jihmag	-11.1815
darSiBiH	-11.182
▁udyant	-11.1828
gadADara	-11.1832
hiMsA	-11.1845
brahmA	-11.1886
▁tanmay	-11.1888
lubD	-11.1889
mUrDani	-11.1889
gacCet	-11.1889
saMhAra	-11.1893
saMsarg	-11.1903
▁mamEv	-11.1912
▁kil	-11.1913
viGna	-11.1916
▁paYcANg	-11.1948
▁pravav	-11.1988
sUdanaH	-11.1989
▁gaNg	-11.2012
pIqA	-11.2025
▁Cattra	-11.2062
▁aBIkzRa	-11.2062
▁atIndriy	-11.2062
▁avApnuhi	-11.2062
▁dAridrya	-11.2062
▁hEhay	-11.2062
▁kalevaram	-11.2062
▁pippal	-11.2062
▁purastAd	-11.2062
▁sOdAsa	-11.2062
ojjval	-11.2062
▁munISvar	-11.2062
▁aSnIyAt	-11.2062
▁gaBast	-11.2062
▁bawu	-11.2062
olbaR	-11.2062
▁umApatim	-11.2062
▁SrISuka	-11.2062
▁uparizwAt	-11.2062
▁kandarpa	-11.2062
▁rAjarzir	-11.2062
▁mugD	-11.2063
▁Sambar	-11.2063
▁BrU	-11.2063
▁aSrOzam	-11.2063
▁aDyakz	-11.2063
▁lAkzA	-11.2063
▁DIyate	-11.2063
▁rohita	-11.2063
▁jAgrat	-11.2063
▁viparyayAt	-11.2063
▁avAptavAn	-11.2063
▁nikftyA	-11.2063
▁hotA	-11.2064
▁pAMsu	-11.2064
▁mardanAt	-11.2064
▁vArzik	-11.2065
▁druhy	-11.2066
▁asakt	-11.2068
▁apavarga	-11.207
AByanujYAt	-11.207
ASizaH	-11.2072
sAkziR	-11.2076
▁trilocana	-11.2085
▁cAtmAna	-11.2086
▁javen	-11.2098
snAna	-11.2102
maRqana	-11.2102
▁vihInA	-11.2104
▁klama	-11.211
▁pradizwa	-11.211
▁uttame	-11.2139
▁ASaya	-11.2161
▁aNgArak	-11.2183
▁utpady	-11.2187
▁yajYiy	-11.2196
▁utsarg	-11.2213
▁bahava	-11.2218
Bezaja	-11.224
▁Bajant	-11.2243
▁ahiMs	-11.2245
tfzRA	-11.2247
brUhi	-11.2247
rUkz	-11.2247
BErava	-11.2253
jIvita	-11.2255
bAla	-11.2282
▁evEt	-11.2289
rakzaRa	-11.2294
cakzur	-11.2308
▁apsara	-11.2379
nvapadya	-11.2381
ucc	-11.2381
prayacCanti	-11.239
amatt	-11.2411
urag	-11.2418
▁raGu	-11.2419
kaRqUti	-11.2419
Kinn	-11.2419
NGri	-11.2419
gnIzom	-11.2419
liKet	-11.2419
▁hiraRyakaSipo	-11.2419
▁juhoti	-11.2419
▁kadrU	-11.2419
▁mUrCan	-11.2419
▁nEmittik	-11.2419
▁tAmbUla	-11.2419
vyaBicAriR	-11.2419
▁kanIyAn	-11.2419
eyivAn	-11.2419
▁samBAzamAR	-11.2419
▁tyAjy	-11.2419
▁vakzasi	-11.2419
▁akArayat	-11.2419
▁yuzmAn	-11.2419
▁kfzRavartm	-11.2419
▁pucC	-11.2419
▁vIkzamAR	-11.2419
▁pradAsyati	-11.2419
▁sTAtavya	-11.242
▁varteta	-11.242
▁kArzI	-11.242
▁nEzWikI	-11.242
▁akroDan	-11.242
▁vastavya	-11.242
pIlu	-11.242
▁titikz	-11.2421
▁stuvat	-11.2421
nuSizw	-11.2422
▁Betsy	-11.2422
▁vinadan	-11.2423
▁bAliS	-11.2423
▁DarmacAriR	-11.2424
▁Bindy	-11.2424
▁prapadyant	-11.2424
▁prameh	-11.2424
▁prahfzy	-11.2425
▁plakza	-11.2426
▁utsaha	-11.2427
stapasA	-11.243
suKAvaha	-11.243
sAnuzu	-11.2431
▁SuSrUzu	-11.2436
▁viSiKE	-11.2438
Brazw	-11.2442
▁cUt	-11.2442
▁nindy	-11.2446
▁vipreBy	-11.2449
▁samapadya	-11.2456
endu	-11.2459
oddeS	-11.2475
▁UzmA	-11.2482
▁savitu	-11.2483
▁lol	-11.2512
▁puzpita	-11.2519
▁asmad	-11.2544
▁asmAs	-11.2556
▁SrutAyu	-11.2581
▁samavetA	-11.2588
dunduBi	-11.2602
ganDarva	-11.2609
SaNK	-11.2614
▁saMvartaka	-11.2621
vajra	-11.2632
▁DArit	-11.2691
spfzw	-11.2702
▁Aroh	-11.2714
kukkuw	-11.2715
▁cintaye	-11.2769
ardit	-11.2775
▁BIrURA	-11.279
▁SibikA	-11.279
▁parikleS	-11.279
▁sAraTy	-11.279
▁sahalakzmaRa	-11.279
▁suyoDanam	-11.279
▁dfpt	-11.279
▁gAruqa	-11.279
▁mEnAka	-11.279
▁tEjas	-11.279
▁ESvaram	-11.279
▁svAtantry	-11.279
▁varjayitvA	-11.279
ajIjanat	-11.279
▁hriyat	-11.279
▁SaSaMsa	-11.279
▁pARO	-11.279
▁ucyamAn	-11.279
▁kosal	-11.279
▁kAzAya	-11.279
▁Sucismit	-11.279
apohati	-11.2791
▁acintayat	-11.2791
▁SirAMs	-11.2791
▁icCAmyaha	-11.2792
▁pAdapAH	-11.2792
▁pratihAraH	-11.2792
▁garjant	-11.2792
▁uttAna	-11.2794
▁cikitsak	-11.2794
▁svapnA	-11.2795
▁sAvitr	-11.2798
▁ABaraRAn	-11.28
▁paruzA	-11.2803
mitavikrama	-11.2823
▁aDIty	-11.2824
▁kOravARA	-11.2826
▁vEriR	-11.2832
▁ivABava	-11.2834
▁antarDAna	-11.2879
kuYjara	-11.289
▁sfjant	-11.2908
▁yuDyant	-11.2923
BujA	-11.2933
AvatAr	-11.2949
▁sAmant	-11.2955
praBftaya	-11.2964
▁muYcant	-11.2996
sUkzm	-11.2998
dEvata	-11.3001
▁bilv	-11.3006
sADanA	-11.3017
BAgin	-11.3043
Scandr	-11.3058
J	-13.0496
W	-13.0497
C	-13.0498
K	-13.0499
T	-13.05
